<unk>	0
<s>	0
</s>	0
[PAD]	0
▁t	-0
he	-1
▁a	-2
▁s	-3
▁w	-4
nd	-5
▁the	-6
ed	-7
▁b	-8
▁to	-9
▁and	-10
▁h	-11
▁f	-12
▁T	-13
in	-14
▁wa	-15
re	-16
it	-17
ou	-18
▁l	-19
▁d	-20
▁c	-21
▁p	-22
ay	-23
▁m	-24
er	-25
▁was	-26
▁The	-27
om	-28
▁he	-29
is	-30
ar	-31
▁n	-32
im	-33
on	-34
▁sa	-35
id	-36
ll	-37
▁ha	-38
▁g	-39
▁S	-40
at	-41
ing	-42
ot	-43
en	-44
an	-45
le	-46
or	-47
ir	-48
am	-49
et	-50
▁H	-51
▁it	-52
▁th	-53
ig	-54
▁They	-55
▁in	-56
il	-57
▁pl	-58
▁He	-59
▁"	-60
ow	-61
ver	-62
ri	-63
ut	-64
▁be	-65
▁u	-66
▁said	-67
▁play	-68
ith	-69
▁day	-70
▁with	-71
pp	-72
On	-73
▁o	-74
▁y	-75
oo	-76
ked	-77
▁r	-78
▁her	-79
ce	-80
▁I	-81
▁She	-82
ld	-83
▁Tim	-84
▁his	-85
▁st	-86
ke	-87
▁e	-88
▁big	-89
nt	-90
ck	-91
▁you	-92
very	-93
st	-94
ve	-95
▁On	-96
end	-97
."	-98
▁on	-99
un	-100
▁happ	-101
▁L	-102
riend	-103
▁friend	-104
all	-105
ily	-106
▁they	-107
▁we	-108
▁had	-109
▁not	-110
▁li	-111
▁up	-112
her	-113
▁want	-114
▁of	-115
ad	-116
▁B	-117
itt	-118
se	-119
▁do	-120
▁M	-121
▁happy	-122
ent	-123
▁very	-124
es	-125
▁that	-126
▁saw	-127
ould	-128
▁mom	-129
▁for	-130
▁sh	-131
ittle	-132
▁little	-133
▁so	-134
▁she	-135
ch	-136
ime	-137
▁ne	-138
▁nam	-139
▁time	-140
▁k	-141
ound	-142
▁there	-143
▁Lily	-144
▁named	-145
▁sm	-146
▁bo	-147
▁were	-148
▁Tom	-149
▁wanted	-150
▁but	-151
out	-152
▁friends	-153
!"	-154
ved	-155
ht	-156
ird	-157
el	-158
▁bird	-159
al	-160
▁an	-161
ake	-162
▁It	-163
▁too	-164
ome	-165
ug	-166
ide	-167
▁went	-168
▁wh	-169
▁hel	-170
▁A	-171
The	-172
▁Once	-173
▁is	-174
▁all	-175
▁help	-176
ue	-177
▁loo	-178
▁lo	-179
ter	-180
▁upon	-181
ry	-182
ore	-183
▁One	-184
ind	-185
▁fun	-186
get	-187
▁toy	-188
ill	-189
ame	-190
▁as	-191
▁at	-192
ra	-193
▁j	-194
▁did	-195
gether	-196
▁re	-197
ur	-198
▁se	-199
▁together	-200
ack	-201
▁cat	-202
ly	-203
▁tre	-204
ood	-205
ic	-206
ted	-207
▁dog	-208
▁could	-209
▁can	-210
▁their	-211
ard	-212
ec	-213
ark	-214
▁gir	-215
▁played	-216
▁him	-217
▁ball	-218
?"	-219
▁girl	-220
way	-221
▁ro	-222
▁go	-223
hed	-224
my	-225
▁are	-226
▁out	-227
▁le	-228
▁fr	-229
ain	-230
▁kn	-231
hen	-232
▁them	-233
um	-234
ax	-235
▁sad	-236
ul	-237
▁boy	-238
▁tree	-239
other	-240
▁have	-241
▁man	-242
▁cl	-243
▁loved	-244
▁looked	-245
oug	-246
▁found	-247
▁sp	-248
▁star	-249
▁Sue	-250
one	-251
hing	-252
▁sc	-253
▁back	-254
▁Max	-255
own	-256
are	-257
▁like	-258
ful	-259
side	-260
▁me	-261
▁bec	-262
▁park	-263
ight	-264
ong	-265
▁car	-266
op	-267
elt	-268
▁W	-269
▁liked	-270
▁would	-271
One	-272
▁make	-273
round	-274
▁la	-275
▁fa	-276
▁But	-277
▁felt	-278
You	-279
ell	-280
▁see	-281
▁Ben	-282
omet	-283
▁Sam	-284
▁asked	-285
ag	-286
▁new	-287
▁no	-288
ice	-289
ouse	-290
▁started	-291
ared	-292
▁came	-293
▁al	-294
▁other	-295
ought	-296
iled	-297
▁somet	-298
▁ag	-299
▁good	-300
▁small	-301
ss	-302
▁br	-303
▁smiled	-304
▁say	-305
ried	-306
ade	-307
ings	-308
ob	-309
pot	-310
▁J	-311
▁wor	-312
▁find	-313
▁ex	-314
ia	-315
▁away	-316
ty	-317
▁put	-318
▁what	-319
▁something	-320
▁co	-321
▁from	-322
▁made	-323
▁thought	-324
ened	-325
▁home	-326
▁playing	-327
ook	-328
▁every	-329
▁wal	-330
▁mu	-331
uc	-332
ach	-333
▁F	-334
arn	-335
▁Spot	-336
▁ran	-337
ile	-338
ie	-339
ave	-340
▁again	-341
▁some	-342
▁laug	-343
dd	-344
▁house	-345
▁down	-346
▁fl	-347
king	-348
▁took	-349
▁scared	-350
▁pr	-351
ny	-352
ure	-353
▁toys	-354
▁learn	-355
▁You	-356
if	-357
▁will	-358
▁box	-359
ick	-360
ret	-361
ab	-362
ep	-363
▁my	-364
▁around	-365
▁things	-366
▁your	-367
oud	-368
▁bl	-369
uck	-370
▁when	-371
▁lived	-372
ish	-373
▁fe	-374
▁then	-375
▁sun	-376
as	-377
,"	-378
▁sw	-379
▁ch	-380
us	-381
pped	-382
▁Mia	-383
▁ab	-384
ank	-385
▁get	-386
ucy	-387
ump	-388
▁lot	-389
ist	-390
Th	-391
oth	-392
▁tried	-393
ap	-394
▁know	-395
▁says	-396
▁got	-397
ited	-398
▁who	-399
▁kne	-400
ust	-401
Tim	-402
▁many	-403
nder	-404
▁int	-405
▁about	-406
▁D	-407
▁pret	-408
▁dec	-409
▁any	-410
▁red	-411
ive	-412
▁knew	-413
ace	-414
ous	-415
▁more	-416
ise	-417
▁care	-418
▁Lucy	-419
ally	-420
▁pic	-421
au	-422
qu	-423
▁hug	-424
▁learned	-425
▁po	-426
▁water	-427
fter	-428
▁v	-429
▁So	-430
▁became	-431
▁best	-432
ause	-433
▁op	-434
▁gre	-435
▁exc	-436
urp	-437
ways	-438
▁outside	-439
▁laughed	-440
▁Bob	-441
▁look	-442
▁always	-443
▁decid	-444
▁show	-445
▁un	-446
ant	-447
▁room	-448
fe	-449
▁decided	-450
▁ho	-451
▁because	-452
▁And	-453
▁into	-454
▁eat	-455
▁Mom	-456
ite	-457
▁jump	-458
▁pe	-459
▁both	-460
ers	-461
▁dad	-462
udd	-463
▁ke	-464
▁E	-465
▁one	-466
nn	-467
Lily	-468
They	-469
▁this	-470
▁excited	-471
▁fast	-472
▁nice	-473
▁feel	-474
Yes	-475
▁run	-476
▁long	-477
▁told	-478
▁sk	-479
▁am	-480
urpr	-481
our	-482
▁inside	-483
ull	-484
▁tr	-485
▁surpr	-486
▁mo	-487
ink	-488
▁pretty	-489
iny	-490
▁sor	-491
▁take	-492
Wh	-493
og	-494
▁sl	-495
▁each	-496
▁gave	-497
▁much	-498
lew	-499
▁gra	-500
nna	-501
▁rock	-502
▁how	-503
▁str	-504
ara	-505
imal	-506
▁animal	-507
ged	-508
▁need	-509
▁than	-510
▁C	-511
ven	-512
etter	-513
▁tow	-514
▁or	-515
▁under	-516
ess	-517
▁old	-518
▁sorry	-519
ge	-520
Tom	-521
But	-522
ised	-523
ro	-524
urt	-525
▁cle	-526
▁fish	-527
▁walked	-528
▁clo	-529
and	-530
▁His	-531
▁bear	-532
ft	-533
ase	-534
ast	-535
▁hand	-536
urn	-537
▁We	-538
▁kind	-539
▁te	-540
here	-541
▁happened	-542
▁just	-543
▁flow	-544
▁food	-545
▁list	-546
▁didn	-547
▁animals	-548
▁hig	-549
pl	-550
▁near	-551
▁wat	-552
▁ide	-553
▁try	-554
ched	-555
▁sky	-556
ine	-557
▁Fr	-558
▁sn	-559
ving	-560
▁fi	-561
▁Amy	-562
▁us	-563
▁idea	-564
▁better	-565
▁bug	-566
▁heard	-567
gry	-568
▁its	-569
▁tw	-570
▁let	-571
pec	-572
ate	-573
able	-574
ff	-575
▁en	-576
▁careful	-577
▁share	-578
ex	-579
▁if	-580
Thank	-581
▁Th	-582
▁fly	-583
▁stor	-584
▁Anna	-585
ial	-586
▁flew	-587
more	-588
▁anymore	-589
▁spec	-590
▁special	-591
ion	-592
▁com	-593
▁lots	-594
▁never	-595
▁by	-596
lf	-597
ream	-598
▁dan	-599
▁Then	-600
Mom	-601
▁bu	-602
▁fo	-603
▁wind	-604
▁don	-605
▁tal	-606
▁clean	-607
ort	-608
▁gr	-609
▁love	-610
rm	-611
ber	-612
▁end	-613
ople	-614
▁even	-615
▁Sara	-616
▁mag	-617
▁hard	-618
▁shiny	-619
udden	-620
▁fore	-621
▁over	-622
▁cake	-623
▁When	-624
ak	-625
▁book	-626
▁col	-627
▁turn	-628
▁Every	-629
▁fam	-630
▁bad	-631
▁safe	-632
▁after	-633
ady	-634
uddenly	-635
▁people	-636
▁proud	-637
▁surprised	-638
pected	-639
Let	-640
▁high	-641
▁cu	-642
▁hurt	-643
▁come	-644
imb	-645
arden	-646
▁door	-647
▁garden	-648
▁ground	-649
bb	-650
▁opened	-651
▁picked	-652
▁loud	-653
▁climb	-654
expected	-655
▁unexpected	-656
▁gl	-657
▁che	-658
▁Her	-659
ild	-660
▁From	-661
▁im	-662
▁give	-663
▁way	-664
ail	-665
▁thanked	-666
▁color	-667
▁blue	-668
▁still	-669
▁ever	-670
▁hugged	-671
▁call	-672
▁far	-673
ip	-674
As	-675
No	-676
▁K	-677
▁off	-678
▁magic	-679
iz	-680
ough	-681
age	-682
ummy	-683
▁jumped	-684
▁should	-685
▁family	-686
▁par	-687
ool	-688
▁kid	-689
▁In	-690
▁smile	-691
hes	-692
uff	-693
▁place	-694
kay	-695
▁walk	-696
▁now	-697
ct	-698
▁great	-699
em	-700
ture	-701
▁P	-702
▁qu	-703
les	-704
▁strong	-705
▁stay	-706
▁unt	-707
▁sto	-708
aut	-709
▁forest	-710
ane	-711
▁bra	-712
itty	-713
▁frog	-714
▁bro	-715
▁until	-716
▁beaut	-717
dy	-718
▁squ	-719
▁stick	-720
xt	-721
▁boat	-722
▁next	-723
oon	-724
lease	-725
ning	-726
▁happily	-727
▁listen	-728
aking	-729
▁kids	-730
▁tra	-731
ies	-732
iful	-733
▁beautiful	-734
▁app	-735
th	-736
▁helped	-737
▁dra	-738
▁showed	-739
▁clos	-740
be	-741
▁imp	-742
▁story	-743
unny	-744
oy	-745
▁while	-746
▁town	-747
rel	-748
pt	-749
▁rain	-750
ress	-751
▁picture	-752
▁being	-753
▁rem	-754
▁everyone	-755
ary	-756
ree	-757
▁mor	-758
▁hat	-759
▁called	-760
▁met	-761
▁stopped	-762
▁ad	-763
▁game	-764
Now	-765
Can	-766
It	-767
▁angry	-768
ger	-769
uffy	-770
▁open	-771
▁Sally	-772
▁wo	-773
▁truck	-774
▁keep	-775
▁soft	-776
▁cry	-777
▁yummy	-778
▁lost	-779
▁bed	-780
▁Let	-781
▁warm	-782
by	-783
▁Wh	-784
vent	-785
▁brave	-786
▁mouse	-787
▁ate	-788
▁Kitty	-789
▁de	-790
ished	-791
fore	-792
▁Jo	-793
▁doll	-794
▁couldn	-795
so	-796
▁watch	-797
▁leave	-798
▁R	-799
dded	-800
▁also	-801
▁fell	-802
▁green	-803
▁face	-804
▁two	-805
gan	-806
iss	-807
▁flowers	-808
bit	-809
What	-810
ble	-811
▁noise	-812
abbit	-813
irst	-814
owl	-815
▁where	-816
az	-817
ock	-818
He	-819
▁soon	-820
self	-821
▁slide	-822
▁hole	-823
▁rabbit	-824
luffy	-825
▁before	-826
irrel	-827
▁pus	-828
ired	-829
▁sat	-830
illy	-831
▁hear	-832
▁use	-833
Hi	-834
▁kept	-835
▁pa	-836
▁squirrel	-837
ear	-838
ma	-839
▁nodded	-840
That	-841
▁expl	-842
▁store	-843
▁cook	-844
▁hands	-845
Look	-846
▁birds	-847
▁pain	-848
When	-849
▁going	-850
▁funny	-851
▁having	-852
day	-853
▁sing	-854
aybe	-855
uch	-856
▁ey	-857
aug	-858
▁catch	-859
aught	-860
▁Fluffy	-861
▁Can	-862
uit	-863
▁yell	-864
▁think	-865
leep	-866
Then	-867
▁cra	-868
▁fin	-869
▁bre	-870
▁fix	-871
▁tired	-872
▁G	-873
▁bunny	-874
▁used	-875
▁looking	-876
ange	-877
▁bus	-878
▁Jack	-879
air	-880
▁work	-881
▁wr	-882
▁Now	-883
▁our	-884
▁pull	-885
We	-886
▁thr	-887
thing	-888
▁wait	-889
▁kit	-890
▁sound	-891
ting	-892
▁jo	-893
▁has	-894
▁mean	-895
▁pond	-896
ember	-897
▁beh	-898
▁dr	-899
▁sunny	-900
led	-901
▁others	-902
▁ask	-903
ng	-904
chen	-905
▁kitchen	-906
▁talk	-907
▁flo	-908
▁dif	-909
▁pie	-910
rew	-911
▁head	-912
▁real	-913
▁first	-914
▁tri	-915
▁mommy	-916
▁eyes	-917
ello	-918
▁import	-919
Hello	-920
▁fav	-921
ath	-922
joy	-923
▁z	-924
▁remember	-925
▁right	-926
▁flower	-927
▁con	-928
▁mess	-929
▁party	-930
▁cold	-931
▁Do	-932
▁vo	-933
▁swe	-934
ious	-935
▁sand	-936
ac	-937
orn	-938
▁race	-939
imes	-940
▁curi	-941
▁important	-942
▁duck	-943
▁moral	-944
▁shared	-945
zy	-946
ount	-947
▁ice	-948
▁Fin	-949
▁okay	-950
▁advent	-951
▁worked	-952
llow	-953
▁enjoy	-954
▁dress	-955
▁bright	-956
▁making	-957
▁curious	-958
▁own	-959
▁tall	-960
▁dir	-961
▁hop	-962
reed	-963
▁hid	-964
▁favor	-965
▁ri	-966
hn	-967
▁Suddenly	-968
▁sleep	-969
▁dis	-970
▁favorite	-971
Wow	-972
▁thing	-973
▁began	-974
▁mon	-975
▁bag	-976
▁hill	-977
Don	-978
▁cla	-979
▁rest	-980
▁draw	-981
▁here	-982
▁yard	-983
▁tell	-984
Ben	-985
ster	-986
▁watched	-987
que	-988
▁move	-989
▁follow	-990
▁bel	-991
ect	-992
▁cut	-993
▁night	-994
▁agreed	-995
▁pick	-996
co	-997
▁This	-998
At	-999
▁block	-1000
▁hun	-1001
aper	-1002
lly	-1003
▁stop	-1004
▁behind	-1005
▁surprise	-1006
ied	-1007
▁sho	-1008
▁hot	-1009
▁table	-1010
▁grass	-1011
▁worry	-1012
▁dark	-1013
▁trees	-1014
▁voice	-1015
▁walking	-1016
▁Dad	-1017
fere	-1018
▁floor	-1019
▁farm	-1020
▁lion	-1021
▁top	-1022
▁differe	-1023
▁please	-1024
▁ru	-1025
▁song	-1026
▁butter	-1027
▁tail	-1028
▁sweet	-1029
▁shout	-1030
▁colors	-1031
▁read	-1032
▁As	-1033
▁lady	-1034
▁forg	-1035
isy	-1036
▁leaves	-1037
▁closer	-1038
ign	-1039
▁cars	-1040
▁turned	-1041
▁needed	-1042
▁tast	-1043
Why	-1044
aring	-1045
▁wood	-1046
▁cried	-1047
After	-1048
▁different	-1049
▁laugh	-1050
▁del	-1051
▁piece	-1052
▁Mr	-1053
ered	-1054
Max	-1055
▁roll	-1056
▁adventure	-1057
▁fire	-1058
▁does	-1059
ike	-1060
▁cr	-1061
▁hungry	-1062
▁hair	-1063
▁paper	-1064
▁feeling	-1065
▁yellow	-1066
▁full	-1067
bo	-1068
▁prin	-1069
▁touch	-1070
▁wet	-1071
▁friendly	-1072
▁per	-1073
oom	-1074
Sue	-1075
ken	-1076
cked	-1077
ached	-1078
▁swing	-1079
▁fruit	-1080
▁That	-1081
ient	-1082
▁broken	-1083
▁ready	-1084
bye	-1085
ppy	-1086
▁prom	-1087
▁another	-1088
▁light	-1089
▁pretend	-1090
▁Jane	-1091
▁dance	-1092
ater	-1093
▁climbed	-1094
where	-1095
▁listened	-1096
▁Bobo	-1097
▁danc	-1098
▁running	-1099
▁Timmy	-1100
▁only	-1101
▁plan	-1102
▁gone	-1103
▁swim	-1104
bbed	-1105
sh	-1106
▁train	-1107
ila	-1108
ndma	-1109
▁close	-1110
av	-1111
▁smell	-1112
aby	-1113
▁amaz	-1114
▁All	-1115
▁hold	-1116
▁blocks	-1117
▁wonder	-1118
▁repl	-1119
▁butterf	-1120
▁sees	-1121
▁reached	-1122
▁wall	-1123
▁pu	-1124
oney	-1125
▁slow	-1126
▁helping	-1127
▁dri	-1128
▁cream	-1129
▁cool	-1130
▁glad	-1131
af	-1132
▁ant	-1133
▁less	-1134
▁been	-1135
▁goodbye	-1136
▁ac	-1137
▁fight	-1138
ather	-1139
▁pushed	-1140
iced	-1141
▁fair	-1142
▁O	-1143
▁must	-1144
▁John	-1145
▁Everyone	-1146
▁hide	-1147
▁moment	-1148
▁window	-1149
▁sit	-1150
▁balloon	-1151
▁ar	-1152
▁snow	-1153
▁child	-1154
Sam	-1155
▁explore	-1156
▁wished	-1157
▁baby	-1158
▁wag	-1159
▁done	-1160
▁ste	-1161
She	-1162
▁buy	-1163
▁stuck	-1164
▁perf	-1165
▁thank	-1166
▁might	-1167
icy	-1168
▁name	-1169
ized	-1170
▁trying	-1171
▁bit	-1172
▁coming	-1173
▁bar	-1174
▁quick	-1175
▁fall	-1176
▁apple	-1177
ash	-1178
▁scary	-1179
▁looks	-1180
▁build	-1181
▁doing	-1182
▁win	-1183
aisy	-1184
▁underst	-1185
▁dream	-1186
▁din	-1187
▁dirty	-1188
▁held	-1189
Mia	-1190
▁There	-1191
ames	-1192
▁books	-1193
▁mar	-1194
▁butterfly	-1195
▁left	-1196
▁shouted	-1197
▁count	-1198
▁replied	-1199
▁After	-1200
avy	-1201
▁reach	-1202
▁tiny	-1203
▁through	-1204
ott	-1205
▁dro	-1206
▁why	-1207
▁air	-1208
▁bran	-1209
▁land	-1210
key	-1211
▁Mommy	-1212
▁three	-1213
▁pulled	-1214
▁spl	-1215
▁grow	-1216
▁treat	-1217
▁brother	-1218
▁wise	-1219
▁woods	-1220
▁sure	-1221
▁chair	-1222
▁mat	-1223
ix	-1224
ins	-1225
▁seen	-1226
▁pink	-1227
▁clapped	-1228
▁plant	-1229
ely	-1230
▁owl	-1231
▁cup	-1232
ield	-1233
▁sometimes	-1234
andy	-1235
▁fill	-1236
▁cloud	-1237
ask	-1238
Suddenly	-1239
▁swam	-1240
outh	-1241
In	-1242
▁job	-1243
▁colorful	-1244
▁remembered	-1245
▁nest	-1246
▁bigger	-1247
▁mouth	-1248
pe	-1249
Okay	-1250
▁lesson	-1251
▁join	-1252
▁cre	-1253
ph	-1254
oup	-1255
room	-1256
So	-1257
art	-1258
▁waved	-1259
uddy	-1260
▁grabbed	-1261
▁stayed	-1262
Oh	-1263
▁paint	-1264
▁clot	-1265
▁cont	-1266
▁clothes	-1267
▁ve	-1268
ower	-1269
▁waited	-1270
▁quickly	-1271
cle	-1272
▁word	-1273
This	-1274
▁broke	-1275
ucky	-1276
▁games	-1277
▁cast	-1278
▁blew	-1279
▁gent	-1280
▁enjoyed	-1281
▁noticed	-1282
ries	-1283
ation	-1284
▁set	-1285
▁likes	-1286
Anna	-1287
▁pictures	-1288
ton	-1289
de	-1290
▁sea	-1291
▁heavy	-1292
▁mus	-1293
▁alone	-1294
▁gif	-1295
asure	-1296
▁anything	-1297
▁spot	-1298
▁miss	-1299
▁hopped	-1300
▁world	-1301
▁turns	-1302
orm	-1303
▁year	-1304
der	-1305
▁bott	-1306
▁pat	-1307
▁pot	-1308
▁pen	-1309
lc	-1310
▁mix	-1311
▁arm	-1312
▁Lila	-1313
▁bike	-1314
▁tight	-1315
▁everywhere	-1316
▁won	-1317
▁tower	-1318
▁threw	-1319
▁himself	-1320
▁followed	-1321
▁Buddy	-1322
▁Daisy	-1323
▁ride	-1324
man	-1325
less	-1326
▁ju	-1327
▁je	-1328
amp	-1329
ape	-1330
▁comp	-1331
▁key	-1332
eddy	-1333
row	-1334
▁white	-1335
ctor	-1336
▁wrong	-1337
▁makes	-1338
▁What	-1339
▁break	-1340
arent	-1341
▁black	-1342
ee	-1343
ner	-1344
olly	-1345
▁deep	-1346
thy	-1347
▁music	-1348
▁pol	-1349
▁delic	-1350
".	-1351
Spot	-1352
cess	-1353
ued	-1354
Sara	-1355
▁forgot	-1356
▁bee	-1357
▁parent	-1358
▁castle	-1359
Do	-1360
ves	-1361
▁em	-1362
Lucy	-1363
iet	-1364
▁wear	-1365
▁At	-1366
▁hit	-1367
ister	-1368
oun	-1369
▁quiet	-1370
▁round	-1371
ance	-1372
▁stu	-1373
▁danced	-1374
▁vis	-1375
ully	-1376
▁wants	-1377
▁leaf	-1378
▁monster	-1379
▁nap	-1380
▁understand	-1381
ang	-1382
▁bowl	-1383
os	-1384
rot	-1385
Her	-1386
ren	-1387
▁bor	-1388
▁talked	-1389
itten	-1390
▁dry	-1391
▁faster	-1392
▁Sarah	-1393
▁cookies	-1394
▁Joe	-1395
▁Inside	-1396
▁brought	-1397
fully	-1398
▁leg	-1399
Fr	-1400
ross	-1401
▁mum	-1402
zz	-1403
Bob	-1404
▁side	-1405
ts	-1406
▁sign	-1407
▁smart	-1408
▁To	-1409
cy	-1410
▁rocks	-1411
▁someone	-1412
▁poin	-1413
▁sec	-1414
▁sharing	-1415
▁fox	-1416
▁well	-1417
▁rel	-1418
▁happen	-1419
▁res	-1420
▁button	-1421
▁branch	-1422
▁really	-1423
▁finished	-1424
ence	-1425
▁Soon	-1426
ards	-1427
▁dinner	-1428
▁sister	-1429
▁flying	-1430
▁contin	-1431
▁worried	-1432
▁Em	-1433
▁ele	-1434
▁visit	-1435
▁Maybe	-1436
▁beach	-1437
▁que	-1438
▁secret	-1439
▁el	-1440
▁king	-1441
▁Tommy	-1442
gy	-1443
▁today	-1444
▁perfect	-1445
▁river	-1446
▁everything	-1447
▁silly	-1448
▁shin	-1449
ipp	-1450
▁danger	-1451
▁children	-1452
▁gu	-1453
▁field	-1454
▁filled	-1455
▁fur	-1456
▁else	-1457
▁smiles	-1458
▁welc	-1459
▁wish	-1460
▁sang	-1461
▁gi	-1462
ze	-1463
▁pudd	-1464
▁snack	-1465
▁eating	-1466
▁pieces	-1467
▁realized	-1468
▁promised	-1469
▁Billy	-1470
ord	-1471
▁pig	-1472
▁spr	-1473
▁free	-1474
▁continued	-1475
▁bite	-1476
ead	-1477
▁parents	-1478
While	-1479
▁carefully	-1480
ated	-1481
itting	-1482
▁ear	-1483
▁jar	-1484
Maybe	-1485
▁cow	-1486
▁blank	-1487
▁drag	-1488
stead	-1489
▁orange	-1490
▁mud	-1491
▁crying	-1492
▁blanket	-1493
▁enough	-1494
▁rolled	-1495
cket	-1496
From	-1497
▁Gra	-1498
▁soup	-1499
▁sail	-1500
▁purp	-1501
imi	-1502
▁yes	-1503
ale	-1504
▁drink	-1505
▁snake	-1506
▁boun	-1507
ses	-1508
▁pet	-1509
▁crab	-1510
▁laughing	-1511
▁throw	-1512
▁fairy	-1513
▁words	-1514
▁amazing	-1515
▁bath	-1516
ich	-1517
▁purple	-1518
▁without	-1519
ire	-1520
▁bottle	-1521
▁gift	-1522
▁grandma	-1523
used	-1524
ons	-1525
▁past	-1526
▁money	-1527
iver	-1528
His	-1529
fort	-1530
▁mail	-1531
▁barked	-1532
Amy	-1533
▁Ch	-1534
▁wagged	-1535
▁att	-1536
chool	-1537
▁monkey	-1538
▁doctor	-1539
▁brown	-1540
unch	-1541
▁moved	-1542
ises	-1543
▁asks	-1544
▁getting	-1545
▁closed	-1546
▁whe	-1547
.""	-1548
▁welcome	-1549
▁su	-1550
▁candy	-1551
▁school	-1552
▁morning	-1553
▁owner	-1554
gg	-1555
▁lon	-1556
Just	-1557
▁higher	-1558
▁mother	-1559
▁sitting	-1560
▁treasure	-1561
▁smo	-1562
▁dangerous	-1563
▁lonely	-1564
▁living	-1565
▁apples	-1566
ush	-1567
▁shop	-1568
ased	-1569
▁strange	-1570
vel	-1571
▁shining	-1572
▁road	-1573
ere	-1574
▁creat	-1575
una	-1576
▁paw	-1577
▁ra	-1578
▁shoes	-1579
▁pre	-1580
ible	-1581
▁stre	-1582
▁talking	-1583
althy	-1584
▁caught	-1585
▁egg	-1586
ol	-1587
▁pass	-1588
me	-1589
▁lake	-1590
▁runs	-1591
▁buck	-1592
▁letter	-1593
▁wings	-1594
ey	-1595
▁chee	-1596
fish	-1597
▁mad	-1598
▁fan	-1599
asket	-1600
▁basket	-1601
ass	-1602
▁dragon	-1603
app	-1604
set	-1605
cks	-1606
▁stone	-1607
▁thinks	-1608
▁stand	-1609
▁Mimi	-1610
▁delicious	-1611
▁Bl	-1612
▁nose	-1613
▁puddle	-1614
▁tom	-1615
▁belie	-1616
▁farmer	-1617
▁same	-1618
▁years	-1619
board	-1620
▁teddy	-1621
▁bat	-1622
isk	-1623
itch	-1624
▁mine	-1625
▁sear	-1626
▁coat	-1627
ches	-1628
igh	-1629
▁days	-1630
Fin	-1631
▁bring	-1632
▁gentle	-1633
▁fit	-1634
▁start	-1635
▁finally	-1636
▁whist	-1637
▁cray	-1638
igg	-1639
▁scream	-1640
▁kite	-1641
▁pill	-1642
phant	-1643
arm	-1644
▁vill	-1645
▁Jen	-1646
▁cho	-1647
▁singing	-1648
ella	-1649
sw	-1650
ined	-1651
▁tasty	-1652
▁ph	-1653
▁ben	-1654
▁trou	-1655
▁shell	-1656
▁herself	-1657
▁hoped	-1658
▁answ	-1659
▁wore	-1660
▁swings	-1661
sy	-1662
▁hor	-1663
▁belong	-1664
▁push	-1665
Please	-1666
▁bush	-1667
iskers	-1668
▁carrot	-1669
▁arri	-1670
aughty	-1671
▁teach	-1672
bow	-1673
ract	-1674
▁naughty	-1675
▁elephant	-1676
▁dropped	-1677
▁shap	-1678
ier	-1679
▁coll	-1680
sc	-1681
▁teac	-1682
emy	-1683
▁woke	-1684
▁Jim	-1685
ball	-1686
▁pile	-1687
▁hiding	-1688
▁cour	-1689
isa	-1690
erry	-1691
▁puppy	-1692
▁touc	-1693
▁min	-1694
red	-1695
▁seem	-1696
llie	-1697
ama	-1698
▁twins	-1699
▁lunch	-1700
▁bow	-1701
▁sack	-1702
▁pers	-1703
▁course	-1704
▁cheered	-1705
▁shapes	-1706
▁grew	-1707
Jo	-1708
fused	-1709
▁rope	-1710
▁village	-1711
irth	-1712
irthday	-1713
▁juice	-1714
ipped	-1715
▁rainbow	-1716
▁spin	-1717
OK	-1718
▁shook	-1719
▁spoon	-1720
▁bench	-1721
▁street	-1722
▁fence	-1723
▁cute	-1724
▁rob	-1725
▁nut	-1726
▁cheese	-1727
▁prob	-1728
▁touched	-1729
idge	-1730
▁joy	-1731
col	-1732
▁Emma	-1733
▁Whiskers	-1734
▁seed	-1735
▁arrived	-1736
▁war	-1737
▁teacher	-1738
▁corn	-1739
Good	-1740
▁able	-1741
▁forever	-1742
▁bell	-1743
▁few	-1744
Mommy	-1745
▁carry	-1746
▁Blue	-1747
▁most	-1748
▁plane	-1749
lem	-1750
▁eas	-1751
▁sounds	-1752
lla	-1753
▁des	-1754
▁spo	-1755
▁problem	-1756
▁birthday	-1757
▁inc	-1758
▁power	-1759
br	-1760
umb	-1761
▁bugs	-1762
ilk	-1763
▁wonderful	-1764
▁dolls	-1765
▁busy	-1766
▁Thank	-1767
irp	-1768
ato	-1769
eb	-1770
▁wra	-1771
▁promise	-1772
▁feels	-1773
ian	-1774
eter	-1775
▁Finally	-1776
▁bread	-1777
▁neck	-1778
▁robot	-1779
▁milk	-1780
▁rec	-1781
▁shy	-1782
ountain	-1783
▁kiss	-1784
irt	-1785
▁heart	-1786
▁band	-1787
▁cave	-1788
▁pocket	-1789
ub	-1790
▁helpful	-1791
gly	-1792
▁slowly	-1793
▁believe	-1794
▁shake	-1795
umpy	-1796
eared	-1797
▁patient	-1798
▁pop	-1799
▁ob	-1800
arp	-1801
▁live	-1802
▁storm	-1803
▁holding	-1804
▁ugly	-1805
▁towards	-1806
▁Bella	-1807
▁upset	-1808
▁turt	-1809
▁shr	-1810
▁Just	-1811
?""	-1812
adow	-1813
▁cover	-1814
▁kitten	-1815
▁Remy	-1816
ost	-1817
▁Le	-1818
▁sharp	-1819
▁disapp	-1820
▁stories	-1821
▁suc	-1822
▁honey	-1823
ove	-1824
read	-1825
▁noises	-1826
▁cir	-1827
▁balls	-1828
▁spark	-1829
▁dist	-1830
▁gray	-1831
oggy	-1832
▁dirt	-1833
▁late	-1834
▁driver	-1835
▁seat	-1836
▁bucket	-1837
▁meet	-1838
▁young	-1839
▁Molly	-1840
▁turtle	-1841
▁amazed	-1842
alm	-1843
▁spid	-1844
▁treats	-1845
▁Lisa	-1846
▁magical	-1847
unt	-1848
ator	-1849
▁glow	-1850
▁Mark	-1851
▁seek	-1852
▁zoom	-1853
▁lem	-1854
▁sandw	-1855
fortable	-1856
umber	-1857
▁trip	-1858
▁mist	-1859
ourn	-1860
▁splas	-1861
▁mark	-1862
▁journ	-1863
▁fold	-1864
▁mach	-1865
▁puzz	-1866
▁part	-1867
ling	-1868
▁horse	-1869
▁organ	-1870
▁wild	-1871
▁princess	-1872
pping	-1873
oose	-1874
▁Grandma	-1875
▁cookie	-1876
ens	-1877
▁hugs	-1878
▁taking	-1879
ung	-1880
▁wheel	-1881
epend	-1882
▁cloth	-1883
Sure	-1884
▁sug	-1885
▁instead	-1886
▁bubb	-1887
▁string	-1888
▁net	-1889
▁drove	-1890
iling	-1891
▁rude	-1892
▁huge	-1893
▁coin	-1894
▁stars	-1895
▁fighting	-1896
▁spicy	-1897
▁Ann	-1898
▁lucky	-1899
Of	-1900
▁craw	-1901
Hey	-1902
▁bone	-1903
▁inv	-1904
ors	-1905
not	-1906
▁ca	-1907
pper	-1908
▁forget	-1909
up	-1910
▁di	-1911
▁Jill	-1912
▁sal	-1913
aur	-1914
▁Fred	-1915
▁cannot	-1916
▁whistle	-1917
▁card	-1918
▁sick	-1919
▁path	-1920
▁cou	-1921
Finally	-1922
Be	-1923
▁spider	-1924
▁wide	-1925
▁foot	-1926
▁snowman	-1927
▁life	-1928
▁songs	-1929
▁pillow	-1930
ize	-1931
ular	-1932
est	-1933
ert	-1934
▁fixed	-1935
▁giant	-1936
▁N	-1937
oph	-1938
rill	-1939
▁boss	-1940
▁nod	-1941
▁last	-1942
▁comes	-1943
▁joke	-1944
▁moon	-1945
▁taste	-1946
den	-1947
▁machine	-1948
▁grumpy	-1949
Later	-1950
▁wave	-1951
▁thin	-1952
▁drive	-1953
▁cart	-1954
▁ash	-1955
▁Leo	-1956
▁ser	-1957
▁grab	-1958
▁peace	-1959
▁daddy	-1960
lower	-1961
ery	-1962
▁sel	-1963
▁shelf	-1964
▁hidden	-1965
erest	-1966
▁suddenly	-1967
▁wasn	-1968
▁write	-1969
▁landed	-1970
▁confused	-1971
▁ring	-1972
▁change	-1973
▁worm	-1974
▁chased	-1975
▁interest	-1976
oop	-1977
▁fruits	-1978
▁sour	-1979
▁myster	-1980
ity	-1981
▁bark	-1982
▁rad	-1983
▁smooth	-1984
▁Come	-1985
▁adventures	-1986
▁val	-1987
▁stepped	-1988
▁fle	-1989
ope	-1990
▁oven	-1991
▁takes	-1992
▁missed	-1993
▁selfish	-1994
kin	-1995
John	-1996
▁sheep	-1997
▁messy	-1998
▁across	-1999
▁ent	-2000
▁exp	-2001
to	-2002
▁ce	-2003
▁later	-2004
elly	-2005
ife	-2006
▁tie	-2007
▁sticks	-2008
▁Luna	-2009
ever	-2010
▁step	-2011
▁bought	-2012
▁drew	-2013
▁tea	-2014
pect	-2015
irpy	-2016
▁ban	-2017
box	-2018
▁wash	-2019
▁lay	-2020
▁pour	-2021
▁beak	-2022
ose	-2023
▁jog	-2024
▁grate	-2025
▁Bu	-2026
▁ducks	-2027
▁spe	-2028
▁legs	-2029
ugg	-2030
▁fil	-2031
▁emp	-2032
mer	-2033
▁hope	-2034
▁empty	-2035
▁slid	-2036
▁feather	-2037
▁sleepy	-2038
▁drum	-2039
amed	-2040
ars	-2041
eth	-2042
▁pan	-2043
▁zoo	-2044
▁phone	-2045
▁grateful	-2046
▁fing	-2047
St	-2048
▁Cat	-2049
ions	-2050
▁lemon	-2051
let	-2052
▁clever	-2053
▁smelly	-2054
▁imag	-2055
▁splash	-2056
▁interesting	-2057
▁Daddy	-2058
▁save	-2059
▁chick	-2060
▁calm	-2061
▁med	-2062
▁watching	-2063
izzy	-2064
izz	-2065
▁plate	-2066
▁ign	-2067
yard	-2068
▁clouds	-2069
▁banan	-2070
▁line	-2071
▁ba	-2072
▁faces	-2073
▁Mary	-2074
▁act	-2075
▁lift	-2076
▁though	-2077
▁wolf	-2078
▁backyard	-2079
wel	-2080
▁seemed	-2081
▁dogs	-2082
▁spray	-2083
To	-2084
Come	-2085
▁prot	-2086
▁whole	-2087
▁Be	-2088
▁mot	-2089
▁fancy	-2090
▁quest	-2091
▁arms	-2092
▁puzzle	-2093
ward	-2094
▁supp	-2095
▁healthy	-2096
▁finish	-2097
erly	-2098
▁along	-2099
▁rocket	-2100
llo	-2101
▁explain	-2102
dge	-2103
▁easy	-2104
▁jewel	-2105
ont	-2106
▁pract	-2107
▁Chirpy	-2108
▁jelly	-2109
▁tid	-2110
▁fake	-2111
▁crayons	-2112
▁With	-2113
▁wondered	-2114
▁scar	-2115
▁Jerry	-2116
▁ship	-2117
▁maybe	-2118
onest	-2119
▁emb	-2120
▁pool	-2121
▁longer	-2122
iger	-2123
▁Bunny	-2124
▁anyone	-2125
ually	-2126
▁front	-2127
▁working	-2128
▁gives	-2129
irr	-2130
▁pack	-2131
▁such	-2132
ocked	-2133
▁nothing	-2134
▁bossy	-2135
ment	-2136
▁Doggy	-2137
▁trouble	-2138
▁saved	-2139
▁smelled	-2140
▁pin	-2141
rass	-2142
▁neigh	-2143
arrass	-2144
iting	-2145
▁honest	-2146
▁av	-2147
arge	-2148
Jack	-2149
▁embarrass	-2150
▁van	-2151
▁forgive	-2152
▁tidy	-2153
▁weak	-2154
▁puts	-2155
urse	-2156
unk	-2157
▁Ollie	-2158
▁shirt	-2159
▁kick	-2160
▁mind	-2161
▁Momo	-2162
▁plants	-2163
▁neighb	-2164
▁sol	-2165
▁gently	-2166
▁cozy	-2167
orrow	-2168
ming	-2169
▁explor	-2170
Soon	-2171
sp	-2172
▁mistake	-2173
▁yog	-2174
oc	-2175
oomy	-2176
▁pointed	-2177
▁lad	-2178
▁stood	-2179
▁af	-2180
▁onto	-2181
ork	-2182
▁jumping	-2183
▁waiting	-2184
▁prince	-2185
▁cross	-2186
▁lock	-2187
▁cheer	-2188
▁queen	-2189
▁Why	-2190
▁Their	-2191
▁wing	-2192
we	-2193
ones	-2194
▁large	-2195
▁lovely	-2196
!""	-2197
ult	-2198
▁sur	-2199
▁ret	-2200
▁deer	-2201
▁chew	-2202
▁couch	-2203
▁bal	-2204
▁stret	-2205
aughter	-2206
era	-2207
▁My	-2208
▁places	-2209
▁ladder	-2210
oof	-2211
▁return	-2212
raid	-2213
▁ants	-2214
▁Together	-2215
▁dish	-2216
▁afraid	-2217
▁cleaned	-2218
▁tomorrow	-2219
▁building	-2220
▁sandwich	-2221
▁person	-2222
ned	-2223
▁pretended	-2224
▁bounce	-2225
▁wip	-2226
▁St	-2227
gest	-2228
▁match	-2229
▁rich	-2230
▁Somet	-2231
uce	-2232
▁gather	-2233
▁search	-2234
▁pizz	-2235
▁boring	-2236
▁Mama	-2237
oman	-2238
▁hum	-2239
▁teeth	-2240
aced	-2241
▁daughter	-2242
▁woman	-2243
▁scarf	-2244
My	-2245
▁goes	-2246
▁law	-2247
▁stra	-2248
▁swimming	-2249
▁furry	-2250
▁splashed	-2251
▁pri	-2252
▁loves	-2253
▁true	-2254
▁screamed	-2255
▁lazy	-2256
▁gen	-2257
Kitty	-2258
▁answer	-2259
▁eag	-2260
▁number	-2261
▁ashamed	-2262
▁pizza	-2263
aw	-2264
▁appeared	-2265
▁fear	-2266
▁nearby	-2267
▁powerful	-2268
▁flag	-2269
▁hang	-2270
vous	-2271
▁clown	-2272
ek	-2273
▁chase	-2274
▁motor	-2275
▁wand	-2276
▁rub	-2277
▁success	-2278
▁chocol	-2279
▁If	-2280
▁creative	-2281
▁trust	-2282
▁wearing	-2283
▁noisy	-2284
▁matter	-2285
pa	-2286
▁dig	-2287
▁Bobby	-2288
▁hello	-2289
▁ner	-2290
▁tool	-2291
▁saf	-2292
▁Bird	-2293
ado	-2294
▁nervous	-2295
elp	-2296
▁test	-2297
▁smiling	-2298
▁sold	-2299
icked	-2300
oppy	-2301
▁circle	-2302
osaur	-2303
mb	-2304
▁map	-2305
▁drank	-2306
▁tries	-2307
▁class	-2308
▁chocolate	-2309
▁Please	-2310
▁Jimmy	-2311
▁impress	-2312
▁knee	-2313
▁Tiny	-2314
▁gener	-2315
▁polite	-2316
▁dinosaur	-2317
▁mirr	-2318
▁balloons	-2319
▁gold	-2320
▁rare	-2321
▁protect	-2322
▁cand	-2323
▁Go	-2324
Stop	-2325
▁carried	-2326
ensive	-2327
▁shadow	-2328
▁ap	-2329
▁mirror	-2330
▁Don	-2331
▁Sp	-2332
▁bald	-2333
▁gun	-2334
ina	-2335
▁expensive	-2336
▁reg	-2337
▁mysterious	-2338
iff	-2339
▁pump	-2340
▁note	-2341
▁hero	-2342
▁march	-2343
▁har	-2344
▁icy	-2345
arl	-2346
▁weird	-2347
▁respect	-2348
▁snee	-2349
▁cri	-2350
▁gate	-2351
▁soap	-2352
Sally	-2353
rag	-2354
▁Benny	-2355
ute	-2356
issors	-2357
▁poor	-2358
▁these	-2359
▁towel	-2360
▁whale	-2361
▁feet	-2362
▁tape	-2363
▁dizzy	-2364
itter	-2365
▁generous	-2366
ndpa	-2367
▁pres	-2368
nic	-2369
▁disco	-2370
Help	-2371
▁How	-2372
ventually	-2373
▁picnic	-2374
▁lead	-2375
▁mic	-2376
▁sque	-2377
▁embarrassed	-2378
▁journey	-2379
▁Bear	-2380
▁sugar	-2381
isp	-2382
scape	-2383
▁boot	-2384
▁tent	-2385
▁peaceful	-2386
▁fat	-2387
▁scissors	-2388
▁tasted	-2389
Lila	-2390
▁yelled	-2391
▁tick	-2392
▁mel	-2393
▁brush	-2394
▁dancing	-2395
ness	-2396
▁glue	-2397
▁hur	-2398
▁rough	-2399
▁clap	-2400
ote	-2401
▁bridge	-2402
▁decor	-2403
▁Sometimes	-2404
▁closet	-2405
▁crown	-2406
▁stir	-2407
ual	-2408
imp	-2409
▁print	-2410
owed	-2411
airs	-2412
ume	-2413
▁cap	-2414
▁lamp	-2415
▁vase	-2416
▁scare	-2417
lebr	-2418
▁relie	-2419
any	-2420
lves	-2421
▁eld	-2422
▁tele	-2423
▁celebr	-2424
▁gigg	-2425
▁whisp	-2426
▁log	-2427
▁Ducky	-2428
▁sco	-2429
▁blow	-2430
▁painted	-2431
▁pay	-2432
erries	-2433
▁wis	-2434
▁berries	-2435
▁mixed	-2436
▁spread	-2437
▁cage	-2438
▁wouldn	-2439
▁bake	-2440
rob	-2441
▁mountain	-2442
getable	-2443
▁adm	-2444
▁become	-2445
▁drawing	-2446
▁famous	-2447
▁knocked	-2448
▁bean	-2449
▁norm	-2450
asp	-2451
▁vegetable	-2452
▁kicked	-2453
ustr	-2454
▁shark	-2455
ser	-2456
▁incred	-2457
▁lose	-2458
▁normal	-2459
▁wrap	-2460
ced	-2461
▁group	-2462
▁thick	-2463
▁fine	-2464
▁glass	-2465
▁ignor	-2466
▁clock	-2467
▁team	-2468
▁elderly	-2469
▁Br	-2470
▁clear	-2471
▁corner	-2472
▁frustr	-2473
▁mighty	-2474
robe	-2475
▁cone	-2476
▁incredible	-2477
ighed	-2478
▁moms	-2479
▁balance	-2480
▁sock	-2481
▁space	-2482
▁jam	-2483
ragile	-2484
▁fright	-2485
▁branches	-2486
▁organized	-2487
▁roar	-2488
port	-2489
▁sword	-2490
alous	-2491
▁Some	-2492
▁guess	-2493
▁fool	-2494
▁sell	-2495
▁Al	-2496
▁feed	-2497
▁which	-2498
▁horn	-2499
▁present	-2500
▁jealous	-2501
▁yarn	-2502
ony	-2503
▁fragile	-2504
▁burn	-2505
▁understood	-2506
▁mis	-2507
▁stubb	-2508
▁ter	-2509
▁frustrated	-2510
Where	-2511
ray	-2512
▁hose	-2513
cient	-2514
▁spent	-2515
▁shoe	-2516
▁taught	-2517
▁stubborn	-2518
▁twist	-2519
▁creature	-2520
▁chest	-2521
▁spoiled	-2522
▁relieved	-2523
▁ancient	-2524
▁wake	-2525
ique	-2526
▁fier	-2527
▁pray	-2528
▁fierce	-2529
▁Pe	-2530
▁eggs	-2531
▁cab	-2532
▁barn	-2533
▁terri	-2534
▁pumpkin	-2535
▁comfortable	-2536
▁ord	-2537
ym	-2538
▁frightened	-2539
▁toug	-2540
orry	-2541
▁unique	-2542
▁measure	-2543
▁goat	-2544
▁wagon	-2545
▁unus	-2546
▁breath	-2547
▁foolish	-2548
▁useful	-2549
▁exploring	-2550
dle	-2551
▁straw	-2552
▁unusual	-2553
▁dug	-2554
▁clay	-2555
▁discover	-2556
▁tomato	-2557
▁dead	-2558
▁finding	-2559
▁police	-2560
▁wrote	-2561
▁clum	-2562
▁exam	-2563
lace	-2564
▁waves	-2565
▁square	-2566
▁hears	-2567
▁cabin	-2568
▁tells	-2569
▁dull	-2570
▁necklace	-2571
▁clumsy	-2572
▁Ella	-2573
▁tough	-2574
▁bubbles	-2575
▁nosy	-2576
And	-2577
kn	-2578
▁searched	-2579
▁washed	-2580
▁bathroom	-2581
▁paws	-2582
bby	-2583
▁Andy	-2584
ond	-2585
unn	-2586
anged	-2587
▁board	-2588
fic	-2589
known	-2590
▁asking	-2591
▁crazy	-2592
▁thankful	-2593
▁sunf	-2594
▁bitter	-2595
yal	-2596
▁pir	-2597
alk	-2598
▁ind	-2599
▁diffic	-2600
▁rose	-2601
cil	-2602
berry	-2603
▁swan	-2604
▁'	-2605
▁bloom	-2606
▁unknown	-2607
▁covered	-2608
▁difficult	-2609
▁add	-2610
▁pencil	-2611
▁finger	-2612
Dad	-2613
▁ham	-2614
▁hoop	-2615
▁jet	-2616
▁witch	-2617
Together	-2618
▁drop	-2619
▁chicken	-2620
▁gloomy	-2621
▁loyal	-2622
apped	-2623
als	-2624
▁wealthy	-2625
com	-2626
light	-2627
▁unl	-2628
▁cats	-2629
▁ending	-2630
Here	-2631
▁guit	-2632
bled	-2633
shine	-2634
▁dove	-2635
▁joined	-2636
▁cher	-2637
anut	-2638
▁mov	-2639
▁terrible	-2640
▁Rex	-2641
▁yours	-2642
iant	-2643
Me	-2644
▁Sammy	-2645
▁Tr	-2646
▁salad	-2647
▁nuts	-2648
▁While	-2649
▁rat	-2650
ground	-2651
▁mask	-2652
▁potato	-2653
xible	-2654
selves	-2655
▁tiger	-2656
▁value	-2657
▁changed	-2658
▁moving	-2659
▁Many	-2660
▁exciting	-2661
ormous	-2662
▁body	-2663
▁toast	-2664
erp	-2665
▁record	-2666
▁zip	-2667
▁cheap	-2668
▁disg	-2669
▁guitar	-2670
irsty	-2671
▁knowing	-2672
▁adventur	-2673
▁Brown	-2674
▁enormous	-2675
▁hairy	-2676
▁yourself	-2677
▁shoot	-2678
▁remind	-2679
▁pepper	-2680
▁bored	-2681
ory	-2682
▁acorn	-2683
land	-2684
▁adventurous	-2685
▁sunshine	-2686
▁smaller	-2687
▁stuff	-2688
▁hats	-2689
▁solve	-2690
▁flexible	-2691
▁cost	-2692
rilliant	-2693
▁knife	-2694
▁perform	-2695
▁snacks	-2696
▁nods	-2697
▁shore	-2698
▁brilliant	-2699
▁thirsty	-2700
▁delicate	-2701
▁Mum	-2702
▁frown	-2703
▁disgust	-2704
▁collect	-2705
▁stri	-2706
▁seeds	-2707
▁counted	-2708
▁asleep	-2709
▁banana	-2710
reen	-2711
▁mailbox	-2712
iness	-2713
▁dough	-2714
▁Will	-2715
▁trick	-2716
ungle	-2717
▁heal	-2718
▁neighbor	-2719
live	-2720
Who	-2721
▁stage	-2722
▁market	-2723
▁cube	-2724
ident	-2725
▁jungle	-2726
▁stat	-2727
▁squee	-2728
mbre	-2729
▁explained	-2730
ates	-2731
▁umbre	-2732
▁disgusting	-2733
fted	-2734
▁lab	-2735
▁jolly	-2736
▁flash	-2737
inal	-2738
ilt	-2739
▁crane	-2740
▁fridge	-2741
pid	-2742
corn	-2743
▁suit	-2744
▁rh	-2745
iddle	-2746
▁sunflower	-2747
▁times	-2748
erpill	-2749
▁caterpill	-2750
▁relax	-2751
▁shiver	-2752
▁Jenny	-2753
▁island	-2754
▁four	-2755
▁Instead	-2756
iginal	-2757
▁harm	-2758
ict	-2759
ying	-2760
▁stupid	-2761
▁medic	-2762
und	-2763
▁comb	-2764
▁goose	-2765
▁cro	-2766
edient	-2767
▁stove	-2768
If	-2769
Are	-2770
▁independ	-2771
most	-2772
▁gem	-2773
▁spring	-2774
▁batter	-2775
▁sighed	-2776
▁vegetables	-2777
▁stones	-2778
▁shine	-2779
pes	-2780
▁medicine	-2781
▁depend	-2782
▁rug	-2783
▁Your	-2784
▁original	-2785
▁careless	-2786
▁stamp	-2787
▁gar	-2788
▁cries	-2789
▁carrots	-2790
gu	-2791
▁scr	-2792
▁successful	-2793
▁No	-2794
▁sauce	-2795
▁jeep	-2796
▁meal	-2797
▁obedient	-2798
▁popcorn	-2799
▁almost	-2800
▁middle	-2801
▁magn	-2802
▁study	-2803
▁independent	-2804
▁fearful	-2805
▁jack	-2806
met	-2807
inky	-2808
Sorry	-2809
▁escape	-2810
▁caterpillar	-2811
▁serious	-2812
▁peanut	-2813
▁bedroom	-2814
▁eager	-2815
aken	-2816
▁gets	-2817
▁parrot	-2818
▁statue	-2819
▁helmet	-2820
▁pebb	-2821
▁fountain	-2822
▁raven	-2823
▁ang	-2824
▁umbrella	-2825
▁pasta	-2826
▁compet	-2827
▁jacket	-2828
▁belonged	-2829
▁dest	-2830
▁filthy	-2831
▁design	-2832
▁borrow	-2833
▁cam	-2834
erable	-2835
▁houses	-2836
▁prize	-2837
▁hay	-2838
▁brace	-2839
▁standing	-2840
▁miserable	-2841
▁raced	-2842
▁taken	-2843
How	-2844
ages	-2845
▁fork	-2846
▁crayon	-2847
▁painting	-2848
▁triang	-2849
io	-2850
▁impressive	-2851
▁fig	-2852
▁choose	-2853
▁tied	-2854
▁spotted	-2855
iable	-2856
▁lifted	-2857
▁slipped	-2858
ours	-2859
▁tank	-2860
▁thoughtful	-2861
▁dependable	-2862
▁steal	-2863
▁garage	-2864
▁built	-2865
▁er	-2866
▁mush	-2867
ipe	-2868
▁mole	-2869
▁crawled	-2870
▁scale	-2871
▁boats	-2872
▁pian	-2873
▁pant	-2874
Inside	-2875
▁hammer	-2876
▁bottom	-2877
lph	-2878
▁cheerful	-2879
▁using	-2880
▁smoke	-2881
▁picks	-2882
berries	-2883
▁piano	-2884
▁shows	-2885
rn	-2886
▁moder	-2887
▁magnet	-2888
dile	-2889
codile	-2890
▁hurts	-2891
inary	-2892
▁ref	-2893
▁eng	-2894
▁crack	-2895
▁aunt	-2896
▁melon	-2897
▁waff	-2898
▁modern	-2899
unnel	-2900
▁dolph	-2901
cream	-2902
▁tunnel	-2903
pack	-2904
oin	-2905
▁arrow	-2906
▁reliable	-2907
▁hopping	-2908
▁mushroom	-2909
▁jug	-2910
▁squash	-2911
▁gum	-2912
▁sink	-2913
▁movie	-2914
▁tax	-2915
▁flute	-2916
▁beet	-2917
▁lean	-2918
iv	-2919
▁popular	-2920
icop	-2921
icopter	-2922
▁cryst	-2923
▁ones	-2924
▁sil	-2925
▁competit	-2926
▁helicopter	-2927
aser	-2928
▁needs	-2929
ipop	-2930
llipop	-2931
▁crocodile	-2932
▁liz	-2933
▁press	-2934
▁troubled	-2935
▁pige	-2936
▁locked	-2937
▁tricks	-2938
▁lollipop	-2939
▁playful	-2940
▁humble	-2941
▁taxi	-2942
appy	-2943
▁kissed	-2944
▁low	-2945
comfortable	-2946
amond	-2947
▁rid	-2948
▁uncomfortable	-2949
host	-2950
▁wander	-2951
atch	-2952
▁angel	-2953
edy	-2954
▁Sn	-2955
cles	-2956
▁grace	-2957
▁torn	-2958
▁anx	-2959
▁wrapped	-2960
Their	-2961
▁muff	-2962
▁twig	-2963
▁pants	-2964
▁Even	-2965
▁helps	-2966
▁disappoin	-2967
▁diamond	-2968
▁camera	-2969
atter	-2970
oto	-2971
▁anxious	-2972
▁ghost	-2973
▁ruined	-2974
▁tears	-2975
cident	-2976
▁quar	-2977
ilty	-2978
aff	-2979
▁fis	-2980
opl	-2981
▁belt	-2982
eropl	-2983
▁env	-2984
▁guilty	-2985
▁bull	-2986
▁aeropl	-2987
▁helpless	-2988
▁happiness	-2989
▁lizard	-2990
▁boys	-2991
ext	-2992
cut	-2993
▁walks	-2994
▁cere	-2995
cean	-2996
▁passed	-2997
▁meant	-2998
▁ocean	-2999
▁fluffy	-3000
▁wire	-3001
▁nail	-3002
▁bracelet	-3003
▁deaf	-3004
zed	-3005
▁stretch	-3006
▁cact	-3007
▁candle	-3008
tt	-3009
▁beetle	-3010
▁mop	-3011
▁Jake	-3012
▁harmless	-3013
umpet	-3014
▁ordinary	-3015
▁collar	-3016
▁cop	-3017
▁answered	-3018
▁tire	-3019
▁shape	-3020
▁quarrel	-3021
▁bees	-3022
▁radio	-3023
▁flashlight	-3024
▁crystal	-3025
▁harder	-3026
▁trumpet	-3027
▁poured	-3028
▁engine	-3029
▁persist	-3030
▁hunt	-3031
▁tooth	-3032
▁cereal	-3033
▁invited	-3034
▁comput	-3035
▁tag	-3036
▁office	-3037
▁melt	-3038
▁charm	-3039
▁spill	-3040
▁Today	-3041
coa	-3042
▁scoot	-3043
▁lit	-3044
▁Emily	-3045
▁comet	-3046
▁triangle	-3047
ief	-3048
▁mug	-3049
ube	-3050
▁rep	-3051
▁yogurt	-3052
▁spend	-3053
▁compass	-3054
▁accident	-3055
▁shade	-3056
▁Little	-3057
hett	-3058
aghett	-3059
Every	-3060
aghetti	-3061
▁disappointed	-3062
▁True	-3063
▁licked	-3064
▁cactus	-3065
▁cush	-3066
▁pale	-3067
▁figure	-3068
▁regular	-3069
▁avoc	-3070
▁giving	-3071
▁pro	-3072
▁sheet	-3073
▁whispered	-3074
aze	-3075
ellig	-3076
uth	-3077
▁create	-3078
▁intellig	-3079
▁pipe	-3080
▁barber	-3081
▁rode	-3082
▁roof	-3083
▁thread	-3084
▁vi	-3085
▁load	-3086
ither	-3087
▁libr	-3088
▁gifted	-3089
▁practiced	-3090
▁delight	-3091
▁harsh	-3092
▁pow	-3093
▁dust	-3094
▁bicy	-3095
azz	-3096
ccol	-3097
asses	-3098
▁spaghetti	-3099
ccoli	-3100
▁sailed	-3101
▁compassion	-3102
urkey	-3103
ubby	-3104
▁forward	-3105
▁persistent	-3106
▁speed	-3107
▁mitten	-3108
▁cocoa	-3109
▁envel	-3110
▁questions	-3111
▁computer	-3112
▁coo	-3113
▁feathers	-3114
hip	-3115
▁glove	-3116
ging	-3117
▁shrimp	-3118
▁rice	-3119
▁desk	-3120
▁stream	-3121
▁inse	-3122
▁pigeon	-3123
▁charming	-3124
▁carp	-3125
▁ears	-3126
lcan	-3127
▁raft	-3128
▁envious	-3129
▁knot	-3130
▁turkey	-3131
▁stronger	-3132
omes	-3133
▁tap	-3134
▁coins	-3135
enny	-3136
lcano	-3137
weet	-3138
▁trap	-3139
umbers	-3140
▁aeroplane	-3141
▁trunk	-3142
▁wheat	-3143
▁boxes	-3144
▁chubby	-3145
Bobo	-3146
▁carpet	-3147
▁restless	-3148
▁tube	-3149
▁intelligent	-3150
▁spun	-3151
▁dreams	-3152
▁friendship	-3153
ulif	-3154
olin	-3155
▁half	-3156
▁crawl	-3157
▁loop	-3158
▁onion	-3159
▁deliver	-3160
anger	-3161
▁broccoli	-3162
▁acce	-3163
▁vide	-3164
▁volcano	-3165
▁sle	-3166
Tommy	-3167
▁track	-3168
▁bri	-3169
▁caulif	-3170
▁vine	-3171
ye	-3172
▁ticket	-3173
▁thief	-3174
essie	-3175
cycle	-3176
▁louder	-3177
▁insect	-3178
▁numbers	-3179
asing	-3180
▁yaw	-3181
▁haircut	-3182
▁sleeping	-3183
ital	-3184
▁mill	-3185
▁eventually	-3186
▁alert	-3187
▁excite	-3188
▁pebble	-3189
▁hosp	-3190
▁attract	-3191
▁Peter	-3192
▁planet	-3193
ulu	-3194
isted	-3195
▁univer	-3196
▁eraser	-3197
▁returned	-3198
▁destro	-3199
▁hospital	-3200
▁graceful	-3201
▁happening	-3202
ache	-3203
▁OK	-3204
▁decide	-3205
▁learning	-3206
▁screen	-3207
▁nicely	-3208
rework	-3209
▁competitive	-3210
▁cauliflower	-3211
▁poem	-3212
▁celebrate	-3213
▁leop	-3214
▁curt	-3215
▁peach	-3216
▁soldier	-3217
▁saus	-3218
▁parade	-3219
atient	-3220
▁attractive	-3221
▁curtain	-3222
▁dolphin	-3223
▁violin	-3224
▁base	-3225
▁ways	-3226
ats	-3227
▁travel	-3228
ten	-3229
▁rod	-3230
Go	-3231
▁ignorant	-3232
ulb	-3233
▁wheels	-3234
▁yach	-3235
▁scatter	-3236
▁deter	-3237
▁compassionate	-3238
▁barrel	-3239
▁envelope	-3240
▁bubble	-3241
▁Pipp	-3242
▁lying	-3243
▁firework	-3244
▁sort	-3245
▁question	-3246
zzy	-3247
▁scooter	-3248
▁determ	-3249
▁rag	-3250
▁thu	-3251
▁bicycle	-3252
elery	-3253
▁needle	-3254
▁bulb	-3255
▁judge	-3256
▁tem	-3257
▁yacht	-3258
▁pony	-3259
▁cricket	-3260
▁leopard	-3261
▁homes	-3262
▁order	-3263
tern	-3264
▁ador	-3265
▁hook	-3266
▁truth	-3267
dom	-3268
▁rubbed	-3269
igator	-3270
ete	-3271
▁bushes	-3272
▁uncle	-3273
▁cushion	-3274
▁spell	-3275
▁grown	-3276
▁cooked	-3277
▁adorable	-3278
▁chalk	-3279
▁soar	-3280
▁skin	-3281
▁purse	-3282
▁impatient	-3283
▁themselves	-3284
▁celery	-3285
▁tray	-3286
▁shells	-3287
▁pengu	-3288
▁sniff	-3289
▁prun	-3290
▁walls	-3291
▁seal	-3292
▁lively	-3293
▁Sus	-3294
▁case	-3295
▁alligator	-3296
▁distant	-3297
▁radish	-3298
▁saying	-3299
▁speak	-3300
▁motorcycle	-3301
▁send	-3302
▁meat	-3303
illa	-3304
▁spinning	-3305
▁forth	-3306
▁enth	-3307
▁bounced	-3308
▁chain	-3309
▁ed	-3310
▁counting	-3311
▁cleaning	-3312
ebra	-3313
▁film	-3314
▁slept	-3315
▁pit	-3316
▁surf	-3317
▁Sh	-3318
▁marry	-3319
usia	-3320
▁wallet	-3321
▁enthusia	-3322
▁metal	-3323
ebook	-3324
▁bin	-3325
urb	-3326
▁week	-3327
▁notebook	-3328
▁skip	-3329
▁wiped	-3330
ision	-3331
chair	-3332
▁biggest	-3333
▁impro	-3334
▁avocado	-3335
▁Buzz	-3336
vator	-3337
▁behave	-3338
▁destroy	-3339
▁bandage	-3340
▁Poppy	-3341
▁laughs	-3342
▁steak	-3343
▁pattern	-3344
▁post	-3345
▁Polly	-3346
▁elevator	-3347
▁dive	-3348
▁shut	-3349
▁skipped	-3350
▁unlock	-3351
▁diary	-3352
dest	-3353
ject	-3354
▁zebra	-3355
▁armchair	-3356
▁Bet	-3357
ating	-3358
aged	-3359
rage	-3360
▁oy	-3361
▁disturb	-3362
▁bags	-3363
▁pole	-3364
▁showing	-3365
▁club	-3366
▁gathered	-3367
bul	-3368
▁earth	-3369
▁nurse	-3370
▁enc	-3371
▁Dan	-3372
▁Lulu	-3373
▁sweater	-3374
▁stranger	-3375
▁jellyfish	-3376
▁screw	-3377
▁temp	-3378
▁compl	-3379
Give	-3380
▁mixer	-3381
▁skull	-3382
▁bump	-3383
▁lime	-3384
bulance	-3385
▁ambulance	-3386
nam	-3387
▁father	-3388
▁journal	-3389
▁loudly	-3390
ito	-3391
▁shield	-3392
▁library	-3393
▁buttons	-3394
▁folder	-3395
▁playground	-3396
▁trucks	-3397
▁ink	-3398
▁tummy	-3399
▁lights	-3400
▁pointing	-3401
▁city	-3402
▁Fo	-3403
▁decorate	-3404
▁station	-3405
irit	-3406
▁prep	-3407
quito	-3408
▁falls	-3409
▁fu	-3410
ention	-3411
▁Birdy	-3412
nger	-3413
lies	-3414
▁herb	-3415
nament	-3416
▁ornament	-3417
▁modest	-3418
▁mos	-3419
▁guard	-3420
▁knows	-3421
▁cord	-3422
▁polish	-3423
Timmy	-3424
▁marble	-3425
oby	-3426
▁mosquito	-3427
umbled	-3428
▁attic	-3429
▁salt	-3430
▁vest	-3431
▁whenever	-3432
ctop	-3433
▁resc	-3434
▁yet	-3435
▁ple	-3436
▁disappeared	-3437
ceed	-3438
▁once	-3439
▁strawberry	-3440
▁kay	-3441
▁brothers	-3442
▁itch	-3443
▁pirate	-3444
▁football	-3445
▁split	-3446
kele	-3447
keleton	-3448
▁hipp	-3449
▁aut	-3450
▁led	-3451
uring	-3452
ctopus	-3453
▁driving	-3454
▁cable	-3455
▁support	-3456
▁calling	-3457
▁cupboard	-3458
aky	-3459
ushed	-3460
▁wishes	-3461
▁complet	-3462
▁tripped	-3463
▁root	-3464
▁kayak	-3465
▁octopus	-3466
obile	-3467
▁added	-3468
▁edge	-3469
▁mild	-3470
stic	-3471
▁determined	-3472
▁succeed	-3473
▁coal	-3474
omobile	-3475
▁reading	-3476
▁Tina	-3477
▁sung	-3478
Well	-3479
utes	-3480
par	-3481
▁suggest	-3482
▁stack	-3483
▁thunder	-3484
▁kindness	-3485
▁automobile	-3486
▁enthusiastic	-3487
▁complain	-3488
▁sneeze	-3489
▁cartoon	-3490
▁yoga	-3491
▁growl	-3492
htub	-3493
▁flea	-3494
la	-3495
▁meadow	-3496
▁drawer	-3497
▁bathtub	-3498
ophone	-3499
▁golf	-3500
▁hall	-3501
▁skeleton	-3502
▁means	-3503
▁ribb	-3504
▁math	-3505
?".	-3506
▁veil	-3507
▁hunter	-3508
▁gor	-3509
▁flame	-3510
▁poke	-3511
▁chess	-3512
▁video	-3513
▁troph	-3514
▁glowing	-3515
▁matt	-3516
▁cups	-3517
▁oyster	-3518
work	-3519
▁penny	-3520
▁spear	-3521
▁itself	-3522
lasses	-3523
▁drawings	-3524
▁Pete	-3525
▁hippo	-3526
▁repair	-3527
▁switch	-3528
▁teleph	-3529
▁sunglasses	-3530
▁costume	-3531
▁dess	-3532
▁zipp	-3533
▁People	-3534
▁repe	-3535
▁muffin	-3536
▁arg	-3537
▁pastry	-3538
▁Miss	-3539
▁rolling	-3540
▁pun	-3541
▁minutes	-3542
▁makeup	-3543
iron	-3544
▁packed	-3545
ric	-3546
▁waffle	-3547
case	-3548
▁handle	-3549
▁maze	-3550
▁pear	-3551
▁telephone	-3552
▁pine	-3553
ait	-3554
▁gear	-3555
Mum	-3556
▁hedge	-3557
▁mattress	-3558
▁package	-3559
aving	-3560
▁shocked	-3561
ines	-3562
▁trophy	-3563
▁powder	-3564
▁knight	-3565
▁Rose	-3566
▁cob	-3567
▁missile	-3568
▁frame	-3569
▁managed	-3570
▁encou	-3571
▁wife	-3572
▁ok	-3573
▁separ	-3574
web	-3575
▁rot	-3576
▁stairs	-3577
▁camp	-3578
rophone	-3579
▁magaz	-3580
urch	-3581
▁colour	-3582
▁strugg	-3583
▁grapes	-3584
time	-3585
▁file	-3586
head	-3587
▁basketball	-3588
Bye	-3589
old	-3590
▁Tweet	-3591
per	-3592
▁cobweb	-3593
▁perm	-3594
▁wool	-3595
There	-3596
▁microphone	-3597
esday	-3598
▁eye	-3599
Re	-3600
▁Rob	-3601
▁leash	-3602
▁gasp	-3603
iew	-3604
keep	-3605
▁weep	-3606
▁barking	-3607
Jane	-3608
ature	-3609
▁safely	-3610
▁tear	-3611
See	-3612
▁view	-3613
ffe	-3614
▁slides	-3615
▁steps	-3616
istol	-3617
ffee	-3618
▁bananas	-3619
▁staff	-3620
▁spirit	-3621
▁task	-3622
▁giggled	-3623
▁hoc	-3624
▁hockey	-3625
▁vend	-3626
▁gorilla	-3627
▁those	-3628
▁cooler	-3629
cing	-3630
▁early	-3631
was	-3632
▁marched	-3633
rosc	-3634
▁Look	-3635
▁mint	-3636
▁flour	-3637
hic	-3638
washer	-3639
▁sailor	-3640
▁dessert	-3641
▁hotel	-3642
▁photo	-3643
roscope	-3644
▁vehic	-3645
ilot	-3646
▁often	-3647
▁cooking	-3648
▁remain	-3649
▁church	-3650
▁five	-3651
otter	-3652
▁sausage	-3653
▁tools	-3654
▁medal	-3655
▁fireman	-3656
chor	-3657
▁ten	-3658
▁either	-3659
▁otter	-3660
▁baseball	-3661
▁grandpa	-3662
▁pistol	-3663
▁pretending	-3664
▁rever	-3665
▁Betty	-3666
▁organize	-3667
▁pee	-3668
▁dishwasher	-3669
▁vendor	-3670
▁sight	-3671
▁knock	-3672
▁grill	-3673
▁temple	-3674
▁battery	-3675
▁thinking	-3676
▁opens	-3677
▁ow	-3678
▁realised	-3679
▁iron	-3680
▁laser	-3681
▁sne	-3682
▁oil	-3683
▁sandbox	-3684
▁patch	-3685
▁hours	-3686
▁rise	-3687
▁Susie	-3688
▁whip	-3689
ctory	-3690
▁Give	-3691
▁anchor	-3692
▁trash	-3693
ense	-3694
ney	-3695
▁short	-3696
▁rhin	-3697
▁factory	-3698
▁Sunny	-3699
seum	-3700
▁may	-3701
▁ward	-3702
▁Mar	-3703
ately	-3704
▁cardboard	-3705
▁lotion	-3706
ugged	-3707
▁message	-3708
▁wardrobe	-3709
▁valu	-3710
▁cell	-3711
▁ur	-3712
apers	-3713
ination	-3714
▁hanging	-3715
▁museum	-3716
ucet	-3717
ailable	-3718
▁hive	-3719
eer	-3720
▁towers	-3721
keeper	-3722
▁blackboard	-3723
▁mem	-3724
loo	-3725
▁excitement	-3726
▁pilot	-3727
▁coffee	-3728
ready	-3729
Gra	-3730
▁Snow	-3731
▁napkin	-3732
ron	-3733
▁Pippin	-3734
▁check	-3735
▁reward	-3736
▁penguin	-3737
▁quit	-3738
▁cane	-3739
▁picking	-3740
place	-3741
azor	-3742
▁ig	-3743
▁faucet	-3744
▁passport	-3745
▁Bessie	-3746
▁stumbled	-3747
▁dreamed	-3748
▁igloo	-3749
aroo	-3750
angaroo	-3751
▁freez	-3752
▁juicy	-3753
▁allowed	-3754
play	-3755
▁holds	-3756
▁already	-3757
▁available	-3758
▁sett	-3759
▁bathe	-3760
▁tornado	-3761
imney	-3762
▁fingers	-3763
htray	-3764
▁hanger	-3765
▁newsp	-3766
▁size	-3767
▁laund	-3768
▁lend	-3769
▁chimney	-3770
▁laundry	-3771
▁oak	-3772
▁Everywhere	-3773
▁fisher	-3774
▁kangaroo	-3775
▁men	-3776
▁Toby	-3777
▁telling	-3778
Fluffy	-3779
▁novel	-3780
body	-3781
▁mummy	-3782
▁mule	-3783
▁pal	-3784
▁cherries	-3785
▁practice	-3786
▁spilled	-3787
▁notice	-3788
▁reind	-3789
▁complete	-3790
▁enjoying	-3791
▁microscope	-3792
ampoo	-3793
▁gain	-3794
▁sub	-3795
▁fireplace	-3796
▁imagine	-3797
anda	-3798
▁display	-3799
ocer	-3800
▁Spike	-3801
▁fastest	-3802
▁magazine	-3803
▁hurry	-3804
▁cabinet	-3805
▁shrink	-3806
▁ashtray	-3807
Wait	-3808
▁cows	-3809
gen	-3810
arian	-3811
▁improve	-3812
▁palace	-3813
aches	-3814
▁rake	-3815
▁reindeer	-3816
▁falling	-3817
▁Alice	-3818
oceros	-3819
▁skirt	-3820
ured	-3821
▁discovered	-3822
▁stared	-3823
▁roared	-3824
aid	-3825
▁silver	-3826
▁tub	-3827
▁trail	-3828
▁miner	-3829
come	-3830
▁bill	-3831
▁fog	-3832
iction	-3833
▁ax	-3834
stairs	-3835
ilet	-3836
▁hut	-3837
▁happier	-3838
▁taller	-3839
Is	-3840
▁oats	-3841
▁fisherman	-3842
▁object	-3843
ictionary	-3844
vision	-3845
▁por	-3846
▁valuable	-3847
▁shampoo	-3848
▁holes	-3849
▁boots	-3850
▁offered	-3851
▁Kim	-3852
▁rhinoceros	-3853
▁names	-3854
▁Here	-3855
▁toilet	-3856
▁climbing	-3857
▁blin	-3858
vice	-3859
▁stretched	-3860
iest	-3861
Mama	-3862
▁zipper	-3863
Ow	-3864
▁listening	-3865
▁bathrobe	-3866
▁sym	-3867
alend	-3868
▁jewelry	-3869
▁jokes	-3870
▁television	-3871
▁prov	-3872
▁calend	-3873
▁stops	-3874
▁axe	-3875
▁jumps	-3876
▁fuel	-3877
▁sparkly	-3878
▁perfume	-3879
cu	-3880
▁bury	-3881
bol	-3882
lu	-3883
▁pressed	-3884
▁rece	-3885
fa	-3886
reek	-3887
▁neat	-3888
▁popped	-3889
▁opera	-3890
▁calendar	-3891
▁snap	-3892
▁creek	-3893
▁attach	-3894
▁gasped	-3895
▁symbol	-3896
▁tuna	-3897
▁papers	-3898
▁resist	-3899
▁unpack	-3900
▁subway	-3901
▁letters	-3902
▁dictionary	-3903
▁freezer	-3904
▁chose	-3905
▁pinch	-3906
zag	-3907
▁spoke	-3908
▁anyway	-3909
▁super	-3910
▁helper	-3911
affe	-3912
▁porch	-3913
▁bikes	-3914
▁lie	-3915
arry	-3916
iches	-3917
▁tightly	-3918
▁comfort	-3919
▁bookcase	-3920
▁shaking	-3921
▁razor	-3922
▁son	-3923
▁sandwiches	-3924
▁Are	-3925
aurant	-3926
▁Mrs	-3927
▁Teddy	-3928
igzag	-3929
▁weigh	-3930
▁against	-3931
▁newspaper	-3932
▁stickers	-3933
▁restaurant	-3934
▁blouse	-3935
▁vehicle	-3936
▁swinging	-3937
▁ped	-3938
▁disag	-3939
▁nature	-3940
▁squirrels	-3941
ival	-3942
▁belongs	-3943
▁swamp	-3944
▁butterflies	-3945
▁gym	-3946
del	-3947
▁inclu	-3948
▁growing	-3949
▁buckle	-3950
omed	-3951
▁mustache	-3952
▁billboard	-3953
▁stirred	-3954
xy	-3955
▁beep	-3956
▁alarm	-3957
▁fest	-3958
▁lightning	-3959
te	-3960
▁lip	-3961
▁Mummy	-3962
▁hung	-3963
utor	-3964
▁distance	-3965
▁cards	-3966
ogn	-3967
▁obser	-3968
▁agree	-3969
▁ext	-3970
▁tease	-3971
▁recogn	-3972
▁rubber	-3973
ik	-3974
▁Grandpa	-3975
▁hate	-3976
fast	-3977
ef	-3978
▁doesn	-3979
▁musician	-3980
Ouch	-3981
▁advice	-3982
▁beef	-3983
▁serve	-3984
aspoon	-3985
▁sweetie	-3986
▁model	-3987
lter	-3988
▁crib	-3989
▁blueberries	-3990
▁sofa	-3991
▁circles	-3992
▁breakfast	-3993
▁tutor	-3994
asis	-3995
▁bookshe	-3996
▁giraffe	-3997
stri	-3998
▁festival	-3999
▁separate	-4000
▁shelter	-4001
▁gas	-4002
▁olive	-4003
▁airport	-4004
Jim	-4005
▁rail	-4006
▁bookshelf	-4007
▁frogs	-4008
▁teaspoon	-4009
▁reverse	-4010
▁junk	-4011
▁riding	-4012
▁pleased	-4013
▁drain	-4014
▁wipe	-4015
Sarah	-4016
▁oasis	-4017
▁soil	-4018
Molly	-4019
▁ahead	-4020
▁rescue	-4021
▁leaving	-4022
ummer	-4023
▁painter	-4024
▁squeeze	-4025
▁knob	-4026
▁poked	-4027
▁chance	-4028
▁peeked	-4029
▁lumber	-4030
Mr	-4031
▁trains	-4032
▁extra	-4033
▁slipp	-4034
▁Dolly	-4035
▁quiz	-4036
▁refused	-4037
res	-4038
rmomet	-4039
▁page	-4040
▁happens	-4041
▁ins	-4042
▁point	-4043
▁sounded	-4044
▁rules	-4045
▁winter	-4046
▁dancer	-4047
▁birdc	-4048
▁disappear	-4049
rmometer	-4050
▁weather	-4051
▁waste	-4052
▁birdcage	-4053
▁lic	-4054
▁reef	-4055
▁theater	-4056
▁carrying	-4057
▁invite	-4058
iform	-4059
▁ostri	-4060
▁goal	-4061
▁swung	-4062
▁uniform	-4063
▁trade	-4064
▁cliff	-4065
ience	-4066
▁Pandy	-4067
▁lawn	-4068
ola	-4069
▁leaned	-4070
angu	-4071
▁accept	-4072
Billy	-4073
▁admire	-4074
▁Cl	-4075
▁fort	-4076
▁accidentally	-4077
▁pastel	-4078
bbles	-4079
▁Co	-4080
▁stom	-4081
▁langu	-4082
▁twir	-4083
▁suff	-4084
▁panda	-4085
▁bet	-4086
riger	-4087
rigerator	-4088
▁peek	-4089
render	-4090
▁blinked	-4091
▁starts	-4092
na	-4093
▁refrigerator	-4094
▁anywhere	-4095
▁imagined	-4096
▁Lee	-4097
▁dreaming	-4098
▁remove	-4099
night	-4100
!".	-4101
▁shower	-4102
▁classroom	-4103
▁ceiling	-4104
ium	-4105
▁caring	-4106
▁grand	-4107
▁missing	-4108
aked	-4109
▁license	-4110
▁stable	-4111
▁Where	-4112
▁thermometer	-4113
astic	-4114
▁warned	-4115
▁monkeys	-4116
▁summer	-4117
▁above	-4118
▁brick	-4119
ected	-4120
▁cudd	-4121
▁problems	-4122
amber	-4123
▁chasing	-4124
▁apron	-4125
▁label	-4126
iture	-4127
▁lawy	-4128
▁sent	-4129
urniture	-4130
▁lid	-4131
uggage	-4132
med	-4133
▁Ellie	-4134
▁furniture	-4135
▁zoomed	-4136
▁respectful	-4137
▁frowned	-4138
▁Mike	-4139
▁prevent	-4140
▁bent	-4141
▁pages	-4142
▁luggage	-4143
▁sunset	-4144
▁ostrich	-4145
▁mistakes	-4146
ison	-4147
▁suggested	-4148
▁windows	-4149
low	-4150
ations	-4151
▁jail	-4152
▁wine	-4153
▁older	-4154
▁shouts	-4155
▁ribbon	-4156
▁grape	-4157
▁wigg	-4158
ucture	-4159
▁structure	-4160
▁spoil	-4161
eor	-4162
▁fixing	-4163
▁chamber	-4164
▁delay	-4165
▁finds	-4166
▁lions	-4167
▁handed	-4168
▁searching	-4169
▁unite	-4170
Did	-4171
▁fought	-4172
▁lawyer	-4173
▁brightly	-4174
▁pair	-4175
▁meeting	-4176
▁Carl	-4177
▁choice	-4178
▁surprises	-4179
▁art	-4180
▁favour	-4181
eterin	-4182
adium	-4183
eterinarian	-4184
▁Next	-4185
▁stadium	-4186
▁Bill	-4187
▁proudly	-4188
iki	-4189
▁veterinarian	-4190
▁Spe	-4191
vet	-4192
rod	-4193
▁slip	-4194
▁chairs	-4195
▁Bow	-4196
▁sadly	-4197
▁incre	-4198
▁Boun	-4199
▁puddles	-4200
▁berry	-4201
▁introd	-4202
▁ranch	-4203
veal	-4204
▁argue	-4205
▁admired	-4206
▁favourite	-4207
▁cur	-4208
Your	-4209
▁inf	-4210
▁Hel	-4211
▁Dave	-4212
▁excitedly	-4213
▁rac	-4214
▁grabs	-4215
mend	-4216
▁steam	-4217
thank	-4218
▁human	-4219
▁Red	-4220
eorge	-4221
sity	-4222
▁saving	-4223
▁pushing	-4224
▁reveal	-4225
alley	-4226
ommend	-4227
▁yield	-4228
▁mall	-4229
▁reminded	-4230
olog	-4231
▁recommend	-4232
▁leak	-4233
Em	-4234
▁surrender	-4235
▁harb	-4236
▁Big	-4237
▁appl	-4238
aul	-4239
▁weap	-4240
cuss	-4241
▁regret	-4242
▁putting	-4243
▁valley	-4244
▁mineral	-4245
▁evening	-4246
elcome	-4247
▁forgave	-4248
▁matches	-4249
▁sneezed	-4250
▁pup	-4251
▁rushed	-4252
▁aw	-4253
ecause	-4254
▁spade	-4255
▁Jazz	-4256
▁discuss	-4257
▁plates	-4258
▁apolog	-4259
▁Buzzy	-4260
▁prepare	-4261
▁harbor	-4262
▁ignore	-4263
▁country	-4264
▁language	-4265
▁pulls	-4266
▁plastic	-4267
▁supply	-4268
▁float	-4269
▁Mandy	-4270
▁sniffed	-4271
▁replace	-4272
▁Johnny	-4273
▁meas	-4274
▁shovel	-4275
▁raise	-4276
▁fre	-4277
▁cared	-4278
▁socks	-4279
▁strip	-4280
▁mystery	-4281
▁doors	-4282
▁lives	-4283
▁restore	-4284
▁sticker	-4285
▁sudden	-4286
▁Pat	-4287
▁Ow	-4288
▁kinds	-4289
▁slippery	-4290
ero	-4291
..	-4292
▁player	-4293
ari	-4294
▁panic	-4295
ricane	-4296
iday	-4297
▁hoping	-4298
▁shone	-4299
lex	-4300
hero	-4301
▁Binky	-4302
▁beg	-4303
▁superhero	-4304
▁delighted	-4305
▁gro	-4306
Yay	-4307
aud	-4308
▁Freddy	-4309
chan	-4310
▁chickens	-4311
Al	-4312
▁shoulder	-4313
▁Bubbles	-4314
▁rained	-4315
▁colourful	-4316
▁breat	-4317
▁claw	-4318
Yuck	-4319
▁softly	-4320
rise	-4321
▁port	-4322
▁hol	-4323
▁holiday	-4324
icer	-4325
▁barks	-4326
▁throwing	-4327
ason	-4328
▁bend	-4329
▁planes	-4330
▁Olive	-4331
▁shakes	-4332
▁infant	-4333
▁ended	-4334
▁shivering	-4335
▁kneel	-4336
▁sunrise	-4337
▁pushes	-4338
▁Soph	-4339
▁thanks	-4340
▁fresh	-4341
▁suffer	-4342
▁points	-4343
imed	-4344
▁Speedy	-4345
wards	-4346
▁tip	-4347
▁freeze	-4348
▁keeping	-4349
▁Would	-4350
▁copper	-4351
▁giggle	-4352
▁smells	-4353
▁dear	-4354
▁enter	-4355
▁provide	-4356
cast	-4357
chanic	-4358
▁End	-4359
cond	-4360
▁dishes	-4361
▁Fl	-4362
▁applaud	-4363
▁unh	-4364
▁hurricane	-4365
▁cherry	-4366
▁heads	-4367
▁mass	-4368
▁menu	-4369
▁meowed	-4370
▁thumb	-4371
▁second	-4372
▁brighter	-4373
ince	-4374
▁sandcast	-4375
▁mechanic	-4376
▁wre	-4377
▁event	-4378
▁letting	-4379
▁sprayed	-4380
▁weapon	-4381
▁Y	-4382
▁laught	-4383
▁x	-4384
▁laughter	-4385
Daisy	-4386
▁clapping	-4387
▁feelings	-4388
icky	-4389
▁Or	-4390
▁splashing	-4391
ement	-4392
acked	-4393
▁castles	-4394
cer	-4395
apping	-4396
▁universe	-4397
▁score	-4398
▁navy	-4399
▁dem	-4400
▁sticky	-4401
▁row	-4402
▁rooms	-4403
▁flies	-4404
igi	-4405
▁unhappy	-4406
▁Lola	-4407
▁greedy	-4408
▁dare	-4409
▁alive	-4410
▁breaks	-4411
▁ener	-4412
▁Ru	-4413
▁courage	-4414
Ch	-4415
▁invit	-4416
Ready	-4417
▁repeat	-4418
▁demand	-4419
Jill	-4420
Joe	-4421
▁trusted	-4422
▁somewhere	-4423
arlie	-4424
▁prune	-4425
bles	-4426
▁wreck	-4427
▁Lilly	-4428
▁examine	-4429
Next	-4430
▁parts	-4431
▁skill	-4432
year	-4433
▁eaten	-4434
oe	-4435
▁Kiki	-4436
erc	-4437
enry	-4438
▁mention	-4439
▁raining	-4440
▁Help	-4441
Mummy	-4442
▁throws	-4443
▁Ted	-4444
▁jogged	-4445
quest	-4446
▁starting	-4447
▁rush	-4448
▁poison	-4449
▁pirates	-4450
heart	-4451
▁vac	-4452
▁content	-4453
▁sigh	-4454
▁flapped	-4455
▁drops	-4456
▁chirp	-4457
▁sport	-4458
▁sparkled	-4459
▁given	-4460
▁streng	-4461
▁George	-4462
▁steel	-4463
▁bumped	-4464
▁stud	-4465
▁yawned	-4466
▁request	-4467
Buddy	-4468
Will	-4469
▁scold	-4470
▁myself	-4471
▁strength	-4472
▁shrugged	-4473
▁coats	-4474
▁equ	-4475
▁punish	-4476
▁snugg	-4477
▁university	-4478
▁paid	-4479
▁pigs	-4480
▁scratch	-4481
▁toe	-4482
▁exerc	-4483
▁tracks	-4484
▁upstairs	-4485
▁prayed	-4486
▁crossed	-4487
▁squeezed	-4488
▁flood	-4489
▁impressed	-4490
▁bouncing	-4491
Grandma	-4492
▁rabbits	-4493
▁badly	-4494
▁warn	-4495
▁leather	-4496
ges	-4497
▁expect	-4498
▁Sm	-4499
▁news	-4500
Little	-4501
▁tide	-4502
▁minute	-4503
▁bears	-4504
▁claws	-4505
▁buzz	-4506
▁sweetheart	-4507
yth	-4508
▁nation	-4509
ythm	-4510
▁hist	-4511
▁vacation	-4512
▁heat	-4513
▁strawberries	-4514
▁observe	-4515
▁explored	-4516
▁settle	-4517
▁sandcastle	-4518
▁yawn	-4519
▁history	-4520
▁Sque	-4521
▁Hoppy	-4522
mare	-4523
▁Paul	-4524
ially	-4525
▁Bee	-4526
inking	-4527
▁believed	-4528
▁horses	-4529
▁checked	-4530
▁tour	-4531
▁network	-4532
Sh	-4533
▁cheek	-4534
▁offer	-4535
▁easily	-4536
▁placed	-4537
▁Danny	-4538
spec	-4539
▁spots	-4540
▁snowball	-4541
ween	-4542
▁Gigi	-4543
men	-4544
▁energy	-4545
▁blueberry	-4546
▁imagination	-4547
▁between	-4548
otten	-4549
▁Eventually	-4550
specially	-4551
izes	-4552
▁daisy	-4553
▁waving	-4554
reeze	-4555
reat	-4556
▁vroom	-4557
▁soak	-4558
▁rhythm	-4559
▁massage	-4560
▁safari	-4561
▁Alex	-4562
▁stomach	-4563
▁baking	-4564
quake	-4565
▁nightmare	-4566
▁insisted	-4567
▁blowing	-4568
▁See	-4569
▁entered	-4570
▁stair	-4571
▁palm	-4572
▁beauty	-4573
▁Joey	-4574
▁twisted	-4575
All	-4576
▁writing	-4577
▁bother	-4578
▁prunes	-4579
▁scoop	-4580
▁brain	-4581
▁ing	-4582
ipment	-4583
▁hills	-4584
▁poppy	-4585
noon	-4586
▁Fox	-4587
▁afternoon	-4588
▁equipment	-4589
▁especially	-4590
hest	-4591
▁sir	-4592
▁Snowy	-4593
▁pad	-4594
▁calls	-4595
▁ingred	-4596
▁earthquake	-4597
▁ingredient	-4598
▁ignored	-4599
▁burned	-4600
▁nobody	-4601
mble	-4602
apa	-4603
▁sty	-4604
▁sew	-4605
▁tug	-4606
isty	-4607
xygen	-4608
▁hearts	-4609
▁lear	-4610
▁learnt	-4611
▁lemonade	-4612
▁Su	-4613
▁increase	-4614
▁Sk	-4615
▁gaz	-4616
▁mailman	-4617
▁pedal	-4618
▁whistled	-4619
illie	-4620
▁backpack	-4621
▁shopkeeper	-4622
ffic	-4623
▁permit	-4624
▁tremble	-4625
anges	-4626
▁yucky	-4627
▁moves	-4628
▁Sophie	-4629
▁introduce	-4630
▁lemons	-4631
▁crash	-4632
▁floated	-4633
▁beans	-4634
edn	-4635
ednesday	-4636
▁Grace	-4637
▁Lucky	-4638
ittens	-4639
Welcome	-4640
▁planned	-4641
▁strike	-4642
▁traffic	-4643
▁include	-4644
▁slap	-4645
▁racing	-4646
resses	-4647
▁Finny	-4648
▁wisdom	-4649
▁pur	-4650
▁wags	-4651
laimed	-4652
Jimmy	-4653
▁luck	-4654
▁following	-4655
▁price	-4656
ecting	-4657
▁mama	-4658
▁pitch	-4659
▁Elly	-4660
▁below	-4661
▁Have	-4662
▁weight	-4663
▁exclaimed	-4664
house	-4665
▁Charlie	-4666
▁buried	-4667
▁follows	-4668
▁comf	-4669
▁recognize	-4670
▁ingredients	-4671
▁furt	-4672
tain	-4673
▁Finn	-4674
▁candles	-4675
▁marbles	-4676
▁Wednesday	-4677
riage	-4678
unday	-4679
emember	-4680
eration	-4681
▁apart	-4682
▁growled	-4683
uct	-4684
▁conf	-4685
▁hopes	-4686
▁teaching	-4687
▁folded	-4688
▁closely	-4689
▁Sunday	-4690
▁Who	-4691
▁chore	-4692
▁heel	-4693
▁encourage	-4694
▁Owl	-4695
▁zigzag	-4696
▁pulling	-4697
Mark	-4698
▁digg	-4699
▁bouncy	-4700
▁further	-4701
Lisa	-4702
▁chewed	-4703
▁digging	-4704
▁Tilly	-4705
▁Henry	-4706
▁winning	-4707
▁Whenever	-4708
Woof	-4709
▁Annie	-4710
Before	-4711
▁dresses	-4712
▁image	-4713
▁Is	-4714
rec	-4715
cery	-4716
▁shouting	-4717
▁grocery	-4718
▁twisty	-4719
▁peanuts	-4720
▁puzzles	-4721
Daddy	-4722
▁Dog	-4723
bbing	-4724
Mimi	-4725
look	-4726
▁scrat	-4727
▁Froggy	-4728
▁whisper	-4729
▁chores	-4730
▁spike	-4731
▁cape	-4732
▁snail	-4733
▁acorns	-4734
▁worms	-4735
hood	-4736
▁deeper	-4737
▁urge	-4738
ifi	-4739
▁Squeaky	-4740
Ann	-4741
▁exper	-4742
▁attention	-4743
▁planted	-4744
ecture	-4745
▁Mittens	-4746
▁exercise	-4747
▁Penny	-4748
▁cub	-4749
▁operation	-4750
▁underground	-4751
Le	-4752
▁hon	-4753
▁agre	-4754
▁quite	-4755
Emma	-4756
▁creatures	-4757
▁simp	-4758
▁struggle	-4759
oral	-4760
ddy	-4761
▁blood	-4762
▁lecture	-4763
▁hurting	-4764
▁washing	-4765
▁gifts	-4766
▁vanished	-4767
▁dressed	-4768
▁invitation	-4769
▁solved	-4770
▁licks	-4771
▁Sharing	-4772
▁snuggled	-4773
ippy	-4774
▁Harry	-4775
▁ble	-4776
▁marriage	-4777
gie	-4778
▁quietly	-4779
▁warning	-4780
▁Ros	-4781
▁jazz	-4782
▁breathe	-4783
reci	-4784
▁Coco	-4785
▁elephants	-4786
▁sizes	-4787
▁dried	-4788
▁fallen	-4789
▁landscape	-4790
ories	-4791
▁sprink	-4792
▁neighbour	-4793
▁mice	-4794
uesday	-4795
▁appreci	-4796
▁eagerly	-4797
▁sailing	-4798
▁Bounce	-4799
ips	-4800
▁paused	-4801
▁Rock	-4802
ncle	-4803
▁Good	-4804
▁counter	-4805
▁worth	-4806
looking	-4807
▁Maria	-4808
▁oxygen	-4809
▁release	-4810
▁shined	-4811
▁reaches	-4812
pted	-4813
▁balan	-4814
Because	-4815
▁Tuesday	-4816
▁oh	-4817
isses	-4818
▁kisses	-4819
▁style	-4820
▁Pip	-4821
▁bricks	-4822
▁plays	-4823
▁glo	-4824
Not	-4825
▁ideas	-4826
sed	-4827
▁inst	-4828
▁wob	-4829
▁fireworks	-4830
iggly	-4831
ucked	-4832
▁seeing	-4833
▁flap	-4834
ops	-4835
▁accepted	-4836
▁blink	-4837
mm	-4838
▁tremb	-4839
▁muddy	-4840
▁memory	-4841
▁married	-4842
These	-4843
▁tomatoes	-4844
▁Papa	-4845
▁exit	-4846
▁wagging	-4847
▁fash	-4848
right	-4849
▁Everything	-4850
▁wandered	-4851
▁Pinky	-4852
unately	-4853
▁Tw	-4854
ipping	-4855
▁Sandy	-4856
▁gloves	-4857
▁captain	-4858
▁receive	-4859
raged	-4860
▁pillows	-4861
Remy	-4862
▁during	-4863
▁resp	-4864
▁Ro	-4865
▁web	-4866
▁petals	-4867
etch	-4868
▁watered	-4869
ived	-4870
▁si	-4871
▁manage	-4872
▁brings	-4873
▁pinched	-4874
▁vanish	-4875
▁cakes	-4876
Mary	-4877
▁Before	-4878
▁fashion	-4879
▁Bluey	-4880
▁printer	-4881
▁destroyed	-4882
▁treasures	-4883
▁Fifi	-4884
nce	-4885
▁allow	-4886
ups	-4887
▁hadn	-4888
▁worse	-4889
▁vel	-4890
▁hits	-4891
xu	-4892
▁velvet	-4893
▁bur	-4894
▁appear	-4895
▁disagree	-4896
▁catching	-4897
do	-4898
▁scattered	-4899
▁Mag	-4900
▁memories	-4901
▁sorts	-4902
▁hers	-4903
▁pears	-4904
▁oranges	-4905
▁scolded	-4906
▁signs	-4907
▁bones	-4908
▁rang	-4909
▁snapped	-4910
▁sits	-4911
▁seats	-4912
uxu	-4913
▁gazed	-4914
▁raised	-4915
▁Tony	-4916
▁zipped	-4917
▁prints	-4918
▁shot	-4919
▁sliding	-4920
▁pies	-4921
▁God	-4922
Surpr	-4923
▁fro	-4924
▁easier	-4925
ssible	-4926
▁skills	-4927
▁climbs	-4928
▁Kate	-4929
▁twirled	-4930
ccer	-4931
▁blankets	-4932
▁forgotten	-4933
▁baked	-4934
ester	-4935
esterday	-4936
▁Baby	-4937
▁luxu	-4938
▁difference	-4939
Yum	-4940
▁golden	-4941
orted	-4942
ising	-4943
Bl	-4944
▁kitty	-4945
▁cutting	-4946
▁season	-4947
▁crow	-4948
▁nowhere	-4949
ah	-4950
▁dared	-4951
▁soccer	-4952
▁bites	-4953
▁lung	-4954
▁celebrated	-4955
With	-4956
choo	-4957
chie	-4958
▁Millie	-4959
▁straight	-4960
sters	-4961
▁unlocked	-4962
▁sorting	-4963
▁bleed	-4964
▁collected	-4965
aped	-4966
▁welcomed	-4967
ding	-4968
▁visited	-4969
▁ours	-4970
▁stitch	-4971
▁Spark	-4972
▁spoons	-4973
▁Each	-4974
▁jogging	-4975
▁Liz	-4976
medi	-4977
▁emer	-4978
Surprise	-4979
mediately	-4980
▁isn	-4981
▁tong	-4982
▁Rosie	-4983
▁trave	-4984
▁winner	-4985
umble	-4986
▁since	-4987
▁ruin	-4988
▁prett	-4989
Ok	-4990
▁attached	-4991
▁weeping	-4992
▁marching	-4993
▁luxury	-4994
▁simple	-4995
▁shouldn	-4996
▁guessed	-4997
▁Ruby	-4998
▁zero	-4999
▁Pr	-5000
▁Ste	-5001
▁created	-5002
▁stuffed	-5003
▁pets	-5004
ction	-5005
▁waist	-5006
▁famil	-5007
▁urged	-5008
▁bowed	-5009
▁selling	-5010
▁James	-5011
▁May	-5012
▁floating	-5013
▁King	-5014
▁Smith	-5015
rr	-5016
▁bye	-5017
▁kingdom	-5018
▁vict	-5019
▁olives	-5020
Bella	-5021
▁Wiggly	-5022
▁kicking	-5023
▁punished	-5024
sit	-5025
▁toes	-5026
▁grant	-5027
▁muscles	-5028
▁jewels	-5029
▁beds	-5030
▁melted	-5031
Goodbye	-5032
▁slice	-5033
▁grin	-5034
▁understanding	-5035
▁collection	-5036
▁tore	-5037
▁measured	-5038
aker	-5039
▁cras	-5040
iers	-5041
▁trapped	-5042
omeday	-5043
▁lined	-5044
▁Wally	-5045
▁acted	-5046
fortunately	-5047
▁encouraged	-5048
va	-5049
▁received	-5050
▁waffles	-5051
▁west	-5052
▁meow	-5053
▁patterns	-5054
ents	-5055
ino	-5056
▁brus	-5057
eath	-5058
▁mouths	-5059
kins	-5060
▁bang	-5061
Fred	-5062
Meow	-5063
ring	-5064
▁peaches	-5065
▁breeze	-5066
aded	-5067
une	-5068
▁Later	-5069
▁printed	-5070
▁soldiers	-5071
▁someday	-5072
▁potatoes	-5073
umes	-5074
▁pupil	-5075
▁drinks	-5076
▁Tuna	-5077
▁shed	-5078
▁experience	-5079
▁presents	-5080
▁firef	-5081
▁Jul	-5082
▁surround	-5083
▁none	-5084
▁Ab	-5085
osed	-5086
▁voices	-5087
▁drinking	-5088
eep	-5089
ishing	-5090
▁relaxed	-5091
cus	-5092
▁victory	-5093
▁paints	-5094
▁breaking	-5095
▁hurried	-5096
▁twink	-5097
ission	-5098
▁tongue	-5099
▁costumes	-5100
▁mentioned	-5101
▁flat	-5102
▁begged	-5103
▁teasing	-5104
▁whistling	-5105
▁fetch	-5106
▁sip	-5107
▁disagreed	-5108
▁permission	-5109
▁pearl	-5110
▁These	-5111
▁stro	-5112
vest	-5113
akes	-5114
▁esc	-5115
▁appro	-5116
▁Bo	-5117
▁Clara	-5118
▁skipping	-5119
▁fishing	-5120
Today	-5121
▁highest	-5122
▁pra	-5123
▁sorted	-5124
▁ringing	-5125
▁watches	-5126
ship	-5127
▁tonight	-5128
▁opin	-5129
▁lets	-5130
icing	-5131
▁perfectly	-5132
▁shadows	-5133
▁immediately	-5134
▁herbs	-5135
▁warmth	-5136
▁spit	-5137
Everyone	-5138
▁remained	-5139
ther	-5140
▁Its	-5141
▁Che	-5142
▁Suzy	-5143
walk	-5144
▁Gr	-5145
irring	-5146
▁sneak	-5147
▁lips	-5148
▁kneeled	-5149
▁contest	-5150
utter	-5151
Jenny	-5152
▁Boo	-5153
▁cartoons	-5154
▁colours	-5155
▁sidewalk	-5156
▁Toto	-5157
▁stamps	-5158
▁ago	-5159
▁six	-5160
▁Follow	-5161
Ha	-5162
▁east	-5163
▁headed	-5164
oved	-5165
▁Both	-5166
",	-5167
▁strang	-5168
▁Kat	-5169
▁ladyb	-5170
▁fed	-5171
▁supposed	-5172
▁Slow	-5173
Blue	-5174
▁lick	-5175
▁roots	-5176
▁crunch	-5177
▁mixing	-5178
▁works	-5179
▁decorations	-5180
▁known	-5181
▁melting	-5182
▁emergen	-5183
▁rested	-5184
▁lines	-5185
▁lily	-5186
▁instr	-5187
Alice	-5188
▁laid	-5189
Leo	-5190
▁cones	-5191
▁succeeded	-5192
▁wiggle	-5193
▁Rocky	-5194
sing	-5195
▁shock	-5196
▁setting	-5197
▁studied	-5198
▁strangers	-5199
▁Dr	-5200
Really	-5201
▁twigs	-5202
▁brid	-5203
ety	-5204
▁girls	-5205
▁theirs	-5206
boo	-5207
!'	-5208
!",	-5209
▁lands	-5210
▁screams	-5211
.'	-5212
anny	-5213
▁ordered	-5214
▁moments	-5215
▁stirring	-5216
▁fields	-5217
▁alright	-5218
ded	-5219
▁rul	-5220
▁stealing	-5221
▁bravely	-5222
avid	-5223
▁mister	-5224
▁invest	-5225
▁Me	-5226
▁playtime	-5227
▁scratched	-5228
▁ripped	-5229
▁investig	-5230
▁tucked	-5231
▁burning	-5232
▁resting	-5233
▁Chicky	-5234
ishes	-5235
▁officer	-5236
▁bridges	-5237
please	-5238
abies	-5239
▁settled	-5240
▁achie	-5241
▁matched	-5242
▁tex	-5243
▁texture	-5244
Bird	-5245
▁Sky	-5246
▁waits	-5247
▁turning	-5248
Once	-5249
nfortunately	-5250
▁trembling	-5251
ored	-5252
isten	-5253
▁nails	-5254
▁Someone	-5255
▁Hop	-5256
▁Pepper	-5257
▁muffins	-5258
ids	-5259
▁First	-5260
▁escaped	-5261
▁investigate	-5262
▁piles	-5263
▁broom	-5264
osity	-5265
▁ladybug	-5266
▁sore	-5267
▁Maggie	-5268
▁admir	-5269
▁appreciate	-5270
▁threat	-5271
▁babies	-5272
▁silence	-5273
▁sisters	-5274
▁area	-5275
▁dads	-5276
▁emergency	-5277
▁An	-5278
ides	-5279
Happy	-5280
▁pupp	-5281
▁answers	-5282
▁keys	-5283
▁chewing	-5284
▁slapped	-5285
▁wiz	-5286
▁importance	-5287
▁served	-5288
▁safety	-5289
izing	-5290
Would	-5291
Boo	-5292
▁sparkle	-5293
▁touching	-5294
▁soared	-5295
igail	-5296
▁sings	-5297
▁hen	-5298
allen	-5299
▁Dino	-5300
antly	-5301
bers	-5302
▁keeps	-5303
▁amazement	-5304
▁challen	-5305
▁hesit	-5306
▁twin	-5307
▁revealed	-5308
anna	-5309
achel	-5310
▁dire	-5311
▁item	-5312
▁soaked	-5313
zing	-5314
▁writ	-5315
▁foods	-5316
▁rides	-5317
▁dinosaurs	-5318
▁Frog	-5319
▁tickle	-5320
▁recorded	-5321
▁inch	-5322
Momo	-5323
▁wizard	-5324
▁vet	-5325
▁Out	-5326
▁trips	-5327
▁glowed	-5328
Mmm	-5329
▁hi	-5330
▁beamed	-5331
▁quack	-5332
Bu	-5333
▁curled	-5334
▁hated	-5335
▁wink	-5336
▁shopping	-5337
▁eats	-5338
▁Happy	-5339
▁Bug	-5340
▁Mo	-5341
▁praised	-5342
▁wooden	-5343
▁bringing	-5344
▁mittens	-5345
▁studying	-5346
▁guy	-5347
▁brushes	-5348
▁spaceship	-5349
▁Something	-5350
▁gust	-5351
▁crawling	-5352
▁ruler	-5353
▁flav	-5354
▁downstairs	-5355
▁shooting	-5356
▁Rabbit	-5357
▁napping	-5358
▁tastes	-5359
▁marks	-5360
▁cuddled	-5361
▁dot	-5362
▁sprinkles	-5363
hello	-5364
▁fut	-5365
plash	-5366
ales	-5367
▁future	-5368
aved	-5369
▁monsters	-5370
▁collecting	-5371
▁measuring	-5372
▁families	-5373
▁thrill	-5374
▁oat	-5375
Cat	-5376
irts	-5377
▁result	-5378
▁approached	-5379
'.	-5380
act	-5381
▁crunchy	-5382
▁Hope	-5383
▁bleeding	-5384
▁Not	-5385
▁remem	-5386
▁beat	-5387
▁nicer	-5388
▁remembers	-5389
▁sneaky	-5390
▁disturbed	-5391
▁leader	-5392
Moral	-5393
▁scaring	-5394
hind	-5395
▁Star	-5396
▁peel	-5397
▁firemen	-5398
Or	-5399
▁neighborhood	-5400
▁grey	-5401
▁motion	-5402
▁noon	-5403
▁possible	-5404
▁Lizzy	-5405
▁apologized	-5406
▁weighed	-5407
Bobby	-5408
▁Steve	-5409
▁Did	-5410
ues	-5411
▁naps	-5412
▁tickets	-5413
▁loose	-5414
▁Frank	-5415
▁Slowly	-5416
▁pride	-5417
▁youth	-5418
▁swims	-5419
ped	-5420
▁Ho	-5421
▁strings	-5422
▁recognized	-5423
▁siren	-5424
▁poking	-5425
ha	-5426
fied	-5427
elvet	-5428
cious	-5429
▁gained	-5430
▁tricked	-5431
▁wonders	-5432
▁crashed	-5433
▁wanting	-5434
▁David	-5435
uick	-5436
▁obe	-5437
▁seesaw	-5438
▁worker	-5439
unnies	-5440
ls	-5441
oming	-5442
▁draws	-5443
▁Am	-5444
▁scooped	-5445
▁zooming	-5446
▁opinion	-5447
▁Beep	-5448
▁yelling	-5449
▁prepared	-5450
▁grinned	-5451
▁awe	-5452
▁doggy	-5453
▁poems	-5454
▁acting	-5455
▁happiest	-5456
▁chef	-5457
▁sneaked	-5458
▁Milly	-5459
▁Always	-5460
▁eff	-5461
uack	-5462
▁respons	-5463
▁bunnies	-5464
▁owned	-5465
Jen	-5466
▁anytime	-5467
Somet	-5468
▁struck	-5469
▁pedals	-5470
oys	-5471
▁knelt	-5472
ena	-5473
▁Squ	-5474
▁secrets	-5475
▁pause	-5476
▁decorated	-5477
▁agreement	-5478
▁horns	-5479
ided	-5480
▁frost	-5481
▁tallest	-5482
▁obey	-5483
riends	-5484
ogo	-5485
▁Stop	-5486
Remember	-5487
▁decides	-5488
Have	-5489
▁Rachel	-5490
▁Ray	-5491
▁behaved	-5492
▁tugged	-5493
▁sides	-5494
▁woof	-5495
lier	-5496
Ollie	-5497
▁slim	-5498
zen	-5499
▁goodnight	-5500
▁keeper	-5501
▁chirped	-5502
▁sparkling	-5503
▁precious	-5504
mother	-5505
ien	-5506
▁repeated	-5507
indy	-5508
▁claps	-5509
affes	-5510
▁contain	-5511
▁snowballs	-5512
rs	-5513
Ella	-5514
ud	-5515
▁ourselves	-5516
▁Aunt	-5517
allow	-5518
▁giraffes	-5519
▁Mat	-5520
▁balancing	-5521
Andy	-5522
▁kindly	-5523
▁Joy	-5524
▁spending	-5525
omas	-5526
▁writes	-5527
ays	-5528
▁Like	-5529
ppers	-5530
▁prop	-5531
▁Katie	-5532
▁hissed	-5533
▁frozen	-5534
▁Abigail	-5535
▁frosting	-5536
▁effort	-5537
▁buzzing	-5538
▁struggled	-5539
oh	-5540
▁admiring	-5541
▁rele	-5542
▁sweeties	-5543
▁slimy	-5544
iggy	-5545
▁brushed	-5546
▁bloomed	-5547
▁polished	-5548
anted	-5549
▁boo	-5550
▁comfy	-5551
▁staying	-5552
▁rubbing	-5553
▁rocking	-5554
▁thrilled	-5555
▁pockets	-5556
▁beside	-5557
▁comple	-5558
▁Jess	-5559
urry	-5560
isdom	-5561
▁earlier	-5562
▁machines	-5563
▁seems	-5564
▁yesterday	-5565
Ah	-5566
▁rust	-5567
▁Pippa	-5568
▁Keep	-5569
▁Stitch	-5570
▁folding	-5571
▁traveled	-5572
Ducky	-5573
▁boom	-5574
▁cracked	-5575
▁hugging	-5576
ities	-5577
▁radishes	-5578
▁Green	-5579
▁circus	-5580
▁loving	-5581
▁opening	-5582
▁surrounded	-5583
▁curiosity	-5584
▁demanded	-5585
▁spraying	-5586
amie	-5587
▁paintings	-5588
▁removed	-5589
▁gaze	-5590
▁eight	-5591
▁honk	-5592
▁hardly	-5593
▁pebbles	-5594
▁zookeeper	-5595
▁catches	-5596
edding	-5597
▁powers	-5598
▁sting	-5599
▁loaded	-5600
▁stripes	-5601
▁splashes	-5602
▁pots	-5603
▁petted	-5604
▁matching	-5605
▁toss	-5606
▁belly	-5607
▁Chr	-5608
▁stare	-5609
arth	-5610
▁Car	-5611
Yummy	-5612
ibb	-5613
▁Bree	-5614
Tr	-5615
▁Birdie	-5616
▁rocked	-5617
▁whatever	-5618
▁comforted	-5619
▁decision	-5620
Cl	-5621
▁apologize	-5622
▁ribbons	-5623
ern	-5624
▁struggling	-5625
▁Ju	-5626
▁expected	-5627
▁deser	-5628
▁steep	-5629
wh	-5630
▁protected	-5631
▁Je	-5632
▁chases	-5633
▁smiley	-5634
▁neighbors	-5635
▁granted	-5636
▁crumb	-5637
▁diving	-5638
▁purred	-5639
▁sadness	-5640
Thanks	-5641
▁organizing	-5642
lowers	-5643
▁Robby	-5644
▁eagle	-5645
▁heroes	-5646
Sp	-5647
▁dipped	-5648
▁sunlight	-5649
▁pastels	-5650
Whiskers	-5651
▁lied	-5652
▁roads	-5653
▁scru	-5654
▁safer	-5655
▁argued	-5656
▁Water	-5657
▁discovery	-5658
▁goals	-5659
▁peered	-5660
▁villag	-5661
▁Bouncy	-5662
use	-5663
loe	-5664
▁tim	-5665
During	-5666
▁dragons	-5667
▁buckets	-5668
▁parties	-5669
ana	-5670
▁beard	-5671
▁buildings	-5672
Sometimes	-5673
▁flutter	-5674
▁wedding	-5675
▁planets	-5676
▁polishing	-5677
▁fasc	-5678
▁ann	-5679
...	-5680
▁However	-5681
▁released	-5682
▁Gogo	-5683
▁crabs	-5684
▁Watch	-5685
▁tails	-5686
ira	-5687
▁sausages	-5688
▁argu	-5689
▁contro	-5690
▁wiggled	-5691
▁bottles	-5692
uke	-5693
▁teased	-5694
▁arguing	-5695
▁sled	-5696
▁dragged	-5697
▁padd	-5698
▁roaring	-5699
▁movies	-5700
▁clearing	-5701
▁shirts	-5702
▁gathering	-5703
▁airpl	-5704
▁wid	-5705
First	-5706
joyed	-5707
▁spiders	-5708
▁Remember	-5709
Rex	-5710
▁Everyday	-5711
▁teaches	-5712
▁limes	-5713
Ro	-5714
▁Dare	-5715
▁overjoyed	-5716
▁Olly	-5717
▁actually	-5718
▁sighs	-5719
▁continue	-5720
▁cuddle	-5721
▁soaring	-5722
▁smallest	-5723
▁drives	-5724
▁rip	-5725
▁sparkles	-5726
▁cubes	-5727
▁Splash	-5728
▁refres	-5729
▁situ	-5730
▁talent	-5731
▁challenge	-5732
▁grandmother	-5733
▁pouring	-5734
umm	-5735
▁pretends	-5736
▁fascin	-5737
▁cuts	-5738
▁bank	-5739
▁quarreling	-5740
▁mane	-5741
▁shivered	-5742
▁peppers	-5743
▁dusty	-5744
▁villagers	-5745
▁wondering	-5746
ib	-5747
ley	-5748
▁stretching	-5749
njoy	-5750
▁weeks	-5751
Ex	-5752
▁darker	-5753
▁wherever	-5754
jam	-5755
sses	-5756
▁onwards	-5757
▁rings	-5758
▁united	-5759
▁Being	-5760
Achoo	-5761
▁bead	-5762
▁prettiest	-5763
▁caut	-5764
▁Spring	-5765
▁Sad	-5766
▁company	-5767
▁realize	-5768
▁Because	-5769
▁penguins	-5770
▁By	-5771
annah	-5772
▁Wisdom	-5773
▁Prin	-5774
▁Jan	-5775
▁bedtime	-5776
▁completed	-5777
▁Leave	-5778
▁knights	-5779
▁flags	-5780
▁playroom	-5781
Luna	-5782
▁Lou	-5783
▁Ava	-5784
▁actions	-5785
▁learns	-5786
▁gotten	-5787
▁patience	-5788
dam	-5789
inda	-5790
Mandy	-5791
▁shrug	-5792
▁kites	-5793
▁fears	-5794
▁destination	-5795
▁wires	-5796
▁responsible	-5797
▁reply	-5798
▁wrist	-5799
aws	-5800
▁dam	-5801
▁packing	-5802
▁fault	-5803
▁applauded	-5804
▁mountains	-5805
▁scrubbed	-5806
▁ma	-5807
▁Earth	-5808
▁crept	-5809
▁satis	-5810
Tiny	-5811
▁phot	-5812
▁third	-5813
▁wins	-5814
▁pencils	-5815
▁sticking	-5816
▁baker	-5817
▁Thomas	-5818
▁visiting	-5819
▁wound	-5820
▁reminder	-5821
▁uses	-5822
▁peas	-5823
▁control	-5824
▁Julie	-5825
ashed	-5826
▁joking	-5827
Peter	-5828
▁awake	-5829
▁instruct	-5830
▁Put	-5831
▁Fish	-5832
▁healed	-5833
▁staring	-5834
▁Moo	-5835
▁hitting	-5836
▁begin	-5837
▁screaming	-5838
uckily	-5839
▁Friends	-5840
▁Behind	-5841
icorn	-5842
▁helmets	-5843
ler	-5844
▁unicorn	-5845
seek	-5846
Sus	-5847
▁towels	-5848
ica	-5849
▁Ol	-5850
▁creation	-5851
▁Beth	-5852
▁chips	-5853
▁wasted	-5854
bie	-5855
Silly	-5856
laire	-5857
▁masks	-5858
▁forgi	-5859
▁items	-5860
▁firefight	-5861
▁outdo	-5862
▁lollipops	-5863
Jake	-5864
Watch	-5865
▁heav	-5866
▁guns	-5867
▁Hippy	-5868
▁died	-5869
▁seas	-5870
▁glitter	-5871
enty	-5872
▁Abby	-5873
uddles	-5874
▁arrive	-5875
▁stole	-5876
▁weren	-5877
▁accom	-5878
▁scales	-5879
▁perched	-5880
▁achieve	-5881
die	-5882
▁logs	-5883
▁practicing	-5884
ining	-5885
▁whose	-5886
▁swoop	-5887
▁instructions	-5888
▁Cra	-5889
▁agrees	-5890
▁candies	-5891
▁pumpkins	-5892
▁batteries	-5893
▁project	-5894
Stay	-5895
▁snakes	-5896
▁chirping	-5897
▁shelves	-5898
▁protecting	-5899
▁exact	-5900
▁parked	-5901
▁patiently	-5902
▁activ	-5903
▁videos	-5904
▁shoulders	-5905
▁blows	-5906
▁dent	-5907
▁promises	-5908
▁Josh	-5909
hee	-5910
go	-5911
▁Brownie	-5912
ners	-5913
jamas	-5914
▁airplane	-5915
▁examined	-5916
▁roses	-5917
▁accompl	-5918
▁tasks	-5919
uest	-5920
▁Bop	-5921
▁Hoot	-5922
Doggy	-5923
▁Sun	-5924
Emily	-5925
▁Jamie	-5926
▁beads	-5927
▁crumbs	-5928
▁Sure	-5929
▁Love	-5930
zes	-5931
▁bowls	-5932
▁Catty	-5933
▁listens	-5934
Fo	-5935
▁bunch	-5936
▁cough	-5937
▁dolphins	-5938
▁Two	-5939
▁requested	-5940
▁remote	-5941
cakes	-5942
▁improved	-5943
anta	-5944
▁reaching	-5945
▁Chew	-5946
▁brand	-5947
▁Bye	-5948
ayla	-5949
▁alien	-5950
▁guest	-5951
irm	-5952
▁copy	-5953
▁cheering	-5954
▁photos	-5955
▁Blink	-5956
int	-5957
▁Cuddles	-5958
▁cans	-5959
Sammy	-5960
▁timer	-5961
Bad	-5962
▁replaced	-5963
athy	-5964
▁workers	-5965
▁Chloe	-5966
▁stern	-5967
▁Enjoy	-5968
aster	-5969
▁neither	-5970
▁misses	-5971
▁passing	-5972
▁confl	-5973
▁Princess	-5974
▁Squirrel	-5975
▁curtains	-5976
▁Mouse	-5977
▁rubs	-5978
▁rainbows	-5979
▁rolls	-5980
uctantly	-5981
▁patted	-5982
▁pajamas	-5983
▁outdoors	-5984
dies	-5985
▁complaining	-5986
esome	-5987
ilo	-5988
Chirpy	-5989
▁puppet	-5990
Run	-5991
▁closes	-5992
▁beneath	-5993
Eventually	-5994
▁drums	-5995
▁tune	-5996
▁lap	-5997
▁filling	-5998
angled	-5999
▁Sorry	-6000
▁refuse	-6001
▁sweat	-6002
▁faced	-6003
Time	-6004
▁balanced	-6005
▁seven	-6006
▁rescued	-6007
bl	-6008
neath	-6009
▁quacked	-6010
istle	-6011
▁mission	-6012
▁guys	-6013
▁conflict	-6014
▁vent	-6015
▁awesome	-6016
▁cautious	-6017
▁observed	-6018
▁Dot	-6019
▁introduc	-6020
▁cause	-6021
▁pastries	-6022
nie	-6023
▁Our	-6024
▁doctors	-6025
▁exactly	-6026
▁rule	-6027
▁becoming	-6028
▁mes	-6029
▁policeman	-6030
▁Yes	-6031
uly	-6032
▁rockets	-6033
you	-6034
▁fairies	-6035
lay	-6036
▁pout	-6037
▁For	-6038
▁insist	-6039
▁blooming	-6040
▁tractor	-6041
▁farther	-6042
▁Jilly	-6043
Bunny	-6044
▁Ally	-6045
avi	-6046
Oops	-6047
▁included	-6048
▁remembering	-6049
Great	-6050
▁curly	-6051
Fine	-6052
zie	-6053
▁teamwork	-6054
▁wobbled	-6055
▁fascinated	-6056
▁slam	-6057
▁truly	-6058
▁helpers	-6059
Miss	-6060
▁sights	-6061
▁paddle	-6062
▁firm	-6063
▁stumble	-6064
acob	-6065
▁prayer	-6066
▁caused	-6067
▁spong	-6068
▁recording	-6069
kelly	-6070
▁Nina	-6071
▁Anne	-6072
Benny	-6073
ais	-6074
▁traded	-6075
▁starfish	-6076
▁supplies	-6077
▁pointy	-6078
▁inviting	-6079
eah	-6080
▁thro	-6081
▁everyday	-6082
▁situation	-6083
▁neighbourhood	-6084
gers	-6085
▁ornaments	-6086
inkle	-6087
▁valued	-6088
▁adding	-6089
▁reluctantly	-6090
▁dots	-6091
▁stays	-6092
▁bare	-6093
▁tables	-6094
▁desert	-6095
▁prettier	-6096
Poppy	-6097
▁snowmen	-6098
▁steady	-6099
▁Mon	-6100
araway	-6101
▁thorn	-6102
▁minerals	-6103
▁Foxy	-6104
▁ast	-6105
Susie	-6106
▁faraway	-6107
▁glasses	-6108
▁Get	-6109
▁Welcome	-6110
▁swooped	-6111
▁Santa	-6112
ody	-6113
▁unf	-6114
▁forks	-6115
▁usual	-6116
▁usually	-6117
Some	-6118
▁dar	-6119
▁sneezing	-6120
▁solut	-6121
▁winked	-6122
▁loading	-6123
Grandpa	-6124
▁sponge	-6125
▁insects	-6126
▁Jeff	-6127
▁Susan	-6128
▁pans	-6129
▁sobbed	-6130
▁growling	-6131
sm	-6132
▁noses	-6133
▁throat	-6134
▁Lena	-6135
▁Dizzy	-6136
arter	-6137
▁Want	-6138
▁confident	-6139
agull	-6140
▁Stay	-6141
Dog	-6142
▁scarves	-6143
▁yourselves	-6144
▁homework	-6145
▁superheroes	-6146
▁Matt	-6147
▁Kids	-6148
▁windy	-6149
▁smarter	-6150
▁librarian	-6151
▁Adam	-6152
▁gems	-6153
▁Claire	-6154
ora	-6155
▁underneath	-6156
▁knowled	-6157
▁Duck	-6158
▁kicks	-6159
▁itchy	-6160
▁jackets	-6161
▁knowledge	-6162
..."	-6163
▁Skelly	-6164
▁surface	-6165
Mag	-6166
▁untie	-6167
▁comm	-6168
▁princesses	-6169
eed	-6170
ido	-6171
Those	-6172
Yeah	-6173
▁Henny	-6174
An	-6175
coon	-6176
▁squares	-6177
Hold	-6178
▁giggling	-6179
▁warnings	-6180
▁reads	-6181
iar	-6182
vin	-6183
▁choo	-6184
▁Mix	-6185
son	-6186
▁younger	-6187
Our	-6188
▁Luke	-6189
▁clowns	-6190
▁ropes	-6191
▁Po	-6192
pr	-6193
▁biting	-6194
▁crowd	-6195
pite	-6196
▁seagull	-6197
▁Ant	-6198
▁paddled	-6199
▁Sc	-6200
▁wears	-6201
▁delivered	-6202
▁twirl	-6203
▁buzzed	-6204
▁complained	-6205
▁bumpy	-6206
▁onions	-6207
▁stem	-6208
▁Mad	-6209
Ew	-6210
▁piggy	-6211
▁direction	-6212
ouch	-6213
▁dived	-6214
▁tangled	-6215
▁startled	-6216
Roar	-6217
ults	-6218
▁Jones	-6219
▁leaning	-6220
bbie	-6221
▁badge	-6222
▁Linda	-6223
▁Rover	-6224
▁Hannah	-6225
▁unp	-6226
though	-6227
▁deal	-6228
▁vowed	-6229
anes	-6230
▁risk	-6231
▁tickled	-6232
▁napkins	-6233
▁covers	-6234
▁pec	-6235
▁Jessie	-6236
Shh	-6237
Days	-6238
▁yells	-6239
▁satisfied	-6240
▁Jenna	-6241
▁knocks	-6242
▁refreshed	-6243
cuse	-6244
▁cous	-6245
▁arrows	-6246
tuce	-6247
▁Whistle	-6248
▁wipes	-6249
▁speaking	-6250
▁Ash	-6251
▁Dodo	-6252
▁guessing	-6253
▁ripe	-6254
▁hides	-6255
▁lettuce	-6256
▁choices	-6257
▁signed	-6258
▁slower	-6259
▁seeker	-6260
▁introduced	-6261
▁singer	-6262
▁creating	-6263
▁cent	-6264
▁froze	-6265
uggles	-6266
▁joked	-6267
▁squeal	-6268
fit	-6269
▁toaster	-6270
▁explorers	-6271
▁avo	-6272
▁Lion	-6273
▁Dara	-6274
anging	-6275
▁praying	-6276
▁written	-6277
▁discovering	-6278
▁provided	-6279
▁refle	-6280
Excuse	-6281
▁Betsy	-6282
▁Paws	-6283
▁mushrooms	-6284
▁paying	-6285
▁hider	-6286
▁knees	-6287
▁Wink	-6288
▁wandering	-6289
▁images	-6290
ences	-6291
▁Dee	-6292
▁barely	-6293
▁magnets	-6294
▁stung	-6295
▁Fu	-6296
▁behaving	-6297
▁tipto	-6298
?",	-6299
▁marked	-6300
brush	-6301
Buzz	-6302
▁Mira	-6303
rrr	-6304
▁restored	-6305
▁leading	-6306
▁El	-6307
▁Snuggles	-6308
lled	-6309
▁chuck	-6310
Rob	-6311
ados	-6312
▁greet	-6313
▁gears	-6314
▁bravery	-6315
▁nine	-6316
▁competition	-6317
▁outfit	-6318
oline	-6319
▁wishing	-6320
▁properly	-6321
▁ventured	-6322
aa	-6323
▁chat	-6324
▁dances	-6325
▁muscle	-6326
tle	-6327
▁pens	-6328
▁salty	-6329
amb	-6330
▁ranger	-6331
ky	-6332
▁deserve	-6333
▁however	-6334
▁matters	-6335
▁darkness	-6336
▁cobwebs	-6337
▁burst	-6338
▁rainy	-6339
▁bak	-6340
▁ruining	-6341
▁blocking	-6342
sequ	-6343
usted	-6344
itely	-6345
▁chefs	-6346
sty	-6347
▁scur	-6348
▁Suzie	-6349
▁consequ	-6350
▁vines	-6351
▁Jon	-6352
abel	-6353
▁fab	-6354
▁entire	-6355
▁fabric	-6356
▁least	-6357
▁performed	-6358
▁Buggy	-6359
▁basement	-6360
▁scratches	-6361
▁heavier	-6362
▁mints	-6363
▁avocados	-6364
▁twirling	-6365
True	-6366
rink	-6367
▁Milo	-6368
fl	-6369
▁losing	-6370
▁scurried	-6371
▁sunflowers	-6372
▁rainco	-6373
▁swords	-6374
▁Grumpy	-6375
▁Laser	-6376
▁click	-6377
▁jobs	-6378
▁silent	-6379
▁flames	-6380
▁necklaces	-6381
▁Skip	-6382
▁relief	-6383
"."	-6384
▁sewed	-6385
▁rotting	-6386
▁snat	-6387
▁tricky	-6388
Listen	-6389
▁lighter	-6390
Follow	-6391
▁Fido	-6392
▁Jacob	-6393
▁bows	-6394
▁exha	-6395
▁solution	-6396
▁Cathy	-6397
▁stain	-6398
▁tires	-6399
▁consequences	-6400
len	-6401
Mar	-6402
▁unpacked	-6403
Tweet	-6404
▁partic	-6405
Sn	-6406
▁Yesterday	-6407
rance	-6408
▁races	-6409
▁bumps	-6410
▁pins	-6411
▁wraps	-6412
▁Gina	-6413
▁decorating	-6414
▁backed	-6415
▁wow	-6416
aisies	-6417
Beep	-6418
cher	-6419
▁dentist	-6420
▁purr	-6421
▁cautiously	-6422
▁lifting	-6423
▁needles	-6424
izzie	-6425
▁accomplish	-6426
Pe	-6427
▁triangles	-6428
ept	-6429
▁Nana	-6430
▁Those	-6431
▁hesitated	-6432
▁daisies	-6433
▁annoy	-6434
▁growls	-6435
oke	-6436
▁stomped	-6437
▁crackers	-6438
▁cott	-6439
▁Tree	-6440
▁bodies	-6441
▁figured	-6442
▁grabbing	-6443
▁Re	-6444
▁Rolly	-6445
▁mater	-6446
▁buying	-6447
▁material	-6448
▁swans	-6449
▁ties	-6450
▁gri	-6451
vers	-6452
▁grows	-6453
▁sweets	-6454
▁owners	-6455
▁Goodbye	-6456
▁cheeks	-6457
▁flavor	-6458
▁suffering	-6459
▁Oliver	-6460
vroom	-6461
▁fact	-6462
▁groups	-6463
▁Nothing	-6464
bly	-6465
▁Jessica	-6466
▁forehead	-6467
▁lungs	-6468
▁repa	-6469
▁bakery	-6470
▁Cara	-6471
▁interested	-6472
▁freed	-6473
Pete	-6474
itches	-6475
▁chuckled	-6476
▁conn	-6477
▁swept	-6478
?'	-6479
▁thud	-6480
▁exhausted	-6481
▁tapped	-6482
▁twinkling	-6483
rosty	-6484
▁nect	-6485
elle	-6486
▁nectar	-6487
Polly	-6488
▁feast	-6489
▁darling	-6490
indr	-6491
▁Copper	-6492
▁Trust	-6493
▁worries	-6494
▁uns	-6495
▁tunnels	-6496
▁fuzzy	-6497
▁reason	-6498
▁repaired	-6499
▁Ball	-6500
▁activities	-6501
▁Try	-6502
▁pecked	-6503
lets	-6504
▁Listen	-6505
▁entrance	-6506
▁meals	-6507
▁raindr	-6508
▁completely	-6509
▁particular	-6510
▁mailed	-6511
no	-6512
ctions	-6513
▁nests	-6514
▁cuddly	-6515
▁sense	-6516
▁waiter	-6517
▁colored	-6518
▁leap	-6519
▁plenty	-6520
▁peeking	-6521
band	-6522
step	-6523
▁slammed	-6524
▁Mel	-6525
▁Christ	-6526
▁players	-6527
▁Birthday	-6528
▁budge	-6529
▁month	-6530
▁forgets	-6531
arky	-6532
▁den	-6533
▁scra	-6534
Lola	-6535
▁handful	-6536
▁mer	-6537
▁Pup	-6538
▁genie	-6539
ossible	-6540
▁Mikey	-6541
▁stool	-6542
▁Sof	-6543
iggie	-6544
▁talks	-6545
▁feeding	-6546
▁passports	-6547
▁films	-6548
▁baths	-6549
▁impossible	-6550
▁Rain	-6551
▁determination	-6552
▁printing	-6553
boat	-6554
▁designed	-6555
▁Tara	-6556
▁opp	-6557
▁buses	-6558
ueen	-6559
lephant	-6560
▁suitcase	-6561
▁Snap	-6562
▁bars	-6563
▁counts	-6564
▁spikes	-6565
▁stolen	-6566
▁spreading	-6567
▁steer	-6568
▁wiping	-6569
▁lamb	-6570
▁honked	-6571
▁Kayla	-6572
▁Twinkle	-6573
Whee	-6574
nies	-6575
▁cowb	-6576
▁separated	-6577
blings	-6578
Big	-6579
▁siblings	-6580
▁hops	-6581
▁chop	-6582
▁fires	-6583
▁sewing	-6584
▁fever	-6585
Jerry	-6586
▁twinkle	-6587
▁ty	-6588
▁camping	-6589
▁Bloom	-6590
yes	-6591
retch	-6592
▁lower	-6593
▁behavi	-6594
▁changing	-6595
mas	-6596
▁celebration	-6597
▁liqu	-6598
▁Without	-6599
▁squealed	-6600
▁dollhouse	-6601
but	-6602
▁backward	-6603
▁age	-6604
▁Cindy	-6605
▁snatched	-6606
ho	-6607
▁cash	-6608
▁Julia	-6609
▁twice	-6610
▁Larry	-6611
lee	-6612
▁sway	-6613
itched	-6614
▁Peanut	-6615
▁celebrating	-6616
▁ache	-6617
▁shrinking	-6618
weed	-6619
rious	-6620
▁kings	-6621
▁kittens	-6622
▁shops	-6623
cope	-6624
aura	-6625
▁hus	-6626
▁touches	-6627
airy	-6628
▁avoid	-6629
▁pancakes	-6630
▁spat	-6631
▁Frosty	-6632
▁Jay	-6633
▁Hold	-6634
rig	-6635
hog	-6636
▁paths	-6637
cky	-6638
▁calmed	-6639
▁rotten	-6640
▁seaweed	-6641
ives	-6642
▁dropping	-6643
iles	-6644
▁stroked	-6645
▁twisting	-6646
▁untied	-6647
llen	-6648
▁playhouse	-6649
ne	-6650
▁puppies	-6651
▁students	-6652
cl	-6653
hi	-6654
▁astron	-6655
▁screws	-6656
▁somebody	-6657
▁Pam	-6658
igning	-6659
▁Other	-6660
▁Woof	-6661
▁Sadly	-6662
▁liquid	-6663
▁wakes	-6664
▁squish	-6665
▁astronaut	-6666
aren	-6667
immer	-6668
▁thrown	-6669
▁bracelets	-6670
▁loops	-6671
▁wrapping	-6672
▁plain	-6673
▁tramp	-6674
▁planning	-6675
For	-6676
▁aimed	-6677
▁skunk	-6678
▁pennies	-6679
▁shoo	-6680
Sunny	-6681
▁lifts	-6682
▁dancers	-6683
▁Mic	-6684
▁firefly	-6685
Mrs	-6686
pen	-6687
▁sparks	-6688
Grace	-6689
▁Christmas	-6690
yan	-6691
endy	-6692
▁objects	-6693
▁rewarded	-6694
▁cust	-6695
▁directions	-6696
ingo	-6697
using	-6698
▁husband	-6699
▁reflection	-6700
ude	-6701
Soph	-6702
Take	-6703
river	-6704
▁clues	-6705
uppy	-6706
▁poster	-6707
Pipp	-6708
▁leads	-6709
▁increased	-6710
▁blocked	-6711
ammy	-6712
▁rising	-6713
Tina	-6714
▁cousin	-6715
▁dod	-6716
▁forgetting	-6717
▁Els	-6718
rigued	-6719
▁custom	-6720
▁Sophia	-6721
▁beginning	-6722
▁trampoline	-6723
▁Rollie	-6724
▁storekeeper	-6725
▁pouted	-6726
Paul	-6727
▁aff	-6728
▁zebras	-6729
▁hedgehog	-6730
▁Moral	-6731
▁borrowed	-6732
▁countryside	-6733
▁mesmer	-6734
▁snowfl	-6735
▁vehicles	-6736
▁instrum	-6737
▁Lizzie	-6738
▁frowning	-6739
ivity	-6740
▁Only	-6741
▁Biggie	-6742
▁marker	-6743
yond	-6744
▁beyond	-6745
▁presses	-6746
ivery	-6747
▁fart	-6748
Johnny	-6749
Jump	-6750
iece	-6751
jo	-6752
▁damage	-6753
▁nibb	-6754
▁slips	-6755
▁health	-6756
▁swimsuit	-6757
▁whispers	-6758
armer	-6759
▁Robo	-6760
▁warmer	-6761
▁flapping	-6762
▁tiptoed	-6763
▁regretted	-6764
itted	-6765
▁Fire	-6766
▁laying	-6767
▁yelp	-6768
▁glued	-6769
▁rains	-6770
▁everybody	-6771
ades	-6772
▁creations	-6773
▁Missy	-6774
▁hearing	-6775
▁Elephant	-6776
▁swir	-6777
▁colder	-6778
ael	-6779
etty	-6780
iversity	-6781
▁Rich	-6782
▁shaped	-6783
▁streets	-6784
▁fins	-6785
▁Sparky	-6786
Ab	-6787
Mike	-6788
▁rusty	-6789
▁cushions	-6790
▁san	-6791
▁farthest	-6792
▁June	-6793
▁Robert	-6794
▁creativity	-6795
ans	-6796
▁sale	-6797
▁Chirp	-6798
▁Moon	-6799
▁strongest	-6800
ibbit	-6801
▁fits	-6802
iam	-6803
Always	-6804
▁Stella	-6805
▁Ex	-6806
▁bells	-6807
▁dollars	-6808
angle	-6809
▁lending	-6810
▁earn	-6811
eese	-6812
▁cashier	-6813
▁including	-6814
▁sank	-6815
▁sniffs	-6816
▁raincoat	-6817
▁stopping	-6818
▁trembled	-6819
George	-6820
▁source	-6821
iti	-6822
imon	-6823
▁indeed	-6824
▁wobbly	-6825
ters	-6826
▁single	-6827
▁recommended	-6828
Tw	-6829
▁spells	-6830
▁wee	-6831
▁accomplishment	-6832
▁ends	-6833
▁belts	-6834
▁hopeful	-6835
▁surprising	-6836
eal	-6837
▁Take	-6838
Annie	-6839
▁guests	-6840
▁Snowman	-6841
▁seasons	-6842
▁Luckily	-6843
ichael	-6844
▁plans	-6845
▁encourag	-6846
▁supported	-6847
Toby	-6848
illed	-6849
stick	-6850
▁artist	-6851
▁suffered	-6852
▁performance	-6853
eet	-6854
▁slowed	-6855
▁gross	-6856
▁flavors	-6857
iding	-6858
ertain	-6859
▁spins	-6860
▁Izzy	-6861
cho	-6862
▁delivery	-6863
▁raindrops	-6864
arac	-6865
uing	-6866
▁Woo	-6867
▁Fuzzy	-6868
▁labels	-6869
▁raccoon	-6870
▁forgiving	-6871
obody	-6872
▁pours	-6873
ility	-6874
▁stands	-6875
▁turtles	-6876
▁vanilla	-6877
▁Nick	-6878
▁Sw	-6879
uess	-6880
▁beam	-6881
▁recipe	-6882
▁tying	-6883
▁geese	-6884
▁Bones	-6885
▁drawn	-6886
▁robber	-6887
▁wept	-6888
▁charac	-6889
▁willing	-6890
▁pops	-6891
▁corners	-6892
elia	-6893
▁die	-6894
▁sailboat	-6895
▁grip	-6896
▁queens	-6897
▁drivers	-6898
Dave	-6899
▁moo	-6900
▁hallway	-6901
itude	-6902
▁imagining	-6903
hew	-6904
▁Abbie	-6905
▁seconds	-6906
▁widened	-6907
▁preparing	-6908
Mine	-6909
▁Rudy	-6910
▁Laura	-6911
▁adult	-6912
▁Spirit	-6913
▁grocer	-6914
▁talented	-6915
Co	-6916
▁coop	-6917
▁Beaky	-6918
ummies	-6919
▁sailors	-6920
lling	-6921
▁softer	-6922
▁watering	-6923
▁aside	-6924
▁knots	-6925
▁sending	-6926
▁tipped	-6927
▁unsure	-6928
▁Ang	-6929
▁horiz	-6930
▁treehouse	-6931
▁notes	-6932
▁echo	-6933
▁achieved	-6934
▁horizon	-6935
▁squeak	-6936
▁delivering	-6937
igers	-6938
▁hotter	-6939
▁pleasure	-6940
▁Stretch	-6941
▁Doctor	-6942
▁burrow	-6943
▁pupils	-6944
▁curiously	-6945
▁Ryan	-6946
▁angels	-6947
▁blinking	-6948
Teddy	-6949
▁yum	-6950
▁det	-6951
▁tweet	-6952
▁symbols	-6953
wk	-6954
▁Emmy	-6955
▁tummies	-6956
▁tiss	-6957
▁passen	-6958
▁figures	-6959
▁pigeons	-6960
oey	-6961
umbling	-6962
▁bandages	-6963
Out	-6964
▁coup	-6965
▁robots	-6966
alph	-6967
▁tossed	-6968
▁hour	-6969
▁backwards	-6970
▁Tia	-6971
▁roars	-6972
▁merma	-6973
▁rather	-6974
uzz	-6975
▁Crab	-6976
▁Farmer	-6977
atur	-6978
▁Play	-6979
cited	-6980
▁Robbie	-6981
Bear	-6982
ighting	-6983
▁groceries	-6984
▁Chris	-6985
▁zipping	-6986
▁Ron	-6987
Put	-6988
▁unw	-6989
▁among	-6990
▁blown	-6991
▁icing	-6992
▁Toot	-6993
▁rumble	-6994
▁afterwards	-6995
ipper	-6996
▁screwd	-6997
▁Titi	-6998
▁Maya	-6999
▁glee	-7000
▁sped	-7001
ushing	-7002
▁prove	-7003
Ru	-7004
▁dip	-7005
▁Turt	-7006
▁overcome	-7007
▁Jump	-7008
▁surfboard	-7009
Moo	-7010
▁shovels	-7011
▁slices	-7012
▁merry	-7013
▁mate	-7014
▁wobble	-7015
▁heading	-7016
Lilly	-7017
▁reversed	-7018
▁disturbing	-7019
▁firefighters	-7020
tha	-7021
▁swall	-7022
eds	-7023
▁chip	-7024
▁flipped	-7025
▁swallowed	-7026
▁squeezing	-7027
usty	-7028
▁scored	-7029
▁Barky	-7030
▁waking	-7031
▁intrigued	-7032
▁maker	-7033
awn	-7034
Like	-7035
▁puff	-7036
▁hawk	-7037
▁encouraging	-7038
the	-7039
▁aud	-7040
Henry	-7041
osen	-7042
onies	-7043
▁chosen	-7044
▁couple	-7045
niversity	-7046
▁designs	-7047
▁Kit	-7048
▁slipping	-7049
▁screwdriver	-7050
▁squishy	-7051
▁Sl	-7052
▁Lia	-7053
▁center	-7054
▁gardener	-7055
▁rivers	-7056
▁markers	-7057
▁respond	-7058
May	-7059
iley	-7060
However	-7061
pecting	-7062
▁frowns	-7063
bird	-7064
▁fluttered	-7065
▁Along	-7066
▁firefighter	-7067
▁jars	-7068
Ribbit	-7069
▁suits	-7070
▁secure	-7071
▁tigers	-7072
Alex	-7073
▁sprinkled	-7074
▁Patch	-7075
▁creamy	-7076
▁bru	-7077
▁ignoring	-7078
ashes	-7079
▁sharks	-7080
▁giggles	-7081
James	-7082
▁tissue	-7083
▁tighter	-7084
▁firmly	-7085
▁Wo	-7086
fly	-7087
▁shown	-7088
▁thorns	-7089
▁familiar	-7090
▁Near	-7091
ae	-7092
▁drawers	-7093
child	-7094
▁express	-7095
▁daring	-7096
▁audience	-7097
▁crossing	-7098
▁def	-7099
ments	-7100
▁cloudy	-7101
▁coloured	-7102
▁performing	-7103
▁ais	-7104
▁cor	-7105
rat	-7106
▁pedaled	-7107
Sophie	-7108
▁mixture	-7109
▁til	-7110
▁gracefully	-7111
ggy	-7112
Dolly	-7113
▁Holly	-7114
Get	-7115
ounce	-7116
Lulu	-7117
▁yielded	-7118
▁haircuts	-7119
▁ponies	-7120
▁bits	-7121
▁Sleep	-7122
▁disob	-7123
▁todd	-7124
▁hangers	-7125
▁nervously	-7126
▁Thanks	-7127
bbled	-7128
▁Martha	-7129
▁crowns	-7130
Rose	-7131
▁pays	-7132
▁peck	-7133
▁Granny	-7134
▁stroke	-7135
Bang	-7136
fall	-7137
▁napped	-7138
▁ev	-7139
aven	-7140
▁minded	-7141
▁respected	-7142
ddie	-7143
ably	-7144
▁Turtle	-7145
▁tested	-7146
Boys	-7147
ading	-7148
parent	-7149
arrow	-7150
▁surfing	-7151
▁neighbours	-7152
vered	-7153
▁beeh	-7154
▁shady	-7155
iona	-7156
Bessie	-7157
▁Simon	-7158
▁magician	-7159
▁enthusiasm	-7160
▁darl	-7161
▁wisely	-7162
▁darlings	-7163
een	-7164
▁sails	-7165
▁stitches	-7166
Dear	-7167
▁Tweetie	-7168
▁thoughts	-7169
kend	-7170
▁reminds	-7171
▁weekend	-7172
▁temper	-7173
oring	-7174
antha	-7175
▁fleas	-7176
▁spits	-7177
▁surroundings	-7178
▁teams	-7179
▁fills	-7180
▁lessons	-7181
Spike	-7182
▁melons	-7183
▁paintbrush	-7184
▁mermaid	-7185
▁flip	-7186
▁Mabel	-7187
▁hoops	-7188
▁grandchild	-7189
▁elbow	-7190
▁lies	-7191
▁sports	-7192
▁Fighting	-7193
rac	-7194
▁Willy	-7195
▁explo	-7196
Luckily	-7197
▁panicked	-7198
▁amount	-7199
▁cleaner	-7200
oni	-7201
▁longest	-7202
Guess	-7203
cused	-7204
▁scooters	-7205
▁lent	-7206
ita	-7207
▁Ph	-7208
▁Bubb	-7209
▁sill	-7210
immering	-7211
▁beloved	-7212
Alright	-7213
Charlie	-7214
lle	-7215
oga	-7216
ongrat	-7217
ongratul	-7218
▁oysters	-7219
▁grandparent	-7220
▁beehive	-7221
▁forgiven	-7222
Pippin	-7223
▁Wise	-7224
▁Nobody	-7225
▁magazines	-7226
▁arr	-7227
▁Tess	-7228
▁Karen	-7229
▁elf	-7230
▁Janie	-7231
▁Lenny	-7232
▁repeating	-7233
▁sweetest	-7234
Keep	-7235
▁wadd	-7236
▁discussed	-7237
▁reass	-7238
▁lace	-7239
▁nightmares	-7240
Joey	-7241
▁tubes	-7242
▁Yet	-7243
▁spoonful	-7244
▁bathing	-7245
▁understands	-7246
ancy	-7247
asty	-7248
▁Wendy	-7249
▁nood	-7250
▁sweep	-7251
▁manners	-7252
▁Ana	-7253
crow	-7254
▁Abi	-7255
▁nur	-7256
▁bully	-7257
▁wrink	-7258
Maggie	-7259
▁guide	-7260
▁sprang	-7261
▁crew	-7262
onna	-7263
omise	-7264
▁breathed	-7265
ilda	-7266
ently	-7267
while	-7268
▁Roo	-7269
steps	-7270
▁Bally	-7271
▁bulbs	-7272
▁neare	-7273
▁grassy	-7274
▁spies	-7275
▁wiggly	-7276
▁Michael	-7277
▁testing	-7278
▁coug	-7279
▁sheets	-7280
▁solving	-7281
▁Sparkle	-7282
▁footsteps	-7283
ntil	-7284
▁speeding	-7285
cept	-7286
ounced	-7287
▁focused	-7288
Millie	-7289
▁Well	-7290
▁camel	-7291
▁braver	-7292
▁mesmerized	-7293
▁Puppy	-7294
▁hesitant	-7295
▁licking	-7296
▁rushing	-7297
▁joining	-7298
▁polar	-7299
▁Judy	-7300
espite	-7301
▁greeted	-7302
Pat	-7303
Which	-7304
▁worn	-7305
▁changes	-7306
▁materials	-7307
?!"	-7308
▁Marie	-7309
▁stored	-7310
▁bicycles	-7311
ints	-7312
Betty	-7313
▁Win	-7314
▁mast	-7315
Leave	-7316
▁anger	-7317
▁peacefully	-7318
Danny	-7319
▁Ralph	-7320
▁ships	-7321
▁Show	-7322
▁nuzz	-7323
▁gonna	-7324
▁Mixy	-7325
▁Chewy	-7326
▁spice	-7327
▁politely	-7328
▁spills	-7329
▁scarecrow	-7330
▁terrified	-7331
▁knives	-7332
ppies	-7333
▁burying	-7334
ca	-7335
▁aren	-7336
▁evil	-7337
▁healing	-7338
▁donkey	-7339
▁aeroplanes	-7340
freeze	-7341
▁miles	-7342
▁seals	-7343
▁scattering	-7344
▁dump	-7345
amboo	-7346
▁worrying	-7347
zoom	-7348
beep	-7349
▁Kip	-7350
▁Nice	-7351
▁puzzled	-7352
Jazz	-7353
▁Ali	-7354
▁stacked	-7355
▁Jojo	-7356
▁loses	-7357
dding	-7358
▁baskets	-7359
▁travelled	-7360
▁Jackie	-7361
▁Okay	-7362
▁blast	-7363
▁gazing	-7364
Car	-7365
ipes	-7366
▁Todd	-7367
▁Davey	-7368
▁temperature	-7369
▁und	-7370
Hurry	-7371
▁clue	-7372
▁tasting	-7373
▁dripping	-7374
▁believing	-7375
▁pinching	-7376
▁rats	-7377
▁soaking	-7378
erm	-7379
isc	-7380
Ellie	-7381
Harry	-7382
▁Isn	-7383
▁sandy	-7384
rect	-7385
Snow	-7386
rey	-7387
anwhile	-7388
▁banged	-7389
▁humans	-7390
▁force	-7391
▁punishment	-7392
▁gest	-7393
▁crashing	-7394
▁Chess	-7395
▁swimmer	-7396
▁Te	-7397
▁Fairy	-7398
▁relaxing	-7399
▁beeped	-7400
▁resisted	-7401
▁snowflakes	-7402
▁quarreled	-7403
elie	-7404
form	-7405
▁ramp	-7406
▁joins	-7407
abby	-7408
years	-7409
▁delayed	-7410
▁backpacks	-7411
Pr	-7412
▁dressing	-7413
▁toddler	-7414
▁flight	-7415
▁covering	-7416
Open	-7417
orter	-7418
▁encouragement	-7419
▁toward	-7420
▁scraped	-7421
▁Cow	-7422
▁benches	-7423
Binky	-7424
▁focus	-7425
▁purpose	-7426
▁correct	-7427
▁lipstick	-7428
▁bamboo	-7429
▁months	-7430
▁potion	-7431
▁twinkled	-7432
▁permitted	-7433
▁languages	-7434
▁orders	-7435
▁freedom	-7436
▁Everybody	-7437
▁risks	-7438
▁master	-7439
▁poppies	-7440
eve	-7441
shm	-7442
▁Pen	-7443
Freddy	-7444
▁faded	-7445
▁noodles	-7446
▁wounds	-7447
'."	-7448
rier	-7449
isions	-7450
shmallow	-7451
Kids	-7452
▁Herb	-7453
▁Mint	-7454
▁creams	-7455
▁birdhouse	-7456
Bow	-7457
Kiki	-7458
▁cells	-7459
ider	-7460
▁adults	-7461
▁sniffing	-7462
Kat	-7463
opes	-7464
▁unwra	-7465
▁cheers	-7466
▁annoyed	-7467
ecca	-7468
▁Hug	-7469
▁puck	-7470
▁floats	-7471
▁opinions	-7472
andas	-7473
▁flown	-7474
▁Jacky	-7475
Milly	-7476
▁sneezes	-7477
▁nodding	-7478
▁scen	-7479
▁burnt	-7480
▁smelling	-7481
Spe	-7482
▁drifted	-7483
▁handsome	-7484
▁within	-7485
▁Angel	-7486
▁height	-7487
▁scient	-7488
▁damaged	-7489
▁Eddie	-7490
▁pleaded	-7491
▁slither	-7492
▁tearing	-7493
▁bothering	-7494
▁instruments	-7495
Birdy	-7496
▁Poor	-7497
▁ease	-7498
bage	-7499
▁scientist	-7500
▁Fiona	-7501
da	-7502
▁pound	-7503
Kim	-7504
▁seller	-7505
▁Say	-7506
▁Bess	-7507
▁handing	-7508
▁Cr	-7509
▁germ	-7510
▁files	-7511
▁wasting	-7512
▁dreamt	-7513
▁results	-7514
Goodnight	-7515
▁Time	-7516
bell	-7517
Buzzy	-7518
▁brushing	-7519
▁explains	-7520
▁destroying	-7521
ousy	-7522
▁Razor	-7523
▁characters	-7524
Bill	-7525
Kate	-7526
▁hiss	-7527
▁certain	-7528
▁Meg	-7529
▁sweaty	-7530
unched	-7531
▁business	-7532
▁Bra	-7533
▁onward	-7534
▁talents	-7535
▁Excited	-7536
▁bravest	-7537
▁engines	-7538
▁sternly	-7539
ition	-7540
prints	-7541
▁postman	-7542
▁mosquitoes	-7543
Try	-7544
under	-7545
▁tuck	-7546
▁scares	-7547
Baby	-7548
cake	-7549
Pandy	-7550
▁stomp	-7551
▁apologised	-7552
uel	-7553
▁manag	-7554
▁minds	-7555
▁snuck	-7556
▁bitten	-7557
urious	-7558
attered	-7559
▁tilted	-7560
▁switched	-7561
▁decisions	-7562
▁reminding	-7563
▁Gary	-7564
▁Judge	-7565
▁desper	-7566
▁singers	-7567
▁behavior	-7568
▁Dani	-7569
bbers	-7570
▁Ke	-7571
Ruby	-7572
inny	-7573
▁peeled	-7574
▁squeaked	-7575
ashing	-7576
▁yumm	-7577
▁purrs	-7578
▁Sadie	-7579
▁smashed	-7580
▁treated	-7581
▁rustling	-7582
▁displayed	-7583
Dan	-7584
▁matey	-7585
▁neatly	-7586
Bee	-7587
▁Se	-7588
▁planting	-7589
▁Navy	-7590
▁marshmallow	-7591
▁insp	-7592
▁cracks	-7593
▁yelped	-7594
▁bellies	-7595
▁grandparents	-7596
aver	-7597
▁scamp	-7598
▁shines	-7599
▁sy	-7600
▁hoo	-7601
▁failed	-7602
▁coloring	-7603
▁Yoga	-7604
Clara	-7605
▁Maddie	-7606
line	-7607
▁Make	-7608
▁zooms	-7609
▁nasty	-7610
▁Although	-7611
▁breathing	-7612
▁combed	-7613
rup	-7614
▁pandas	-7615
▁despite	-7616
Behind	-7617
ighing	-7618
▁address	-7619
▁waterfall	-7620
uffin	-7621
▁Loop	-7622
cc	-7623
▁antic	-7624
▁wider	-7625
▁robbers	-7626
▁Shadow	-7627
▁echoed	-7628
▁doorway	-7629
▁sweaters	-7630
▁Mindy	-7631
Instead	-7632
▁Amelia	-7633
omp	-7634
▁inj	-7635
▁edges	-7636
▁Blinky	-7637
Play	-7638
▁gap	-7639
wise	-7640
▁Flick	-7641
▁disobey	-7642
orking	-7643
oscope	-7644
▁Fishy	-7645
▁taped	-7646
▁magnif	-7647
▁Samantha	-7648
Wake	-7649
▁tar	-7650
▁flaps	-7651
▁scolds	-7652
▁action	-7653
▁crawls	-7654
▁Despite	-7655
▁swap	-7656
▁gobbled	-7657
▁backs	-7658
▁warri	-7659
▁steth	-7660
Jul	-7661
▁sever	-7662
▁shinier	-7663
▁probably	-7664
▁newspapers	-7665
▁occ	-7666
▁Eliz	-7667
▁encount	-7668
▁several	-7669
father	-7670
▁Share	-7671
▁plucked	-7672
▁serving	-7673
▁connected	-7674
tock	-7675
▁ouch	-7676
▁quieter	-7677
igger	-7678
▁gesture	-7679
Su	-7680
▁Dina	-7681
▁plot	-7682
▁student	-7683
▁doorbell	-7684
▁Mina	-7685
▁squaw	-7686
fire	-7687
▁Nut	-7688
▁cares	-7689
▁grandson	-7690
▁rescuing	-7691
▁spy	-7692
▁simply	-7693
Even	-7694
▁goo	-7695
▁rows	-7696
▁Mousy	-7697
▁whistles	-7698
Too	-7699
mies	-7700
vant	-7701
▁shorter	-7702
▁astronauts	-7703
ssss	-7704
▁snaps	-7705
▁cottage	-7706
▁unpacking	-7707
▁swo	-7708
Shrink	-7709
ibi	-7710
▁Stan	-7711
▁mood	-7712
▁swollen	-7713
▁accidents	-7714
Magic	-7715
▁Prince	-7716
▁Ria	-7717
abelle	-7718
▁bothered	-7719
▁stethoscope	-7720
found	-7721
undred	-7722
▁trusting	-7723
▁Ruth	-7724
▁causing	-7725
Maria	-7726
▁leapt	-7727
▁dresser	-7728
aint	-7729
▁pills	-7730
▁sou	-7731
retty	-7732
▁Shelly	-7733
▁proper	-7734
▁throughout	-7735
▁runner	-7736
▁prayers	-7737
▁joyful	-7738
mates	-7739
▁Honey	-7740
▁locks	-7741
ulp	-7742
Rock	-7743
▁goats	-7744
what	-7745
▁Wait	-7746
▁target	-7747
rest	-7748
▁Bad	-7749
▁Cro	-7750
▁Pl	-7751
▁Bang	-7752
▁Ruff	-7753
artled	-7754
▁dears	-7755
▁munch	-7756
▁waddled	-7757
▁flips	-7758
▁lowered	-7759
▁stepping	-7760
▁Tri	-7761
▁cons	-7762
▁Toys	-7763
▁teachers	-7764
▁cowboy	-7765
▁inches	-7766
▁envelopes	-7767
ears	-7768
▁char	-7769
▁anticip	-7770
▁explorer	-7771
▁Ready	-7772
▁playd	-7773
unity	-7774
ening	-7775
▁Gerry	-7776
▁floors	-7777
▁efforts	-7778
▁knocking	-7779
Nice	-7780
▁uniforms	-7781
lied	-7782
▁Momma	-7783
▁aware	-7784
▁footprints	-7785
▁nearly	-7786
▁disc	-7787
ivi	-7788
▁Im	-7789
▁sens	-7790
▁trot	-7791
▁whimp	-7792
▁appreciation	-7793
▁Gl	-7794
llas	-7795
▁glitt	-7796
oosh	-7797
▁checks	-7798
▁collap	-7799
atty	-7800
▁lapt	-7801
Someone	-7802
▁except	-7803
▁necks	-7804
▁charge	-7805
Sandy	-7806
▁plug	-7807
▁fluttering	-7808
Penny	-7809
▁stamped	-7810
▁sandcastles	-7811
acy	-7812
▁Taking	-7813
▁umbrellas	-7814
Red	-7815
omb	-7816
ails	-7817
▁shrank	-7818
rily	-7819
▁Eva	-7820
▁adds	-7821
iscuit	-7822
▁Since	-7823
▁prick	-7824
▁statues	-7825
▁finishing	-7826
rons	-7827
▁stroll	-7828
▁hunters	-7829
▁chocolates	-7830
Am	-7831
.'"	-7832
Olive	-7833
▁dodged	-7834
oger	-7835
▁Sofia	-7836
▁germs	-7837
▁hundred	-7838
▁wrigg	-7839
▁aprons	-7840
▁passengers	-7841
▁Jonny	-7842
▁aisle	-7843
▁sets	-7844
▁weeds	-7845
▁novels	-7846
order	-7847
▁demanding	-7848
▁Ricky	-7849
▁meows	-7850
▁scratching	-7851
▁nurses	-7852
▁Ne	-7853
issa	-7854
▁Cari	-7855
▁minding	-7856
▁discussing	-7857
▁killed	-7858
urrender	-7859
▁driveway	-7860
▁becomes	-7861
Carl	-7862
▁haird	-7863
▁laptop	-7864
▁toolbox	-7865
▁posit	-7866
▁attack	-7867
▁Maisy	-7868
sol	-7869
Slow	-7870
▁bounces	-7871
▁scampered	-7872
▁Rita	-7873
▁deed	-7874
▁sprays	-7875
▁supplied	-7876
▁tempt	-7877
▁Bubba	-7878
▁burns	-7879
▁suggestion	-7880
▁friendships	-7881
▁Megan	-7882
▁closing	-7883
▁slapping	-7884
Dr	-7885
Arrr	-7886
▁invites	-7887
▁belongings	-7888
▁anticipation	-7889
▁form	-7890
▁erase	-7891
▁springing	-7892
▁rays	-7893
▁Mother	-7894
▁cotton	-7895
▁twists	-7896
Finn	-7897
▁snuggle	-7898
▁models	-7899
▁forgives	-7900
Hoppy	-7901
▁shall	-7902
▁humming	-7903
▁massages	-7904
▁newfound	-7905
▁responded	-7906
Speedy	-7907
▁Louise	-7908
▁ghosts	-7909
▁expecting	-7910
Does	-7911
▁Wooly	-7912
▁cheated	-7913
otte	-7914
▁traveling	-7915
▁battle	-7916
▁although	-7917
▁cond	-7918
▁Muffin	-7919
▁Flo	-7920
alloween	-7921
▁mommies	-7922
▁aim	-7923
onnie	-7924
▁carries	-7925
▁invitations	-7926
▁Bibi	-7927
▁Bumpy	-7928
▁refreshing	-7929
▁conc	-7930
▁presented	-7931
▁Cle	-7932
▁rowed	-7933
▁squir	-7934
ots	-7935
rie	-7936
Aunt	-7937
▁foxes	-7938
arlotte	-7939
▁final	-7940
▁cooper	-7941
▁duckling	-7942
hel	-7943
▁cafe	-7944
▁marshmallows	-7945
▁Patty	-7946
▁clicked	-7947
▁Pop	-7948
▁jets	-7949
▁beaver	-7950
▁designing	-7951
▁Halloween	-7952
▁Never	-7953
▁Whoever	-7954
▁Elle	-7955
▁mugs	-7956
▁drown	-7957
po	-7958
▁oppos	-7959
▁picnics	-7960
▁tricycle	-7961
iens	-7962
inted	-7963
▁Biggy	-7964
▁Speed	-7965
▁convin	-7966
▁scoops	-7967
▁congratul	-7968
uacky	-7969
▁aliens	-7970
▁travels	-7971
▁Jax	-7972
▁tests	-7973
▁Another	-7974
▁questioned	-7975
▁strips	-7976
▁Flutter	-7977
▁Fe	-7978
▁craft	-7979
▁defe	-7980
covered	-7981
iri	-7982
Sad	-7983
Lucky	-7984
▁Flop	-7985
▁fights	-7986
Ball	-7987
roken	-7988
▁opposite	-7989
Hmm	-7990
Find	-7991
▁rout	-7992
▁afford	-7993
▁encountered	-7994
▁decl	-7995
▁Frankie	-7996
inch	-7997
▁raising	-7998
▁Kevin	-7999
▁upside	-8000
▁calmly	-8001
▁flashed	-8002
iment	-8003
▁sincere	-8004
▁yawning	-8005
▁realizes	-8006
▁buddy	-8007
aturday	-8008
▁grandfather	-8009
Gigi	-8010
▁crystals	-8011
▁cupcakes	-8012
Choo	-8013
byes	-8014
▁Luc	-8015
▁buckled	-8016
▁winners	-8017
Trust	-8018
verse	-8019
▁Kelly	-8020
▁defin	-8021
',	-8022
▁Ot	-8023
▁caw	-8024
▁Truck	-8025
▁weapons	-8026
▁Saturday	-8027
Elly	-8028
▁Fel	-8029
▁Man	-8030
▁packages	-8031
▁Oh	-8032
▁attem	-8033
▁cheat	-8034
▁sacks	-8035
▁messes	-8036
▁goodbyes	-8037
▁convers	-8038
val	-8039
quet	-8040
shadow	-8041
▁coach	-8042
▁drift	-8043
▁Ar	-8044
five	-8045
emies	-8046
▁caps	-8047
▁enemies	-8048
asha	-8049
Mouse	-8050
▁Gray	-8051
▁yummiest	-8052
▁scrub	-8053
▁returning	-8054
▁Softy	-8055
▁Playing	-8056
▁swallow	-8057
▁admiration	-8058
rian	-8059
▁Phil	-8060
Coco	-8061
Tilly	-8062
▁unable	-8063
▁sprout	-8064
▁twenty	-8065
oor	-8066
ooks	-8067
▁Yawn	-8068
ugging	-8069
▁sadder	-8070
▁freezing	-8071
▁brightest	-8072
▁Nancy	-8073
▁bless	-8074
▁respon	-8075
▁cosy	-8076
reverse	-8077
▁response	-8078
▁Katy	-8079
Two	-8080
▁Ty	-8081
▁Elsa	-8082
stalk	-8083
▁reapp	-8084
▁opport	-8085
▁honking	-8086
▁diamonds	-8087
Fl	-8088
▁Jolly	-8089
▁bride	-8090
▁prevented	-8091
▁stretches	-8092
▁whispering	-8093
erk	-8094
▁odd	-8095
▁awful	-8096
antastic	-8097
▁whoever	-8098
alth	-8099
▁Joan	-8100
▁Maddy	-8101
▁awoke	-8102
▁weighs	-8103
▁garbage	-8104
▁journeys	-8105
Brrr	-8106
▁traps	-8107
▁dragonfly	-8108
Nina	-8109
▁born	-8110
▁clip	-8111
▁spices	-8112
▁reassured	-8113
Near	-8114
ivia	-8115
▁Nurse	-8116
▁argum	-8117
▁stall	-8118
▁beanstalk	-8119
▁beetles	-8120
▁examining	-8121
▁definitely	-8122
▁automobiles	-8123
ici	-8124
off	-8125
▁playdate	-8126
▁visitors	-8127
,'	-8128
mine	-8129
▁washes	-8130
▁stuffing	-8131
cie	-8132
broken	-8133
▁wiser	-8134
emma	-8135
uper	-8136
▁travelling	-8137
▁customer	-8138
▁hairdress	-8139
orse	-8140
▁bou	-8141
▁bouquet	-8142
▁tumbled	-8143
▁campfire	-8144
▁decoration	-8145
▁bud	-8146
▁Chick	-8147
▁bomb	-8148
ebecca	-8149
▁honesty	-8150
▁Dotty	-8151
▁Hello	-8152
▁Thunder	-8153
▁offering	-8154
▁welcoming	-8155
Only	-8156
▁occas	-8157
▁wealth	-8158
▁troubles	-8159
▁increasing	-8160
vy	-8161
▁loudest	-8162
▁inspired	-8163
Liz	-8164
▁Min	-8165
▁Cook	-8166
▁type	-8167
▁Nutty	-8168
▁Daniel	-8169
▁parted	-8170
▁groan	-8171
irac	-8172
Frank	-8173
▁whales	-8174
▁declared	-8175
▁correctly	-8176
yl	-8177
fus	-8178
▁De	-8179
▁beaks	-8180
athan	-8181
▁Elsie	-8182
▁cleared	-8183
▁Flappy	-8184
▁cowboys	-8185
▁nuzzled	-8186
▁exch	-8187
▁prizes	-8188
Pip	-8189
anie	-8190
▁Bingo	-8191
▁Magic	-8192
▁warmly	-8193
▁Missile	-8194
▁Piggy	-8195
▁obeyed	-8196
▁rewards	-8197
▁customers	-8198
▁comforting	-8199
bble	-8200
ooky	-8201
▁Rel	-8202
Katie	-8203
Should	-8204
shaped	-8205
▁Still	-8206
▁sirens	-8207
▁connect	-8208
match	-8209
▁towns	-8210
▁rely	-8211
elieve	-8212
▁Wolf	-8213
▁bends	-8214
▁trigger	-8215
▁fantastic	-8216
▁insisting	-8217
▁owns	-8218
▁spoiling	-8219
▁hairdresser	-8220
▁pipes	-8221
▁poses	-8222
▁cleans	-8223
▁shares	-8224
▁supporting	-8225
▁surrendered	-8226
Finny	-8227
rench	-8228
▁wrinkled	-8229
▁Kay	-8230
▁moons	-8231
▁beaming	-8232
▁recorder	-8233
unes	-8234
ellow	-8235
▁snowy	-8236
▁chopped	-8237
▁thanking	-8238
▁Tre	-8239
▁active	-8240
▁scurry	-8241
▁experien	-8242
▁enjoyable	-8243
▁coral	-8244
▁Bub	-8245
▁dollar	-8246
▁environ	-8247
Afterwards	-8248
worm	-8249
▁loc	-8250
elope	-8251
▁Jason	-8252
▁streamers	-8253
udged	-8254
▁Becky	-8255
▁examp	-8256
▁Tweety	-8257
▁shooed	-8258
▁shorts	-8259
▁environment	-8260
▁ill	-8261
▁Ag	-8262
▁scent	-8263
▁bruises	-8264
Tree	-8265
inger	-8266
uster	-8267
▁Light	-8268
▁hisses	-8269
▁grat	-8270
▁self	-8271
▁Roger	-8272
▁plugged	-8273
▁steering	-8274
▁warrior	-8275
▁Terry	-8276
▁visits	-8277
▁exercises	-8278
irl	-8279
▁Eric	-8280
▁Pick	-8281
aptain	-8282
▁cuddles	-8283
▁dangers	-8284
screen	-8285
▁signing	-8286
▁squished	-8287
▁unfortunately	-8288
▁Floppy	-8289
▁Freddie	-8290
bee	-8291
▁Rub	-8292
▁pilots	-8293
▁disappoint	-8294
Tony	-8295
munk	-8296
▁Fly	-8297
▁Moppy	-8298
▁applauding	-8299
▁Sal	-8300
▁Sweet	-8301
▁providing	-8302
alf	-8303
▁tickles	-8304
▁gratitude	-8305
Grow	-8306
▁jud	-8307
▁badger	-8308
▁nights	-8309
▁storms	-8310
▁Curious	-8311
▁youn	-8312
▁choosing	-8313
▁convinced	-8314
▁responsib	-8315
▁Any	-8316
▁ting	-8317
▁nearest	-8318
▁activity	-8319
▁youngest	-8320
▁brains	-8321
▁coughed	-8322
▁arranged	-8323
▁rewarding	-8324
good	-8325
Honey	-8326
▁peep	-8327
erpiece	-8328
▁sunscreen	-8329
asers	-8330
▁bond	-8331
▁exploded	-8332
▁Afterwards	-8333
▁Sil	-8334
▁annoying	-8335
▁soapy	-8336
ilities	-8337
sn	-8338
Mira	-8339
meow	-8340
▁Pine	-8341
Sun	-8342
▁Tippy	-8343
▁laces	-8344
▁rails	-8345
▁offic	-8346
▁tapping	-8347
▁appreciated	-8348
Hop	-8349
▁threads	-8350
boards	-8351
▁emerged	-8352
▁weighing	-8353
▁heartbroken	-8354
▁congratulated	-8355
Danger	-8356
▁tin	-8357
▁clerk	-8358
▁crocodiles	-8359
▁scram	-8360
▁attempt	-8361
Ahoy	-8362
water	-8363
▁snug	-8364
▁messed	-8365
▁example	-8366
▁dial	-8367
Splash	-8368
Abigail	-8369
▁tops	-8370
▁hooks	-8371
▁chipmunk	-8372
▁soot	-8373
▁bathed	-8374
▁guarding	-8375
▁manager	-8376
ortunately	-8377
▁Microscope	-8378
By	-8379
▁Baa	-8380
▁Joh	-8381
▁Lina	-8382
▁Tomorrow	-8383
Bo	-8384
▁masterpiece	-8385
etah	-8386
▁erasers	-8387
▁fet	-8388
▁Jumpy	-8389
▁common	-8390
▁finishes	-8391
mbers	-8392
▁digs	-8393
Friends	-8394
▁members	-8395
▁nibbled	-8396
▁trotted	-8397
▁kinder	-8398
▁blond	-8399
▁chews	-8400
▁cheetah	-8401
▁particularly	-8402
ircle	-8403
▁rips	-8404
▁tips	-8405
▁Eliza	-8406
▁beast	-8407
David	-8408
▁Twist	-8409
▁argument	-8410
ative	-8411
▁faith	-8412
▁Helping	-8413
▁William	-8414
▁Cici	-8415
▁Ashley	-8416
▁earned	-8417
▁Joke	-8418
▁observing	-8419
▁forgiveness	-8420
▁curl	-8421
▁fishes	-8422
chievous	-8423
▁cheaper	-8424
▁instantly	-8425
▁experienced	-8426
▁cages	-8427
▁generosity	-8428
▁mischievous	-8429
▁foam	-8430
▁meowing	-8431
▁Charlotte	-8432
ris	-8433
mered	-8434
▁stores	-8435
Baa	-8436
Back	-8437
▁Hopper	-8438
▁grandd	-8439
▁mattered	-8440
▁Gus	-8441
▁limp	-8442
▁teles	-8443
▁Friend	-8444
▁sleeps	-8445
iolet	-8446
▁breaths	-8447
▁More	-8448
ending	-8449
▁gasps	-8450
▁trans	-8451
▁Monkey	-8452
ordinary	-8453
Ros	-8454
▁rin	-8455
ettle	-8456
Got	-8457
▁hatch	-8458
▁rumbling	-8459
abra	-8460
over	-8461
Snowy	-8462
etchup	-8463
▁grassho	-8464
▁accomplished	-8465
▁Mae	-8466
acing	-8467
▁Tammy	-8468
▁strum	-8469
▁thump	-8470
▁smartest	-8471
▁telescope	-8472
▁Ice	-8473
▁mats	-8474
▁moat	-8475
▁jugg	-8476
Outside	-8477
▁whined	-8478
▁farmers	-8479
▁scrambled	-8480
▁Step	-8481
▁drip	-8482
▁angrily	-8483
▁gardens	-8484
▁collapsed	-8485
idey	-8486
▁vegg	-8487
ouraged	-8488
▁forests	-8489
▁discoveries	-8490
▁experiences	-8491
hole	-8492
▁syrup	-8493
▁medals	-8494
▁styles	-8495
▁tor	-8496
ering	-8497
▁Does	-8498
▁conqu	-8499
▁faint	-8500
▁types	-8501
▁otters	-8502
▁meaning	-8503
pit	-8504
acock	-8505
adabra	-8506
▁hardest	-8507
▁snapping	-8508
Sque	-8509
▁Olivia	-8510
▁movements	-8511
▁expression	-8512
▁surv	-8513
▁affect	-8514
▁bubbly	-8515
▁chilly	-8516
Ted	-8517
▁court	-8518
▁vests	-8519
▁passes	-8520
▁unfair	-8521
Ray	-8522
▁scores	-8523
▁toothbrush	-8524
▁extraordinary	-8525
▁Wil	-8526
▁Grand	-8527
▁attitude	-8528
▁vibr	-8529
▁Berry	-8530
▁bluebird	-8531
▁horri	-8532
lls	-8533
▁spears	-8534
mel	-8535
▁Fle	-8536
▁Janey	-8537
▁sooner	-8538
▁behaviour	-8539
▁grasshopper	-8540
att	-8541
▁Seeing	-8542
▁habit	-8543
▁patches	-8544
erts	-8545
▁afar	-8546
▁momma	-8547
▁pokes	-8548
▁Brian	-8549
▁Amanda	-8550
lo	-8551
ieves	-8552
▁scri	-8553
▁Amber	-8554
▁ketchup	-8555
▁thicker	-8556
yd	-8557
▁Day	-8558
▁shrunk	-8559
▁squeezes	-8560
▁slithered	-8561
▁classmates	-8562
▁icky	-8563
▁Super	-8564
▁prickly	-8565
▁glittering	-8566
▁expert	-8567
▁Riri	-8568
▁Sasha	-8569
▁Tyler	-8570
▁kneeling	-8571
▁announced	-8572
▁App	-8573
▁topp	-8574
elling	-8575
▁Cally	-8576
▁Gilly	-8577
▁marking	-8578
▁peacock	-8579
Never	-8580
ctric	-8581
▁Achoo	-8582
▁Cloud	-8583
▁costs	-8584
▁thieves	-8585
▁zigzags	-8586
▁Swim	-8587
▁acts	-8588
▁hood	-8589
People	-8590
▁jumper	-8591
▁skirts	-8592
▁watermel	-8593
▁wolves	-8594
▁cocoon	-8595
▁concer	-8596
▁squeaky	-8597
▁Jean	-8598
▁boards	-8599
▁thumbs	-8600
▁woodcut	-8601
▁Gill	-8602
▁servant	-8603
affle	-8604
idence	-8605
▁Puffy	-8606
▁Tiger	-8607
▁cheating	-8608
bu	-8609
cat	-8610
▁Ac	-8611
Pinky	-8612
▁raking	-8613
▁trading	-8614
Br	-8615
▁Animal	-8616
▁explaining	-8617
rick	-8618
▁Har	-8619
▁Flora	-8620
▁tidied	-8621
Meanwhile	-8622
Both	-8623
▁Pig	-8624
▁Captain	-8625
▁biscuit	-8626
▁luckily	-8627
▁lunchtime	-8628
anced	-8629
▁Mine	-8630
▁Rufus	-8631
▁spilling	-8632
▁Rainbow	-8633
▁desserts	-8634
▁transform	-8635
ror	-8636
Fire	-8637
Lena	-8638
▁Felix	-8639
▁Buster	-8640
amma	-8641
rough	-8642
▁mirac	-8643
▁Auntie	-8644
▁messages	-8645
idy	-8646
▁Lung	-8647
▁Math	-8648
▁chill	-8649
▁beating	-8650
▁windowsill	-8651
▁seeking	-8652
oot	-8653
▁Life	-8654
▁Peep	-8655
▁Gabby	-8656
▁actor	-8657
ni	-8658
its	-8659
sse	-8660
▁Hi	-8661
pril	-8662
▁Rebecca	-8663
war	-8664
acles	-8665
▁Pinch	-8666
▁leans	-8667
▁Startled	-8668
▁dev	-8669
▁fif	-8670
Freeze	-8671
▁cloths	-8672
▁Monster	-8673
▁hissing	-8674
racadabra	-8675
▁flashing	-8676
▁foreshadow	-8677
▁funn	-8678
▁winding	-8679
▁positive	-8680
▁watermelon	-8681
▁discouraged	-8682
pop	-8683
Bluey	-8684
▁Jelly	-8685
▁forts	-8686
▁compete	-8687
▁dripped	-8688
▁woodcutter	-8689
Jamie	-8690
▁teapot	-8691
▁pressing	-8692
▁disagreeing	-8693
Hannah	-8694
▁glimmering	-8695
icking	-8696
▁Butter	-8697
▁trusts	-8698
▁tidying	-8699
▁veggies	-8700
▁kangaroos	-8701
▁Gold	-8702
▁Bert	-8703
▁landing	-8704
▁tempted	-8705
▁dock	-8706
▁overw	-8707
▁Silver	-8708
▁formed	-8709
▁shallow	-8710
▁fade	-8711
▁rack	-8712
▁Tooth	-8713
▁Gracie	-8714
lers	-8715
▁cops	-8716
▁worst	-8717
flowers	-8718
▁electric	-8719
eling	-8720
iving	-8721
creams	-8722
▁sleds	-8723
ai	-8724
Any	-8725
upid	-8726
▁ass	-8727
▁Shark	-8728
▁Andrew	-8729
▁comets	-8730
Mad	-8731
▁Otto	-8732
▁apology	-8733
▁sav	-8734
▁papa	-8735
▁officers	-8736
▁situations	-8737
▁conversation	-8738
▁Off	-8739
▁Fay	-8740
Steve	-8741
storm	-8742
▁ding	-8743
▁Tessa	-8744
Owl	-8745
▁zips	-8746
▁Hurry	-8747
▁Peggy	-8748
▁miller	-8749
▁pizzas	-8750
▁overwhel	-8751
▁scurrying	-8752
▁structures	-8753
Frog	-8754
▁suns	-8755
▁foggy	-8756
Adam	-8757
▁granddaughter	-8758
Bug	-8759
▁webs	-8760
Bounce	-8761
uickly	-8762
▁Barry	-8763
▁Yummy	-8764
▁deserved	-8765
▁Boom	-8766
▁Nora	-8767
▁cubs	-8768
▁Mixie	-8769
▁Spidey	-8770
▁opportunity	-8771
▁Birds	-8772
▁Tell	-8773
▁rhino	-8774
▁snorted	-8775
▁Penelope	-8776
▁quacking	-8777
ended	-8778
▁Boat	-8779
ifully	-8780
Nothing	-8781
▁heaven	-8782
▁differences	-8783
▁unlo	-8784
▁levers	-8785
▁inchworm	-8786
andra	-8787
▁inter	-8788
▁approach	-8789
ssess	-8790
▁possess	-8791
▁seagulls	-8792
of	-8793
▁pose	-8794
▁Snake	-8795
welcome	-8796
▁cooperate	-8797
sers	-8798
ragon	-8799
▁Smoke	-8800
▁disappointment	-8801
ocular	-8802
▁sneaks	-8803
▁speaks	-8804
Rain	-8805
snap	-8806
▁Jenn	-8807
▁artwork	-8808
▁binocular	-8809
▁scowl	-8810
▁Pretty	-8811
▁surfed	-8812
▁answering	-8813
Suzy	-8814
▁shortcut	-8815
▁dep	-8816
▁Helen	-8817
▁robin	-8818
▁Inky	-8819
▁arrest	-8820
▁sipped	-8821
ssy	-8822
▁Cars	-8823
▁reun	-8824
▁amused	-8825
▁ribbit	-8826
▁unwrapped	-8827
▁repeats	-8828
▁applause	-8829
▁Pet	-8830
▁Right	-8831
▁keyhole	-8832
▁checkout	-8833
▁pepperoni	-8834
Deal	-8835
ugar	-8836
Climb	-8837
▁Squeak	-8838
▁puppets	-8839
▁visitor	-8840
▁paddling	-8841
▁striking	-8842
Eat	-8843
▁unz	-8844
▁Circle	-8845
▁croaked	-8846
▁attacked	-8847
orsie	-8848
Thomas	-8849
▁Yellow	-8850
▁spooky	-8851
Fifi	-8852
▁beautifully	-8853
▁Mart	-8854
cidents	-8855
▁groaned	-8856
▁checking	-8857
▁consider	-8858
▁swimsuits	-8859
gar	-8860
▁Bobbie	-8861
Mo	-8862
jest	-8863
▁Slinky	-8864
▁waters	-8865
▁Matilda	-8866
uses	-8867
▁nets	-8868
▁Peace	-8869
▁exams	-8870
▁groom	-8871
▁invent	-8872
otion	-8873
▁drying	-8874
agine	-8875
▁shrugs	-8876
▁Mus	-8877
▁lump	-8878
▁honks	-8879
▁shyly	-8880
▁shoots	-8881
▁cheerfully	-8882
lest	-8883
▁shh	-8884
esses	-8885
▁chin	-8886
▁heels	-8887
▁sobbing	-8888
Mon	-8889
anish	-8890
▁hangs	-8891
▁healthier	-8892
▁whimpered	-8893
ili	-8894
icious	-8895
▁caterpillars	-8896
yle	-8897
izzes	-8898
▁Find	-8899
▁Ratty	-8900
▁squinted	-8901
▁magnifying	-8902
▁March	-8903
eat	-8904
▁Tip	-8905
▁fascinating	-8906
▁fries	-8907
▁sculp	-8908
▁sculpture	-8909
▁frustration	-8910
ouched	-8911
▁blamed	-8912
▁shimmering	-8913
▁poss	-8914
edic	-8915
▁suck	-8916
▁pleas	-8917
▁numbered	-8918
▁Waffle	-8919
▁nibble	-8920
amil	-8921
othy	-8922
▁baa	-8923
ellie	-8924
▁Chip	-8925
ibbles	-8926
Sharing	-8927
▁flowing	-8928
hings	-8929
▁raked	-8930
▁Woolly	-8931
▁grumbled	-8932
Gr	-8933
▁Li	-8934
that	-8935
Chloe	-8936
▁Bonnie	-8937
▁Melissa	-8938
▁builder	-8939
racted	-8940
▁facing	-8941
▁petting	-8942
▁swaying	-8943
▁guards	-8944
▁details	-8945
▁sprinkle	-8946
▁mysteries	-8947
▁enemy	-8948
▁flock	-8949
▁snort	-8950
▁Outside	-8951
▁tablet	-8952
▁goodies	-8953
▁textures	-8954
sey	-8955
▁Ed	-8956
▁wig	-8957
▁popping	-8958
▁crops	-8959
▁marve	-8960
▁stacks	-8961
▁countries	-8962
▁wildflowers	-8963
how	-8964
▁fans	-8965
▁knobs	-8966
▁Immediately	-8967
ets	-8968
▁bushy	-8969
▁local	-8970
▁Bubu	-8971
▁Glow	-8972
▁stew	-8973
▁Match	-8974
▁bowing	-8975
▁peeped	-8976
▁angrier	-8977
▁drowned	-8978
▁hunting	-8979
▁binoculars	-8980
▁Tra	-8981
▁Ravi	-8982
▁maps	-8983
Rabbit	-8984
▁Johnson	-8985
▁Sir	-8986
Lizzy	-8987
▁niece	-8988
▁quizzes	-8989
▁moonlight	-8990
▁Deal	-8991
▁outfits	-8992
OO	-8993
▁Beef	-8994
▁weaker	-8995
▁whoosh	-8996
▁wrench	-8997
▁crowded	-8998
▁mindful	-8999
cycles	-9000
▁endings	-9001
oll	-9002
▁flashes	-9003
▁hesitation	-9004
▁Oxy	-9005
▁boil	-9006
▁fond	-9007
▁Candy	-9008
▁carts	-9009
amiliar	-9010
▁unless	-9011
▁ability	-9012
▁property	-9013
▁Bun	-9014
getic	-9015
▁Accidents	-9016
stand	-9017
▁knit	-9018
▁folds	-9019
▁haven	-9020
▁glared	-9021
▁spaces	-9022
▁unfamiliar	-9023
▁imaginations	-9024
saw	-9025
ths	-9026
Mother	-9027
▁dirtier	-9028
▁responsibility	-9029
bank	-9030
▁desks	-9031
▁pouch	-9032
▁microw	-9033
ibly	-9034
▁Ring	-9035
Pepper	-9036
▁Oxygen	-9037
▁microwave	-9038
rnie	-9039
▁Too	-9040
▁Mila	-9041
▁aston	-9042
▁Steven	-9043
▁member	-9044
▁swapped	-9045
Bless	-9046
▁cracker	-9047
lt	-9048
▁Fix	-9049
▁date	-9050
▁rebu	-9051
▁whine	-9052
▁doorstep	-9053
▁softened	-9054
▁disappearing	-9055
free	-9056
▁Mole	-9057
▁quacks	-9058
scar	-9059
▁Cut	-9060
▁writer	-9061
▁listener	-9062
Want	-9063
▁Past	-9064
Rachel	-9065
▁White	-9066
▁natur	-9067
▁blushed	-9068
▁Spicy	-9069
▁Flopsy	-9070
▁noticing	-9071
upt	-9072
Tuna	-9073
peat	-9074
▁priv	-9075
poison	-9076
▁palms	-9077
entr	-9078
▁Res	-9079
Julie	-9080
venir	-9081
▁Coal	-9082
▁Rosa	-9083
▁laws	-9084
repeat	-9085
▁disaster	-9086
reg	-9087
str	-9088
▁Faye	-9089
▁Carla	-9090
▁Paula	-9091
▁souvenir	-9092
endant	-9093
▁phones	-9094
▁confidence	-9095
Squ	-9096
ala	-9097
ingly	-9098
▁stirs	-9099
▁timid	-9100
▁Animals	-9101
▁overwhelmed	-9102
▁Riley	-9103
▁mayor	-9104
guess	-9105
▁flick	-9106
▁tugging	-9107
▁Kn	-9108
▁owls	-9109
asmine	-9110
Bubbles	-9111
▁injured	-9112
▁mailing	-9113
▁satisfa	-9114
▁untangle	-9115
Whose	-9116
▁Books	-9117
▁Triangle	-9118
▁concentr	-9119
▁satisfaction	-9120
▁Run	-9121
ching	-9122
▁Jody	-9123
mers	-9124
▁Eat	-9125
▁lim	-9126
▁Wonder	-9127
this	-9128
▁prank	-9129
els	-9130
▁Clean	-9131
▁hooves	-9132
well	-9133
▁Pot	-9134
▁Close	-9135
▁fixer	-9136
▁Annabelle	-9137
Being	-9138
Sadly	-9139
▁clut	-9140
▁snar	-9141
▁Excitedly	-9142
lish	-9143
bling	-9144
icate	-9145
▁skies	-9146
▁Horsie	-9147
▁Trucky	-9148
▁instrument	-9149
Fly	-9150
Joy	-9151
Beth	-9152
Jess	-9153
▁capt	-9154
Cra	-9155
▁Jose	-9156
Wiggly	-9157
adually	-9158
▁Sleepy	-9159
▁disagre	-9160
iky	-9161
▁Icy	-9162
▁creak	-9163
▁pecks	-9164
▁stains	-9165
▁wriggled	-9166
▁Sing	-9167
▁rinse	-9168
▁Crabby	-9169
Whenever	-9170
▁Looking	-9171
▁Lu	-9172
▁Bro	-9173
▁Heli	-9174
▁April	-9175
▁shave	-9176
▁bumping	-9177
ulf	-9178
▁ruff	-9179
▁swirl	-9180
▁bending	-9181
Close	-9182
▁Liam	-9183
cessary	-9184
▁chatted	-9185
▁sandpit	-9186
▁exploration	-9187
Make	-9188
▁rods	-9189
▁lever	-9190
▁Scissors	-9191
▁facts	-9192
Playing	-9193
▁attaching	-9194
▁Per	-9195
▁fooled	-9196
▁glows	-9197
▁clearly	-9198
▁concerned	-9199
▁lava	-9200
▁salon	-9201
▁burger	-9202
▁compan	-9203
▁certainly	-9204
▁reversing	-9205
▁circ	-9206
▁smelt	-9207
▁fetched	-9208
▁motorcycles	-9209
Abby	-9210
▁Cammy	-9211
▁troll	-9212
▁tunes	-9213
▁oldest	-9214
▁sometime	-9215
▁fireflies	-9216
lor	-9217
▁Flap	-9218
▁Pink	-9219
▁prod	-9220
▁blonde	-9221
▁kissing	-9222
▁challenges	-9223
udy	-9224
Rosie	-9225
▁warmed	-9226
▁Of	-9227
Ring	-9228
▁Lots	-9229
▁unlocking	-9230
▁differently	-9231
▁Ma	-9232
urple	-9233
▁rubb	-9234
▁bound	-9235
▁cutter	-9236
▁detect	-9237
▁cupcake	-9238
▁conquered	-9239
▁riverbank	-9240
Abracadabra	-9241
erg	-9242
▁alley	-9243
▁hates	-9244
▁natural	-9245
Che	-9246
sorry	-9247
▁Open	-9248
▁Climb	-9249
▁sends	-9250
▁swirls	-9251
▁realise	-9252
sa	-9253
▁Greeny	-9254
▁banging	-9255
▁munched	-9256
▁Reliable	-9257
▁wiggling	-9258
▁sensation	-9259
Isn	-9260
▁fist	-9261
▁clips	-9262
▁hippos	-9263
▁robe	-9264
▁brakes	-9265
▁halves	-9266
▁stings	-9267
▁swayed	-9268
▁miracle	-9269
▁toppings	-9270
▁Ba	-9271
▁survive	-9272
▁ostriches	-9273
ula	-9274
▁Rh	-9275
▁embra	-9276
▁torto	-9277
keepers	-9278
▁crushed	-9279
▁bubbling	-9280
▁otherwise	-9281
bert	-9282
▁tents	-9283
Anne	-9284
▁Working	-9285
▁repairing	-9286
ani	-9287
▁Alf	-9288
▁Flicker	-9289
▁lizards	-9290
▁rubbish	-9291
▁stretchy	-9292
▁Lightning	-9293
▁Grump	-9294
▁vinegar	-9295
▁passenger	-9296
aste	-9297
▁Which	-9298
▁pounced	-9299
▁vibrant	-9300
▁tortoise	-9301
Dino	-9302
Fish	-9303
▁Old	-9304
Since	-9305
▁mooed	-9306
▁scene	-9307
▁glided	-9308
▁desperately	-9309
gr	-9310
▁snip	-9311
▁calmer	-9312
▁copied	-9313
▁majest	-9314
▁Sundays	-9315
▁intently	-9316
net	-9317
rap	-9318
▁Liza	-9319
▁jing	-9320
▁poop	-9321
▁rags	-9322
Doctor	-9323
Slowly	-9324
▁judges	-9325
▁joyfully	-9326
▁bas	-9327
Momma	-9328
▁glob	-9329
▁woken	-9330
smelling	-9331
▁coolest	-9332
▁lectures	-9333
lyn	-9334
▁Care	-9335
▁Ever	-9336
isible	-9337
▁cousins	-9338
▁astonished	-9339
mo	-9340
Ava	-9341
▁hips	-9342
▁capes	-9343
Eww	-9344
uno	-9345
▁gooey	-9346
▁arrives	-9347
▁guesses	-9348
▁speaker	-9349
▁reunited	-9350
▁invisible	-9351
▁successfully	-9352
why	-9353
Each	-9354
Wally	-9355
▁bats	-9356
▁twel	-9357
urity	-9358
▁chatting	-9359
▁goodness	-9360
▁computers	-9361
mie	-9362
▁''	-9363
nded	-9364
▁Over	-9365
▁Janet	-9366
▁Sugar	-9367
▁stacking	-9368
▁snowflake	-9369
▁sus	-9370
Robby	-9371
istory	-9372
▁parks	-9373
▁racer	-9374
▁pounds	-9375
▁companion	-9376
▁desperate	-9377
▁reappeared	-9378
bed	-9379
Papa	-9380
▁level	-9381
Mittens	-9382
▁commun	-9383
▁luckiest	-9384
▁ank	-9385
▁dou	-9386
▁dumb	-9387
▁gall	-9388
▁tale	-9389
▁sells	-9390
▁twelve	-9391
▁crickets	-9392
▁Back	-9393
iggles	-9394
▁gates	-9395
▁winds	-9396
▁Orange	-9397
▁stomachs	-9398
▁disagreement	-9399
hile	-9400
▁Whee	-9401
▁Black	-9402
▁hoses	-9403
▁awhile	-9404
▁disobeyed	-9405
sie	-9406
ites	-9407
▁crisp	-9408
▁pearls	-9409
▁popsic	-9410
▁loyalty	-9411
Many	-9412
▁Martin	-9413
▁CD	-9414
Gina	-9415
▁soda	-9416
▁rider	-9417
▁tongues	-9418
Im	-9419
Ooh	-9420
usion	-9421
Claire	-9422
▁Raven	-9423
pan	-9424
rent	-9425
▁Law	-9426
▁abo	-9427
▁Mona	-9428
▁surely	-9429
des	-9430
▁Iron	-9431
▁bund	-9432
▁Surpr	-9433
colored	-9434
▁Joanna	-9435
▁occasion	-9436
dog	-9437
izza	-9438
▁stun	-9439
▁chicks	-9440
▁guitars	-9441
rum	-9442
More	-9443
chief	-9444
▁Cher	-9445
▁aboard	-9446
▁seashe	-9447
▁rebuild	-9448
▁alligators	-9449
▁separating	-9450
▁intelligence	-9451
Found	-9452
▁Winky	-9453
▁creep	-9454
▁croak	-9455
▁Jennie	-9456
aids	-9457
Catch	-9458
▁Coby	-9459
▁Kyle	-9460
▁caution	-9461
▁learner	-9462
Je	-9463
solut	-9464
▁Leah	-9465
▁rins	-9466
▁spiky	-9467
▁Settle	-9468
▁whines	-9469
▁revealing	-9470
Sc	-9471
▁Roar	-9472
▁Carly	-9473
▁Tears	-9474
▁escap	-9475
working	-9476
▁Summer	-9477
▁tickling	-9478
▁cuc	-9479
▁Brad	-9480
▁Duke	-9481
▁globe	-9482
▁crouched	-9483
▁underwater	-9484
oma	-9485
everse	-9486
▁blooms	-9487
!'.	-9488
ifer	-9489
stop	-9490
udge	-9491
▁Socky	-9492
urricane	-9493
▁hatched	-9494
▁leaking	-9495
▁strokes	-9496
▁guardian	-9497
fived	-9498
▁prog	-9499
▁tant	-9500
arning	-9501
▁doves	-9502
▁Things	-9503
▁routine	-9504
▁appearance	-9505
▁zookeepers	-9506
▁persistence	-9507
Milo	-9508
▁taps	-9509
▁Oscar	-9510
▁admit	-9511
▁blame	-9512
▁quilt	-9513
▁painful	-9514
Something	-9515
▁lighting	-9516
▁squashes	-9517
▁Fortunately	-9518
Sleep	-9519
▁Puff	-9520
▁Spin	-9521
▁ripp	-9522
▁deeply	-9523
▁tempting	-9524
▁shattered	-9525
Ahh	-9526
Toys	-9527
ggles	-9528
▁peeks	-9529
▁centre	-9530
▁throne	-9531
▁security	-9532
▁squirted	-9533
▁electricity	-9534
Snap	-9535
emon	-9536
▁mold	-9537
▁cooks	-9538
▁burgers	-9539
▁allowing	-9540
▁realizing	-9541
cker	-9542
orth	-9543
▁lar	-9544
ushes	-9545
Chicky	-9546
▁chopping	-9547
▁exchange	-9548
▁Race	-9549
▁sweetly	-9550
con	-9551
oss	-9552
Josh	-9553
Share	-9554
vering	-9555
▁rinsed	-9556
▁sweeter	-9557
Hope	-9558
isapp	-9559
▁Inch	-9560
▁glittered	-9561
▁Park	-9562
▁Giant	-9563
▁melts	-9564
▁melody	-9565
▁furious	-9566
▁goggles	-9567
▁builders	-9568
▁defeated	-9569
▁energetic	-9570
asy	-9571
▁Cats	-9572
▁Comet	-9573
▁Sharp	-9574
▁waded	-9575
▁chooses	-9576
▁tantrum	-9577
▁sniffled	-9578
▁Otherwise	-9579
▁competing	-9580
▁container	-9581
bang	-9582
▁Jet	-9583
eremy	-9584
▁Through	-9585
▁Meanwhile	-9586
arted	-9587
▁Rara	-9588
▁hudd	-9589
▁lull	-9590
▁Rusty	-9591
▁Dragon	-9592
▁larger	-9593
▁undone	-9594
▁attempts	-9595
▁seriously	-9596
▁protection	-9597
Sw	-9598
Shoo	-9599
▁Hor	-9600
▁Smo	-9601
▁Whale	-9602
▁cluck	-9603
▁cooed	-9604
▁Pinchy	-9605
▁tossing	-9606
▁helicopters	-9607
▁buckles	-9608
▁Ken	-9609
▁dedic	-9610
▁hummed	-9611
solutely	-9612
▁courageous	-9613
?!	-9614
▁Din	-9615
▁god	-9616
▁aloud	-9617
▁muster	-9618
▁racers	-9619
▁Sunshine	-9620
▁deserves	-9621
▁patients	-9622
aps	-9623
▁Hops	-9624
▁Squee	-9625
▁meets	-9626
▁tours	-9627
▁marvel	-9628
▁Land	-9629
▁Belle	-9630
▁Reddy	-9631
▁Crusty	-9632
▁Patrick	-9633
▁wrapper	-9634
▁booth	-9635
▁nicest	-9636
▁improving	-9637
!'"	-9638
▁Hank	-9639
▁Starry	-9640
▁whiskers	-9641
▁Ms	-9642
Sweet	-9643
▁bold	-9644
▁meadows	-9645
Surrender	-9646
▁imaginary	-9647
"!	-9648
▁Nate	-9649
▁obst	-9650
▁Pebby	-9651
▁Carrie	-9652
▁blades	-9653
ware	-9654
▁Kind	-9655
ically	-9656
▁cruel	-9657
▁pairs	-9658
▁risky	-9659
Squeaky	-9660
▁Stanley	-9661
▁strolled	-9662
▁opt	-9663
▁Brain	-9664
▁peels	-9665
▁Sandra	-9666
ssssssss	-9667
▁Alan	-9668
▁winks	-9669
▁incredibly	-9670
OP	-9671
Say	-9672
Jacob	-9673
Three	-9674
▁Again	-9675
▁Bruce	-9676
▁tanks	-9677
▁Winter	-9678
▁nearer	-9679
▁squawk	-9680
raw	-9681
she	-9682
▁tot	-9683
▁army	-9684
▁Ernie	-9685
▁Robin	-9686
▁messier	-9687
▁pedaling	-9688
▁transformed	-9689
los	-9690
meal	-9691
▁fail	-9692
▁inju	-9693
▁stur	-9694
eading	-9695
▁Mamma	-9696
▁lamps	-9697
Ice	-9698
can	-9699
kind	-9700
illas	-9701
▁peak	-9702
Froggy	-9703
shrink	-9704
▁horrible	-9705
▁munching	-9706
Aw	-9707
guard	-9708
▁Bell	-9709
▁Pass	-9710
▁fuss	-9711
▁rect	-9712
▁treas	-9713
▁Swimmy	-9714
▁narrow	-9715
▁unwrap	-9716
▁Patient	-9717
▁holidays	-9718
▁overhead	-9719
▁Gu	-9720
▁dryer	-9721
▁During	-9722
▁puffed	-9723
▁boiling	-9724
▁panicking	-9725
▁Fa	-9726
oned	-9727
▁host	-9728
▁dives	-9729
▁possib	-9730
cloth	-9731
ighty	-9732
▁Breezy	-9733
▁offers	-9734
▁Jasmine	-9735
▁softest	-9736
▁confusion	-9737
▁mustn	-9738
▁allerg	-9739
▁marveled	-9740
▁uncovered	-9741
aly	-9742
▁Dogs	-9743
uction	-9744
Twinkle	-9745
▁cooled	-9746
▁elders	-9747
ka	-9748
▁Bar	-9749
▁roo	-9750
▁dips	-9751
▁scre	-9752
iciest	-9753
▁current	-9754
▁mustered	-9755
▁ankle	-9756
▁chains	-9757
▁rotted	-9758
▁cherish	-9759
▁glanced	-9760
▁heights	-9761
▁coughing	-9762
▁treasured	-9763
▁gratefully	-9764
idi	-9765
▁Johny	-9766
▁compr	-9767
parable	-9768
▁shaky	-9769
▁heavily	-9770
▁sinking	-9771
▁cupboards	-9772
rice	-9773
losure	-9774
▁spare	-9775
▁gallop	-9776
▁sleigh	-9777
▁Crocodile	-9778
▁enclosure	-9779
▁inseparable	-9780
▁Clay	-9781
▁Libby	-9782
▁Spinny	-9783
▁Square	-9784
Matt	-9785
Move	-9786
▁mac	-9787
oured	-9788
▁canv	-9789
▁lush	-9790
ippers	-9791
▁clubs	-9792
▁dashed	-9793
▁riddle	-9794
▁section	-9795
▁necessary	-9796
afe	-9797
▁hob	-9798
iring	-9799
people	-9800
▁Dilly	-9801
stantly	-9802
▁Purple	-9803
▁oatmeal	-9804
Enjoy	-9805
▁Didi	-9806
▁conv	-9807
▁unst	-9808
iraffe	-9809
▁sax	-9810
Rocky	-9811
▁Lucas	-9812
▁devast	-9813
▁glittery	-9814
▁ordering	-9815
Dare	-9816
▁Pee	-9817
▁plat	-9818
▁Number	-9819
▁praise	-9820
▁allergic	-9821
▁hundreds	-9822
▁raincoats	-9823
▁Friendship	-9824
Care	-9825
ggie	-9826
antern	-9827
▁rowing	-9828
▁scenery	-9829
▁suggests	-9830
▁completing	-9831
▁Marley	-9832
▁zippers	-9833
'?"	-9834
▁Tidy	-9835
▁mushy	-9836
▁floppy	-9837
▁nations	-9838
▁convince	-9839
▁character	-9840
▁condition	-9841
▁Ha	-9842
▁Mop	-9843
atest	-9844
▁musicians	-9845
▁practised	-9846
▁recommendation	-9847
otch	-9848
▁Whe	-9849
isbee	-9850
Promise	-9851
▁seated	-9852
▁chatter	-9853
Sky	-9854
▁Avery	-9855
▁skips	-9856
shop	-9857
alled	-9858
▁slot	-9859
ildren	-9860
▁drill	-9861
▁Potato	-9862
▁canvas	-9863
▁huddled	-9864
hand	-9865
▁Oak	-9866
aisie	-9867
▁Could	-9868
▁lullaby	-9869
▁hovering	-9870
▁soothing	-9871
▁borrowing	-9872
▁devastated	-9873
▁experiment	-9874
clock	-9875
▁remo	-9876
▁Crane	-9877
▁Josie	-9878
▁Stand	-9879
▁enjoys	-9880
▁glisten	-9881
Everything	-9882
Karen	-9883
epeat	-9884
▁reck	-9885
▁Brush	-9886
▁Fluff	-9887
▁Skeleton	-9888
▁pleasant	-9889
ift	-9890
Boom	-9891
mate	-9892
Cindy	-9893
aming	-9894
▁Cell	-9895
▁fulf	-9896
▁hoot	-9897
▁Colin	-9898
▁rocky	-9899
▁Feeling	-9900
▁Respect	-9901
▁sparrow	-9902
▁Yum	-9903
apple	-9904
▁Allie	-9905
▁chili	-9906
▁Carrot	-9907
▁values	-9908
▁showers	-9909
▁Jonathan	-9910
▁airplanes	-9911
▁temptation	-9912
▁susp	-9913
▁royal	-9914
▁Ginger	-9915
▁chalks	-9916
▁conduct	-9917
▁Hurricane	-9918
▁compromise	-9919
robes	-9920
▁anten	-9921
▁hairs	-9922
immered	-9923
▁folders	-9924
▁distracted	-9925
alue	-9926
aling	-9927
▁Club	-9928
▁Panda	-9929
▁unfold	-9930
▁reckless	-9931
ico	-9932
▁actors	-9933
▁recess	-9934
▁gorillas	-9935
▁headache	-9936
▁platform	-9937
▁mustaches	-9938
▁absolutely	-9939
▁compliment	-9940
▁Alarm	-9941
▁piled	-9942
▁considerate	-9943
▁townspeople	-9944
wen	-9945
aily	-9946
like	-9947
▁Fun	-9948
▁cords	-9949
▁smoking	-9950
acey	-9951
▁combs	-9952
▁lasers	-9953
▁charged	-9954
HE	-9955
▁Par	-9956
▁aroma	-9957
▁Eating	-9958
▁sturdy	-9959
▁shields	-9960
Sm	-9961
rings	-9962
Jessie	-9963
scotch	-9964
▁pantry	-9965
ders	-9966
▁wanna	-9967
▁horror	-9968
▁pea	-9969
▁wax	-9970
▁Gert	-9971
▁Leaf	-9972
▁Gemma	-9973
▁ashes	-9974
▁beeping	-9975
▁conductor	-9976
▁disappears	-9977
Ant	-9978
iana	-9979
▁buys	-9980
▁petal	-9981
▁fences	-9982
▁spades	-9983
▁ladybugs	-9984
▁silently	-9985
▁communicate	-9986
▁lun	-9987
▁Wake	-9988
▁aback	-9989
▁wobbles	-9990
▁Jam	-9991
▁yuck	-9992
▁magnific	-9993
Ne	-9994
▁Ami	-9995
▁Bea	-9996
▁len	-9997
▁silk	-9998
▁hollow	-9999
▁hamster	-10000
▁warmest	-10001
▁pail	-10002
▁Carol	-10003
▁caves	-10004
▁loads	-10005
▁motions	-10006
▁movement	-10007
▁lifeguard	-10008
▁sly	-10009
▁whir	-10010
▁Bruno	-10011
▁Horsy	-10012
▁Nelly	-10013
▁snoring	-10014
▁Broccoli	-10015
▁agreeing	-10016
▁embarrassing	-10017
Hoor	-10018
▁Soar	-10019
▁clim	-10020
Hooray	-10021
ateful	-10022
▁Fizzy	-10023
▁Spoon	-10024
▁blade	-10025
▁earrings	-10026
▁Sis	-10027
▁Bark	-10028
▁aisles	-10029
▁cables	-10030
▁scowled	-10031
mark	-10032
oomie	-10033
▁Cake	-10034
▁hare	-10035
▁slight	-10036
▁Graceful	-10037
▁Jennifer	-10038
▁alongside	-10039
▁possibilities	-10040
▁lil	-10041
Pippa	-10042
▁Joseph	-10043
▁scratchy	-10044
▁Roxy	-10045
▁pads	-10046
barrow	-10047
▁antlers	-10048
▁dedication	-10049
▁wheelbarrow	-10050
ooh	-10051
rem	-10052
laus	-10053
▁Rad	-10054
▁Last	-10055
▁Soap	-10056
▁huff	-10057
▁dumped	-10058
▁payoff	-10059
▁lookout	-10060
▁Tuesdays	-10061
▁confidently	-10062
▁plank	-10063
▁roast	-10064
▁woodpe	-10065
Mix	-10066
ibo	-10067
▁Fork	-10068
gn	-10069
▁Af	-10070
reya	-10071
▁keen	-10072
▁handles	-10073
▁hurtful	-10074
▁workshop	-10075
▁cherished	-10076
NG	-10077
okay	-10078
onfused	-10079
▁Del	-10080
▁Doug	-10081
▁flyer	-10082
▁Reading	-10083
▁collars	-10084
▁harmony	-10085
umed	-10086
Catty	-10087
▁code	-10088
▁defeat	-10089
▁unkind	-10090
▁harvest	-10091
▁greatest	-10092
▁squawked	-10093
▁mesmerised	-10094
▁magnificent	-10095
ics	-10096
conut	-10097
▁Bebe	-10098
▁Tick	-10099
▁coconut	-10100
▁pistols	-10101
▁process	-10102
Julia	-10103
Wisdom	-10104
▁Music	-10105
▁droop	-10106
▁crosses	-10107
Turn	-10108
▁gul	-10109
horse	-10110
▁Turn	-10111
▁School	-10112
▁gulped	-10113
▁Wr	-10114
stal	-10115
Hippy	-10116
▁Char	-10117
▁Claus	-10118
▁Robot	-10119
▁mixes	-10120
goodbye	-10121
▁Magnet	-10122
▁carton	-10123
▁raises	-10124
▁signal	-10125
▁funniest	-10126
▁saxophone	-10127
▁inform	-10128
▁pollen	-10129
▁capture	-10130
▁whether	-10131
▁cuddling	-10132
▁deciding	-10133
▁progress	-10134
Lia	-10135
cra	-10136
Chew	-10137
▁Ned	-10138
▁begs	-10139
▁hoof	-10140
▁guided	-10141
▁tentacles	-10142
Free	-10143
Show	-10144
inct	-10145
▁Apple	-10146
▁Cherry	-10147
▁whipped	-10148
▁magically	-10149
Bop	-10150
▁yawns	-10151
▁Coffee	-10152
▁stinky	-10153
▁glistening	-10154
Jon	-10155
▁Op	-10156
Duck	-10157
▁Oink	-10158
▁Clare	-10159
▁grump	-10160
▁Joanne	-10161
ki	-10162
imbo	-10163
lings	-10164
▁Randy	-10165
▁gruff	-10166
▁sleeve	-10167
▁climber	-10168
▁parrots	-10169
▁woodpecker	-10170
▁clothesline	-10171
Poor	-10172
▁dizz	-10173
▁hint	-10174
▁fluff	-10175
▁Jeremy	-10176
▁lilies	-10177
▁halfway	-10178
▁splitting	-10179
▁Thankfully	-10180
▁Mac	-10181
▁Ouch	-10182
▁Spider	-10183
▁sleepover	-10184
▁respecting	-10185
▁Jodie	-10186
▁slurp	-10187
▁crafts	-10188
▁Cookies	-10189
▁steered	-10190
ongratulations	-10191
ami	-10192
rays	-10193
thur	-10194
Right	-10195
owing	-10196
▁Comp	-10197
▁Gret	-10198
▁Kenny	-10199
▁Nature	-10200
▁depths	-10201
▁nudged	-10202
▁widely	-10203
▁dustpan	-10204
▁continuing	-10205
Win	-10206
Whoa	-10207
▁Jes	-10208
▁Hook	-10209
▁amongst	-10210
surrender	-10211
▁tastiest	-10212
▁achievement	-10213
Sk	-10214
▁jigg	-10215
rystal	-10216
▁runny	-10217
▁shots	-10218
▁motors	-10219
▁calf	-10220
▁bands	-10221
▁lonel	-10222
▁circled	-10223
King	-10224
▁Mail	-10225
▁farms	-10226
▁stalk	-10227
▁bleeds	-10228
▁gladly	-10229
▁trailer	-10230
Star	-10231
irty	-10232
▁mur	-10233
shirt	-10234
▁soul	-10235
▁Cream	-10236
▁bendy	-10237
▁theat	-10238
Anytime	-10239
▁hideout	-10240
▁bathrobes	-10241
▁dodging	-10242
▁science	-10243
▁venture	-10244
▁frightening	-10245
▁Toy	-10246
▁plo	-10247
Kayla	-10248
▁Choo	-10249
colate	-10250
▁warns	-10251
Te	-10252
'!"	-10253
ndy	-10254
book	-10255
kest	-10256
oors	-10257
▁une	-10258
▁skate	-10259
▁floaty	-10260
▁trunks	-10261
▁indoors	-10262
▁ticking	-10263
Sit	-10264
▁Pa	-10265
cell	-10266
▁Pir	-10267
▁JoJo	-10268
▁Marg	-10269
▁Tuck	-10270
▁Juice	-10271
▁blush	-10272
▁Feather	-10273
▁Promise	-10274
▁frisbee	-10275
▁pancake	-10276
▁snarled	-10277
▁compared	-10278
▁entering	-10279
Sir	-10280
boos	-10281
▁Was	-10282
▁Bibo	-10283
▁Greg	-10284
▁Sisi	-10285
▁till	-10286
▁Afric	-10287
▁daily	-10288
▁strap	-10289
▁giants	-10290
▁avoided	-10291
▁spirits	-10292
▁introducing	-10293
▁Stri	-10294
▁leng	-10295
▁Cocoa	-10296
▁Silly	-10297
▁explode	-10298
▁solutions	-10299
▁Di	-10300
▁unzip	-10301
▁dining	-10302
▁Eve	-10303
Susan	-10304
▁pace	-10305
▁tone	-10306
▁scree	-10307
▁setup	-10308
uttered	-10309
▁limped	-10310
▁hammers	-10311
▁purring	-10312
▁wiggles	-10313
▁restoring	-10314
▁supplying	-10315
▁Thermometer	-10316
tled	-10317
uise	-10318
▁Pep	-10319
Excited	-10320
▁proved	-10321
▁contained	-10322
▁preschool	-10323
▁suspicious	-10324
RA	-10325
Cow	-10326
Olly	-10327
aylor	-10328
▁Dancing	-10329
▁Matthew	-10330
▁islands	-10331
▁theatre	-10332
esy	-10333
▁purch	-10334
▁limits	-10335
▁wetter	-10336
▁wicked	-10337
Squirrel	-10338
Maya	-10339
nnie	-10340
▁inn	-10341
Butter	-10342
▁Shake	-10343
▁access	-10344
▁owning	-10345
▁roller	-10346
▁hopscotch	-10347
Gogo	-10348
aret	-10349
▁Teach	-10350
▁Trees	-10351
Tomorrow	-10352
▁flippers	-10353
▁leopards	-10354
gra	-10355
itam	-10356
enses	-10357
▁Button	-10358
▁lasted	-10359
▁thunderstorm	-10360
osp	-10361
▁La	-10362
Four	-10363
▁Pear	-10364
▁jaws	-10365
▁nanny	-10366
▁slime	-10367
▁auntie	-10368
ustrated	-10369
▁Sitting	-10370
▁Stealing	-10371
Tell	-10372
▁innoc	-10373
▁gradually	-10374
▁obediently	-10375
Foxy	-10376
just	-10377
▁Roy	-10378
Mabel	-10379
▁Mild	-10380
sitter	-10381
▁poles	-10382
▁bundle	-10383
▁rustle	-10384
Lou	-10385
che	-10386
ydia	-10387
aries	-10388
▁weed	-10389
▁curve	-10390
▁dries	-10391
▁scaly	-10392
Imagine	-10393
▁Nibbles	-10394
▁Patches	-10395
ann	-10396
Boun	-10397
Luke	-10398
azors	-10399
▁Nicky	-10400
▁Ronny	-10401
▁rises	-10402
Reverse	-10403
ocolate	-10404
▁twirls	-10405
▁neighed	-10406
▁rooster	-10407
▁threatened	-10408
▁Chee	-10409
▁Days	-10410
▁blur	-10411
Spring	-10412
▁Funny	-10413
▁Prune	-10414
▁aband	-10415
▁vitam	-10416
▁calming	-10417
▁stained	-10418
▁villain	-10419
Ol	-10420
Push	-10421
▁Wow	-10422
eller	-10423
▁ages	-10424
▁mend	-10425
▁plus	-10426
Robbie	-10427
▁grain	-10428
▁grunt	-10429
▁tucks	-10430
▁birdie	-10431
▁Timothy	-10432
▁panting	-10433
▁majestic	-10434
▁repairman	-10435
aron	-10436
▁Dull	-10437
▁smoky	-10438
▁urging	-10439
▁recipes	-10440
▁tingling	-10441
ical	-10442
▁shame	-10443
▁chirps	-10444
▁hunger	-10445
▁Cleaning	-10446
▁escaping	-10447
▁exercising	-10448
ylan	-10449
print	-10450
▁Bees	-10451
▁Mill	-10452
▁Father	-10453
▁fourth	-10454
▁notebooks	-10455
▁challenged	-10456
Tara	-10457
gging	-10458
▁Should	-10459
▁flowed	-10460
▁Singing	-10461
▁pecking	-10462
▁missiles	-10463
▁smoother	-10464
▁stroller	-10465
▁twitched	-10466
▁poisonous	-10467
▁rectangle	-10468
acher	-10469
▁Sean	-10470
▁blob	-10471
▁dodges	-10472
▁frames	-10473
issy	-10474
elsey	-10475
ierce	-10476
udrey	-10477
▁Worm	-10478
▁Giraffe	-10479
Wee	-10480
ossom	-10481
▁Rick	-10482
▁bled	-10483
▁trim	-10484
▁leaped	-10485
▁possessions	-10486
▁Hat	-10487
ality	-10488
▁invol	-10489
cellent	-10490
▁Maisie	-10491
▁kneels	-10492
▁command	-10493
▁flooded	-10494
▁handleb	-10495
▁lantern	-10496
▁lightly	-10497
▁notices	-10498
▁tiptoes	-10499
▁detective	-10500
onk	-10501
isher	-10502
▁Tube	-10503
▁loos	-10504
▁scut	-10505
▁Flash	-10506
▁Rumble	-10507
▁Twisty	-10508
▁cheesy	-10509
▁crispy	-10510
▁smoothly	-10511
Ten	-10512
bur	-10513
anga	-10514
▁Top	-10515
▁Bern	-10516
▁Girl	-10517
▁Lady	-10518
▁Africa	-10519
▁juggle	-10520
▁million	-10521
▁Carefully	-10522
Toto	-10523
▁Fran	-10524
▁device	-10525
▁flavour	-10526
bs	-10527
ilar	-10528
reet	-10529
▁Gen	-10530
▁Sly	-10531
ential	-10532
▁plopped	-10533
▁records	-10534
▁protects	-10535
▁babysitter	-10536
ya	-10537
▁Cact	-10538
▁Seat	-10539
▁swat	-10540
▁Bessy	-10541
▁route	-10542
▁dusted	-10543
▁toothp	-10544
▁strikes	-10545
▁instinct	-10546
▁pounding	-10547
▁brightened	-10548
▁flashlights	-10549
teen	-10550
▁Hero	-10551
▁mitt	-10552
▁chewy	-10553
▁stiff	-10554
▁Billie	-10555
▁Mighty	-10556
▁stares	-10557
▁mischief	-10558
▁removing	-10559
▁Kai	-10560
▁oars	-10561
abella	-10562
inting	-10563
▁perse	-10564
▁Minnie	-10565
▁Officer	-10566
▁stomping	-10567
▁nightstand	-10568
Pop	-10569
▁Gia	-10570
Sophia	-10571
icated	-10572
▁Cheese	-10573
▁contented	-10574
Wo	-10575
icia	-10576
▁Den	-10577
▁vol	-10578
Still	-10579
yield	-10580
▁Drink	-10581
Careful	-10582
▁bruise	-10583
▁turkeys	-10584
▁distract	-10585
▁reappear	-10586
vo	-10587
▁aid	-10588
▁cig	-10589
▁bolt	-10590
▁deck	-10591
▁tend	-10592
▁undo	-10593
orious	-10594
▁Guard	-10595
▁Matty	-10596
▁braid	-10597
▁persu	-10598
▁snore	-10599
▁refusing	-10600
▁seahorse	-10601
▁performers	-10602
hadow	-10603
▁Soft	-10604
▁atop	-10605
▁Dream	-10606
▁wagons	-10607
▁quicker	-10608
▁eyeshadow	-10609
▁organised	-10610
Woo	-10611
Pass	-10612
▁Cozy	-10613
▁rais	-10614
▁Freya	-10615
▁priest	-10616
▁unload	-10617
▁charity	-10618
▁disguise	-10619
▁raindrop	-10620
▁rightful	-10621
▁displaying	-10622
ige	-10623
▁Boy	-10624
Bouncy	-10625
iments	-10626
▁prison	-10627
▁shrimps	-10628
▁studies	-10629
▁arrested	-10630
▁tablecloth	-10631
umn	-10632
lock	-10633
▁unc	-10634
▁viol	-10635
▁Flame	-10636
▁loser	-10637
▁Believe	-10638
▁Brother	-10639
▁juiciest	-10640
▁slightly	-10641
▁occasions	-10642
▁lur	-10643
Marth	-10644
abeth	-10645
arett	-10646
Martha	-10647
▁Dusty	-10648
▁mound	-10649
Michael	-10650
▁length	-10651
▁lowers	-10652
▁ladybird	-10653
▁tripping	-10654
▁scrunched	-10655
oyal	-10656
ously	-10657
▁Rani	-10658
▁Ostri	-10659
chanted	-10660
▁stormy	-10661
woo	-10662
▁En	-10663
Cara	-10664
▁hike	-10665
friend	-10666
stupid	-10667
▁soggy	-10668
▁dialed	-10669
▁launch	-10670
▁fiercely	-10671
▁birthdays	-10672
▁loneliness	-10673
Jan	-10674
Jeff	-10675
exit	-10676
▁Doll	-10677
▁Gwen	-10678
Pretty	-10679
▁Faith	-10680
▁Fanny	-10681
▁dozed	-10682
Whistle	-10683
▁Honest	-10684
▁Taylor	-10685
▁snowing	-10686
▁hopeless	-10687
▁knitting	-10688
▁community	-10689
▁information	-10690
▁Gor	-10691
ource	-10692
▁Small	-10693
▁tiring	-10694
▁rumbled	-10695
▁cigarett	-10696
▁teaspoons	-10697
June	-10698
rease	-10699
▁Long	-10700
▁summ	-10701
▁Doing	-10702
▁forced	-10703
▁roamed	-10704
ppa	-10705
atic	-10706
▁div	-10707
asper	-10708
Friend	-10709
rupted	-10710
▁Hairy	-10711
▁boiled	-10712
▁resource	-10713
▁trumpets	-10714
▁enchanted	-10715
▁untangled	-10716
▁foreshadowed	-10717
ett	-10718
Pick	-10719
▁gle	-10720
▁Deaf	-10721
▁Noah	-10722
ornado	-10723
▁cutest	-10724
▁anybody	-10725
▁boarded	-10726
▁honeycom	-10727
▁Son	-10728
Drink	-10729
▁Chuck	-10730
▁fixes	-10731
▁oceans	-10732
▁guarded	-10733
▁scrubbing	-10734
phew	-10735
poke	-10736
rina	-10737
▁Meow	-10738
▁Alexa	-10739
▁Shell	-10740
▁wrists	-10741
▁Margaret	-10742
▁Instantly	-10743
▁ducklings	-10744
ika	-10745
Over	-10746
▁drags	-10747
▁roofs	-10748
▁events	-10749
▁nephew	-10750
▁combing	-10751
▁witches	-10752
▁accepting	-10753
▁stretcher	-10754
BC	-10755
ior	-10756
Mind	-10757
Nick	-10758
olph	-10759
cover	-10760
jamin	-10761
▁antenna	-10762
anky	-10763
belt	-10764
mosp	-10765
▁sim	-10766
▁tul	-10767
andel	-10768
▁Melt	-10769
▁champ	-10770
▁erupt	-10771
▁lakes	-10772
▁ruled	-10773
▁Arthur	-10774
▁atmosp	-10775
▁pounce	-10776
▁proceed	-10777
▁Kindness	-10778
▁scolding	-10779
▁atmosphere	-10780
od	-10781
ada	-10782
▁Ad	-10783
lean	-10784
Dizzy	-10785
Linda	-10786
flies	-10787
▁Mumma	-10788
▁creepy	-10789
▁abandoned	-10790
gre	-10791
cies	-10792
talk	-10793
▁ABC	-10794
▁ray	-10795
▁props	-10796
Jessica	-10797
▁salads	-10798
Startled	-10799
▁pinches	-10800
▁designer	-10801
▁pineapple	-10802
xie	-10803
nings	-10804
uliar	-10805
value	-10806
▁Sock	-10807
▁bangs	-10808
grateful	-10809
▁parking	-10810
▁peculiar	-10811
▁snuggles	-10812
SH	-10813
Bra	-10814
Ding	-10815
Five	-10816
oris	-10817
▁Sale	-10818
▁kill	-10819
▁misty	-10820
▁Gertie	-10821
▁richer	-10822
▁dizziness	-10823
▁handlebars	-10824
Mel	-10825
Nana	-10826
fant	-10827
▁Bean	-10828
▁Rory	-10829
▁Tiki	-10830
▁bait	-10831
▁gorge	-10832
▁winking	-10833
Ble	-10834
boom	-10835
▁howl	-10836
▁yards	-10837
▁contents	-10838
▁softness	-10839
▁emergencies	-10840
▁prof	-10841
Lizzie	-10842
▁seatbelt	-10843
▁sneaking	-10844
▁terribly	-10845
▁volcanoes	-10846
▁Worry	-10847
▁begun	-10848
▁destr	-10849
▁strict	-10850
▁Flexible	-10851
▁Oat	-10852
▁Str	-10853
ooked	-10854
▁fanc	-10855
▁jeans	-10856
▁trusty	-10857
▁walkie	-10858
▁managing	-10859
▁exchanged	-10860
▁fishermen	-10861
▁grandchildren	-10862
▁Ce	-10863
Prin	-10864
▁Salt	-10865
▁jogs	-10866
▁plum	-10867
ashion	-10868
ressed	-10869
▁Jetty	-10870
▁guilt	-10871
▁spoken	-10872
▁subject	-10873
▁clutched	-10874
▁gorgeous	-10875
▁presence	-10876
▁Int	-10877
▁cul	-10878
▁Dora	-10879
▁liar	-10880
▁Heidi	-10881
▁Jimbo	-10882
▁wands	-10883
▁riches	-10884
▁stripe	-10885
eyed	-10886
▁War	-10887
▁damp	-10888
▁grandk	-10889
▁unlike	-10890
▁arrange	-10891
▁valuing	-10892
▁Caroline	-10893
▁heaviest	-10894
▁vitamins	-10895
Mina	-10896
Toot	-10897
▁lif	-10898
Maddy	-10899
opard	-10900
▁Heel	-10901
Granny	-10902
▁Albert	-10903
▁shaker	-10904
▁Passport	-10905
▁delaying	-10906
▁settling	-10907
▁mailboxes	-10908
car	-10909
▁Ra	-10910
laud	-10911
▁dia	-10912
Blech	-10913
▁Isla	-10914
▁Chomp	-10915
▁Micro	-10916
▁Shine	-10917
▁crust	-10918
▁speck	-10919
▁reality	-10920
▁rhythms	-10921
▁foreshadowing	-10922
fer	-10923
▁Ask	-10924
Jilly	-10925
▁Amen	-10926
▁adop	-10927
▁sunb	-10928
▁Kanga	-10929
▁energ	-10930
▁blinks	-10931
Children	-10932
▁ladders	-10933
Sof	-10934
flow	-10935
▁Rud	-10936
stack	-10937
▁Sail	-10938
▁sizz	-10939
▁Chippy	-10940
▁snatch	-10941
▁daddies	-10942
▁kindest	-10943
▁ripples	-10944
▁unstuck	-10945
▁requests	-10946
▁promising	-10947
▁releasing	-10948
olo	-10949
▁clin	-10950
ession	-10951
ousand	-10952
▁Layla	-10953
▁handy	-10954
▁smash	-10955
▁appears	-10956
▁useless	-10957
vie	-10958
irls	-10959
▁Cass	-10960
▁Need	-10961
Beware	-10962
onight	-10963
▁Lydia	-10964
▁tales	-10965
▁tapes	-10966
▁explan	-10967
▁compare	-10968
▁performer	-10969
▁ungrateful	-10970
▁interrupted	-10971
Love	-10972
ants	-10973
Suzie	-10974
▁sinks	-10975
▁clocks	-10976
▁fitting	-10977
▁praises	-10978
▁ruffled	-10979
▁meetings	-10980
eline	-10981
▁Cube	-10982
▁lunged	-10983
▁mashed	-10984
▁squirt	-10985
▁tumbling	-10986
▁honeycomb	-10987
Fox	-10988
▁Mind	-10989
▁Susy	-10990
▁dong	-10991
▁oper	-10992
▁grasp	-10993
▁Shiver	-10994
▁barrels	-10995
▁valleys	-10996
▁clothing	-10997
▁resisting	-10998
cri	-10999
▁Fore	-11000
▁deeds	-11001
▁slams	-11002
▁lawyers	-11003
▁pudding	-11004
▁totally	-11005
▁unlocks	-11006
▁lovingly	-11007
wo	-11008
awk	-11009
beh	-11010
▁Tap	-11011
▁wil	-11012
Abbie	-11013
▁Dory	-11014
▁oink	-11015
▁Alfie	-11016
▁Furry	-11017
▁Onion	-11018
▁desce	-11019
believe	-11020
▁reader	-11021
▁hovered	-11022
▁pitcher	-11023
▁somehow	-11024
▁injuries	-11025
▁purchase	-11026
uren	-11027
Spark	-11028
elace	-11029
▁Goose	-11030
▁Petey	-11031
▁acrob	-11032
▁Audrey	-11033
▁Bernie	-11034
▁elbows	-11035
▁storing	-11036
▁trudged	-11037
▁shoelace	-11038
▁proceeded	-11039
▁reassuring	-11040
▁surrounding	-11041
Bet	-11042
▁Mick	-11043
remely	-11044
▁Brave	-11045
▁yelps	-11046
▁skinny	-11047
▁outcome	-11048
▁sickness	-11049
▁Jellyfish	-11050
ok	-11051
yla	-11052
Chris	-11053
▁Fuzz	-11054
▁Angie	-11055
▁Smokey	-11056
▁crashes	-11057
▁instant	-11058
▁patting	-11059
▁announce	-11060
▁licenses	-11061
▁wrappers	-11062
▁attendant	-11063
Dee	-11064
▁hey	-11065
Blink	-11066
▁Rosy	-11067
▁Wilma	-11068
▁state	-11069
▁darted	-11070
▁flutes	-11071
▁razors	-11072
▁bounded	-11073
▁greater	-11074
▁nibbling	-11075
▁extremely	-11076
▁sweetness	-11077
▁ris	-11078
Rover	-11079
ousel	-11080
ivated	-11081
▁curls	-11082
▁Willie	-11083
▁baller	-11084
▁clucked	-11085
▁striped	-11086
▁overflow	-11087
▁chattered	-11088
▁thoughtfully	-11089
Sl	-11090
▁caf	-11091
Jenna	-11092
aroni	-11093
heese	-11094
▁bins	-11095
▁shuff	-11096
Curious	-11097
irework	-11098
▁prefer	-11099
▁Crystal	-11100
▁Neither	-11101
▁thousand	-11102
▁connection	-11103
Joh	-11104
nis	-11105
iara	-11106
▁Sit	-11107
▁Drop	-11108
▁toad	-11109
Maddie	-11110
▁Greta	-11111
▁Pearl	-11112
▁tippy	-11113
▁granny	-11114
▁prices	-11115
▁Isabella	-11116
▁carousel	-11117
▁seashells	-11118
?,"	-11119
Ana	-11120
Bree	-11121
Fido	-11122
Skip	-11123
reck	-11124
▁Fit	-11125
▁var	-11126
▁Dash	-11127
▁Hipp	-11128
▁tink	-11129
▁Lemon	-11130
▁fifty	-11131
▁solid	-11132
▁Goldie	-11133
▁Hanger	-11134
▁itches	-11135
▁raisins	-11136
▁kayaking	-11137
▁servants	-11138
▁commotion	-11139
▁Rag	-11140
filled	-11141
▁dodge	-11142
▁stems	-11143
▁Fierce	-11144
▁nestled	-11145
▁disgusted	-11146
▁explanation	-11147
▁gn	-11148
▁Stu	-11149
▁doub	-11150
▁radi	-11151
▁Dylan	-11152
▁Three	-11153
▁Though	-11154
▁thirty	-11155
Princess	-11156
▁Charles	-11157
▁blessed	-11158
▁cracking	-11159
cst	-11160
away	-11161
umph	-11162
Betsy	-11163
ridge	-11164
unior	-11165
▁Claw	-11166
▁Gail	-11167
alfway	-11168
▁Hilda	-11169
hearted	-11170
▁Spotty	-11171
▁medium	-11172
▁passion	-11173
▁scarier	-11174
▁timidly	-11175
▁Climbing	-11176
▁cucumber	-11177
▁skeletons	-11178
▁streaming	-11179
▁Dictionary	-11180
Ar	-11181
EE	-11182
ram	-11183
Ally	-11184
aitlyn	-11185
▁beeps	-11186
▁boast	-11187
▁whizz	-11188
▁Ostrich	-11189
▁Squeeze	-11190
▁concert	-11191
▁squirmed	-11192
Grab	-11193
rope	-11194
▁Sid	-11195
field	-11196
▁sons	-11197
▁Steph	-11198
▁elder	-11199
▁flakes	-11200
▁Rudolph	-11201
▁freshly	-11202
▁Elizabeth	-11203
▁Nan	-11204
▁Bull	-11205
▁Most	-11206
Choose	-11207
▁Catch	-11208
▁boomed	-11209
▁sicker	-11210
▁speeds	-11211
▁wrinkly	-11212
▁instincts	-11213
▁practising	-11214
▁Oct	-11215
Years	-11216
▁Work	-11217
▁ecst	-11218
▁eleven	-11219
▁embrace	-11220
Yesterday	-11221
▁training	-11222
▁grandkids	-11223
ils	-11224
▁Milk	-11225
▁Loyal	-11226
▁Melty	-11227
Another	-11228
▁Pastel	-11229
▁erased	-11230
▁springs	-11231
haps	-11232
than	-11233
▁Sack	-11234
Nobody	-11235
uccess	-11236
▁Dough	-11237
▁Pizza	-11238
▁Shall	-11239
▁cacti	-11240
▁cerem	-11241
▁Pirate	-11242
▁locking	-11243
▁dragging	-11244
▁macaroni	-11245
cip	-11246
oos	-11247
wee	-11248
rain	-11249
Henny	-11250
▁Wind	-11251
▁Horse	-11252
▁bould	-11253
▁donut	-11254
▁Bailey	-11255
▁liking	-11256
▁ballerina	-11257
▁complicated	-11258
.''	-11259
cha	-11260
rin	-11261
alia	-11262
made	-11263
ocks	-11264
▁obl	-11265
dream	-11266
▁envy	-11267
▁vacu	-11268
▁wasp	-11269
▁diver	-11270
▁lumpy	-11271
▁salsa	-11272
▁Infant	-11273
isappear	-11274
▁collage	-11275
▁spreads	-11276
▁ecstatic	-11277
▁quitting	-11278
▁wasteful	-11279
▁obstacles	-11280
Per	-11281
ker	-11282
Lost	-11283
gain	-11284
jack	-11285
rimp	-11286
▁adv	-11287
Mikey	-11288
Simon	-11289
▁Marcy	-11290
▁Think	-11291
▁chann	-11292
▁urges	-11293
▁Nathan	-11294
▁sorrow	-11295
▁stunned	-11296
▁Benjamin	-11297
▁ceremony	-11298
Fun	-11299
▁awa	-11300
Match	-11301
▁flam	-11302
▁ogre	-11303
▁gloom	-11304
▁assist	-11305
▁snails	-11306
▁carefree	-11307
▁favorites	-11308
Moon	-11309
hill	-11310
▁Pol	-11311
▁dim	-11312
Jacky	-11313
Santa	-11314
▁Must	-11315
action	-11316
market	-11317
▁lobby	-11318
▁curves	-11319
▁fading	-11320
▁Tornado	-11321
▁equally	-11322
▁pendant	-11323
▁screech	-11324
▁stations	-11325
▁cauliflowers	-11326
El	-11327
CRA	-11328
Whe	-11329
gets	-11330
tling	-11331
vious	-11332
▁Geor	-11333
Birdie	-11334
solved	-11335
▁Count	-11336
▁clung	-11337
▁saves	-11338
▁Alison	-11339
▁musical	-11340
▁Anything	-11341
▁shiniest	-11342
▁delightful	-11343
▁supermarket	-11344
don	-11345
Dara	-11346
▁West	-11347
▁craz	-11348
Stretch	-11349
▁Angela	-11350
▁cranky	-11351
▁tingle	-11352
▁cutters	-11353
▁princip	-11354
▁weights	-11355
▁forwards	-11356
▁homeless	-11357
▁lunchbox	-11358
▁scooping	-11359
▁playfully	-11360
▁snuggling	-11361
hh	-11362
cted	-11363
sery	-11364
▁Nia	-11365
▁Call	-11366
▁Clown	-11367
▁frant	-11368
▁Willow	-11369
▁tickly	-11370
▁invention	-11371
▁recovered	-11372
eves	-11373
oria	-11374
pill	-11375
Along	-11376
inema	-11377
▁grains	-11378
▁unsafe	-11379
▁princes	-11380
▁daydream	-11381
▁includes	-11382
▁innocent	-11383
▁porridge	-11384
Fortunately	-11385
▁preventing	-11386
iw	-11387
Caw	-11388
▁voy	-11389
▁Burt	-11390
▁balc	-11391
▁mops	-11392
▁Kathy	-11393
▁calms	-11394
▁dandel	-11395
Samantha	-11396
▁sleeves	-11397
▁soundly	-11398
▁captured	-11399
▁steaming	-11400
▁gardening	-11401
▁tightrope	-11402
▁toothpaste	-11403
exi	-11404
▁Av	-11405
arla	-11406
▁mid	-11407
Janie	-11408
▁Flea	-11409
ictory	-11410
umbles	-11411
▁cloak	-11412
▁moles	-11413
▁Dinner	-11414
▁privacy	-11415
▁private	-11416
▁remains	-11417
▁triumph	-11418
▁galloped	-11419
▁trophies	-11420
▁sniffling	-11421
▁suitcases	-11422
▁destruction	-11423
▁independence	-11424
▁Box	-11425
▁cha	-11426
balls	-11427
▁Hand	-11428
Jackie	-11429
▁Ellen	-11430
▁cinema	-11431
▁scrape	-11432
▁nursery	-11433
▁service	-11434
▁reaction	-11435
En	-11436
love	-11437
▁Wal	-11438
Chirp	-11439
itive	-11440
▁Toni	-11441
▁dolly	-11442
▁fully	-11443
▁gummy	-11444
▁ponyt	-11445
▁loosen	-11446
▁rattle	-11447
▁Spanish	-11448
▁allowance	-11449
▁anxiously	-11450
▁dishonest	-11451
▁strolling	-11452
Fe	-11453
Cool	-11454
Lion	-11455
▁Croco	-11456
▁Opera	-11457
▁outsm	-11458
▁outing	-11459
▁culture	-11460
▁lurking	-11461
▁swirled	-11462
▁thinner	-11463
Son	-11464
mar	-11465
oint	-11466
Brown	-11467
ships	-11468
▁tock	-11469
▁gliding	-11470
▁addition	-11471
▁principal	-11472
▁discussion	-11473
!,"	-11474
urr	-11475
imba	-11476
ooke	-11477
wine	-11478
▁Wor	-11479
▁banks	-11480
▁Mickey	-11481
▁doggie	-11482
▁sprung	-11483
▁Ashtray	-11484
▁Richard	-11485
▁Shampoo	-11486
▁nuzzles	-11487
▁cleanest	-11488
▁sweeping	-11489
▁earthquakes	-11490
uh	-11491
Del	-11492
mail	-11493
▁pits	-11494
▁vast	-11495
Repeat	-11496
llowed	-11497
talkie	-11498
▁Louie	-11499
▁Melody	-11500
▁report	-11501
▁steaks	-11502
▁balcony	-11503
▁begging	-11504
▁flamingo	-11505
▁mornings	-11506
▁supportive	-11507
AR	-11508
Hel	-11509
▁Abb	-11510
▁Ped	-11511
anana	-11512
▁goods	-11513
▁online	-11514
▁voyage	-11515
▁catcher	-11516
▁champion	-11517
▁projects	-11518
▁abilities	-11519
▁disobedient	-11520
▁New	-11521
Ralph	-11522
▁Bossy	-11523
▁Guess	-11524
▁brake	-11525
▁Jellie	-11526
▁saddle	-11527
▁messing	-11528
▁unicorns	-11529
▁adventurers	-11530
iko	-11531
uri	-11532
Hide	-11533
▁ABCs	-11534
▁Hugs	-11535
▁Pain	-11536
Stella	-11537
▁Skull	-11538
▁Kelsey	-11539
▁cranes	-11540
▁photog	-11541
▁shaken	-11542
Although	-11543
▁unfolded	-11544
▁numbering	-11545
▁popsicles	-11546
Pen	-11547
▁mums	-11548
Seeing	-11549
▁choke	-11550
▁Wilbur	-11551
▁howled	-11552
▁Johnnie	-11553
▁replies	-11554
▁squeaks	-11555
▁uniting	-11556
▁Slowpoke	-11557
▁swirling	-11558
vey	-11559
essa	-11560
iddy	-11561
ilst	-11562
▁Much	-11563
▁Poke	-11564
▁budd	-11565
▁guid	-11566
coming	-11567
flower	-11568
▁appet	-11569
▁Driver	-11570
▁Gorilla	-11571
▁deepest	-11572
▁partner	-11573
▁whining	-11574
▁guidance	-11575
▁godmother	-11576
inc	-11577
etti	-11578
▁Hunt	-11579
▁pave	-11580
▁spied	-11581
▁stray	-11582
Without	-11583
▁curved	-11584
▁desire	-11585
▁infect	-11586
▁studio	-11587
▁boulder	-11588
▁harmful	-11589
▁reddest	-11590
▁grounded	-11591
▁accessories	-11592
eras	-11593
▁vases	-11594
▁Janice	-11595
▁imagin	-11596
▁jingle	-11597
▁Leopard	-11598
▁bruised	-11599
▁resumed	-11600
▁runners	-11601
▁pavement	-11602
▁strummed	-11603
▁shimmered	-11604
eech	-11605
Yield	-11606
▁rink	-11607
▁brats	-11608
▁Carlos	-11609
▁Justin	-11610
▁Switch	-11611
▁consid	-11612
▁fairly	-11613
▁snorts	-11614
▁Biscuit	-11615
▁screens	-11616
▁motioned	-11617
▁yielding	-11618
Old	-11619
Mmmm	-11620
▁Gas	-11621
▁raw	-11622
Young	-11623
▁Down	-11624
▁Wood	-11625
▁snowed	-11626
▁speech	-11627
▁buddies	-11628
▁scrunch	-11629
▁confetti	-11630
▁regularly	-11631
▁possession	-11632
moo	-11633
pie	-11634
▁gulp	-11635
▁North	-11636
▁halls	-11637
▁bossed	-11638
▁skulls	-11639
▁cameras	-11640
▁sandals	-11641
▁Learning	-11642
▁popsicle	-11643
vor	-11644
riet	-11645
arked	-11646
gency	-11647
upted	-11648
▁Dish	-11649
▁Food	-11650
▁Soup	-11651
▁dism	-11652
▁plow	-11653
oxygen	-11654
▁Doggo	-11655
▁Marty	-11656
▁Novel	-11657
▁firew	-11658
▁sucked	-11659
▁erupted	-11660
▁switches	-11661
Pl	-11662
atue	-11663
▁tac	-11664
▁Hugo	-11665
▁Kara	-11666
▁Hippo	-11667
▁Round	-11668
▁greed	-11669
▁whisk	-11670
▁Bubble	-11671
▁targets	-11672
▁Mustache	-11673
▁replacing	-11674
▁bun	-11675
Mister	-11676
master	-11677
▁Monica	-11678
▁autumn	-11679
▁driven	-11680
▁Writing	-11681
▁gestures	-11682
▁horrified	-11683
▁selfishness	-11684
Jay	-11685
rex	-11686
▁Cal	-11687
▁Nap	-11688
▁nin	-11689
Cathy	-11690
Clean	-11691
Sadie	-11692
▁Jemma	-11693
▁Jules	-11694
▁worlds	-11695
▁Popcorn	-11696
▁entertain	-11697
▁Frustrated	-11698
▁Wednesdays	-11699
Ash	-11700
Els	-11701
▁Col	-11702
▁wit	-11703
ouble	-11704
▁fare	-11705
▁Mason	-11706
▁fists	-11707
▁glide	-11708
▁glimp	-11709
▁carved	-11710
▁huffed	-11711
▁Chickie	-11712
▁cabbage	-11713
▁spinach	-11714
▁potential	-11715
▁accidently	-11716
ks	-11717
POP	-11718
Pam	-11719
▁py	-11720
▁Ivy	-11721
▁Nat	-11722
▁acc	-11723
Robot	-11724
Water	-11725
helle	-11726
▁fewer	-11727
▁honor	-11728
▁Nellie	-11729
▁freeing	-11730
▁grumble	-11731
▁acrobats	-11732
▁biscuits	-11733
▁measures	-11734
▁warriors	-11735
▁scribbled	-11736
▁carelessly	-11737
▁challenging	-11738
▁contentment	-11739
▁fashionable	-11740
two	-11741
acle	-11742
▁Hot	-11743
▁Anty	-11744
▁None	-11745
▁Octo	-11746
▁toot	-11747
▁paste	-11748
▁stump	-11749
▁Brooke	-11750
▁tagged	-11751
aterpill	-11752
nderneath	-11753
rupt	-11754
▁owe	-11755
Davey	-11756
innam	-11757
Robert	-11758
▁Night	-11759
▁views	-11760
innamon	-11761
isingly	-11762
▁Edward	-11763
▁pucker	-11764
uriosity	-11765
fect	-11766
reak	-11767
▁Ada	-11768
▁pals	-11769
▁equal	-11770
▁Cookie	-11771
▁perked	-11772
▁repairs	-11773
▁snipped	-11774
▁streams	-11775
▁feathered	-11776
▁Diana	-11777
▁Glass	-11778
▁Whist	-11779
▁defend	-11780
▁quarre	-11781
▁hungrier	-11782
▁wobbling	-11783
▁importantly	-11784
Ang	-11785
roy	-11786
▁THE	-11787
iverse	-11788
▁scrap	-11789
▁tilts	-11790
ushroom	-11791
▁France	-11792
▁descri	-11793
▁goalie	-11794
▁hammering	-11795
▁inspected	-11796
▁journeyed	-11797
▁resources	-11798
Po	-11799
App	-11800
hibit	-11801
▁Lime	-11802
▁heed	-11803
▁cleare	-11804
▁ducked	-11805
▁scarfs	-11806
▁Flowers	-11807
▁Alligator	-11808
▁exercised	-11809
▁peacefulness	-11810
emo	-11811
▁ah	-11812
auce	-11813
Cheese	-11814
▁Money	-11815
▁cases	-11816
▁chunk	-11817
▁layer	-11818
▁pouts	-11819
▁Danger	-11820
▁serves	-11821
▁lumberjack	-11822
▁frantically	-11823
Kn	-11824
oebe	-11825
anked	-11826
etime	-11827
▁scan	-11828
▁sunk	-11829
Oliver	-11830
▁Lauren	-11831
▁Mister	-11832
▁thirst	-11833
▁cinnamon	-11834
▁sounding	-11835
▁subjects	-11836
▁descended	-11837
uggy	-11838
▁Cop	-11839
▁nor	-11840
▁sul	-11841
Larry	-11842
▁Mara	-11843
▁poof	-11844
▁roam	-11845
▁Marcus	-11846
▁blurry	-11847
▁copies	-11848
▁heater	-11849
▁sunsets	-11850
▁snatches	-11851
▁punishing	-11852
rer	-11853
iped	-11854
Nurse	-11855
azing	-11856
igher	-11857
shoot	-11858
▁brag	-11859
▁tang	-11860
giving	-11861
▁Bendy	-11862
▁Percy	-11863
▁Cactus	-11864
▁History	-11865
▁Measure	-11866
▁antennae	-11867
▁flipping	-11868
▁hurrying	-11869
▁infection	-11870
mind	-11871
tick	-11872
zzly	-11873
spass	-11874
▁Lexi	-11875
▁Pill	-11876
▁Wine	-11877
▁Becca	-11878
▁Manny	-11879
▁benef	-11880
▁jeeps	-11881
▁mitts	-11882
venture	-11883
▁Tomato	-11884
▁advant	-11885
▁cursed	-11886
▁skates	-11887
▁glimmer	-11888
▁paddles	-11889
▁spinner	-11890
▁grinning	-11891
▁grumbling	-11892
ald	-11893
bug	-11894
atted	-11895
▁carn	-11896
▁Asked	-11897
▁Minty	-11898
▁Ringo	-11899
▁carve	-11900
applaud	-11901
▁jogger	-11902
▁stomps	-11903
▁pricked	-11904
▁sucking	-11905
run	-11906
Stir	-11907
aleb	-11908
Laura	-11909
orant	-11910
▁Cora	-11911
Stitch	-11912
ickest	-11913
▁Leafy	-11914
▁Rhythm	-11915
▁freely	-11916
▁lately	-11917
▁sevent	-11918
ireworks	-11919
▁crooked	-11920
▁gaining	-11921
▁lifetime	-11922
▁pedalled	-11923
▁crackling	-11924
▁energized	-11925
▁captivated	-11926
haw	-11927
▁Oy	-11928
Race	-11929
rant	-11930
▁empt	-11931
▁wond	-11932
▁explos	-11933
▁chances	-11934
▁haystack	-11935
▁jealousy	-11936
give	-11937
▁Bel	-11938
▁yay	-11939
eness	-11940
▁clam	-11941
▁Sister	-11942
▁surfer	-11943
▁Stephen	-11944
ssssssssssssssss	-11945
sl	-11946
▁Gear	-11947
▁Rude	-11948
▁wavy	-11949
▁House	-11950
▁Ruffy	-11951
▁polka	-11952
▁taxis	-11953
▁Making	-11954
▁Statue	-11955
▁drople	-11956
▁heated	-11957
▁wilted	-11958
▁Melanie	-11959
▁blossom	-11960
▁railing	-11961
▁Patience	-11962
▁embraced	-11963
▁embarrassment	-11964
Ph	-11965
ooo	-11966
Ruff	-11967
Shut	-11968
Grand	-11969
opera	-11970
▁frag	-11971
olcano	-11972
▁Pedro	-11973
▁Sheep	-11974
▁chaos	-11975
▁constr	-11976
▁excuse	-11977
▁stunning	-11978
▁Intrigued	-11979
▁advantage	-11980
▁crunching	-11981
▁tightened	-11982
▁vanishing	-11983
Ho	-11984
mon	-11985
▁Mud	-11986
▁kiw	-11987
Bloom	-11988
Wheee	-11989
unate	-11990
▁Bring	-11991
▁Piper	-11992
▁Pistol	-11993
▁Strong	-11994
▁feared	-11995
▁joyous	-11996
▁trails	-11997
▁booming	-11998
▁placing	-11999
▁reflect	-12000
▁brighten	-12001
▁firewood	-12002
beam	-12003
▁ted	-12004
akers	-12005
▁Mond	-12006
▁Rush	-12007
▁gobl	-12008
▁site	-12009
atever	-12010
record	-12011
▁Lying	-12012
▁glist	-12013
▁ouchy	-12014
▁coughs	-12015
▁inched	-12016
▁pickles	-12017
▁protest	-12018
▁carriage	-12019
▁clutching	-12020
▁fulfilled	-12021
▁scientists	-12022
new	-12023
woof	-12024
▁Mars	-12025
▁Peek	-12026
Monkey	-12027
▁Ethan	-12028
▁Great	-12029
▁Peppa	-12030
▁Start	-12031
▁Winnie	-12032
▁belief	-12033
▁sealed	-12034
Wednesday	-12035
▁trapping	-12036
▁excellent	-12037
▁mattresses	-12038
',"	-12039
rit	-12040
▁Sa	-12041
Oink	-12042
▁pew	-12043
▁Jade	-12044
▁Save	-12045
▁rash	-12046
▁tran	-12047
▁Party	-12048
▁basil	-12049
▁Lumber	-12050
▁clinic	-12051
▁channel	-12052
▁inspect	-12053
▁involved	-12054
▁glistened	-12055
Rel	-12056
life	-12057
▁Eng	-12058
▁alb	-12059
ailed	-12060
upert	-12061
▁Cate	-12062
▁Joel	-12063
▁sele	-12064
▁reins	-12065
▁rarely	-12066
▁terror	-12067
▁flipper	-12068
▁painters	-12069
▁concentrated	-12070
Congratulations	-12071
Mae	-12072
yme	-12073
▁fer	-12074
Throw	-12075
maker	-12076
pilot	-12077
▁rasp	-12078
Copper	-12079
▁Cable	-12080
▁bills	-12081
▁hobby	-12082
▁Trevor	-12083
▁bobbed	-12084
▁quiver	-12085
Confused	-12086
▁Imagine	-12087
▁exhibit	-12088
▁remaining	-12089
▁victorious	-12090
▁overflowing	-12091
Ryan	-12092
chers	-12093
inked	-12094
ption	-12095
▁Ding	-12096
▁Erin	-12097
▁Rina	-12098
▁orch	-12099
▁tack	-12100
▁unsc	-12101
umpkin	-12102
▁Spray	-12103
▁react	-12104
▁produc	-12105
▁Jumping	-12106
▁classes	-12107
▁tastier	-12108
▁combined	-12109
▁scuttled	-12110
▁sneakers	-12111
▁staircase	-12112
BOO	-12113
▁Rod	-12114
▁Bald	-12115
▁Deer	-12116
▁dazz	-12117
▁hind	-12118
ferent	-12119
niverse	-12120
▁clover	-12121
▁dismay	-12122
▁runway	-12123
▁teddies	-12124
▁tending	-12125
▁sniffles	-12126
▁unloaded	-12127
▁surprisingly	-12128
bi	-12129
EEP	-12130
chy	-12131
nds	-12132
nes	-12133
who	-12134
▁Ign	-12135
chest	-12136
▁Bugs	-12137
▁Gaby	-12138
▁Purr	-12139
▁fate	-12140
▁sund	-12141
▁unpl	-12142
▁Simba	-12143
▁feeds	-12144
Frankie	-12145
▁Flower	-12146
▁Ribbit	-12147
▁digger	-12148
▁effect	-12149
▁shades	-12150
▁speedy	-12151
▁vacuum	-12152
▁Kaitlyn	-12153
▁ironing	-12154
▁refuses	-12155
▁Snowball	-12156
▁spitting	-12157
▁sculptures	-12158
gs	-12159
Din	-12160
Izzy	-12161
iety	-12162
▁Marco	-12163
▁dials	-12164
▁fired	-12165
▁Monday	-12166
▁behold	-12167
ifferent	-12168
▁quality	-12169
▁stylish	-12170
▁unlucky	-12171
▁breathes	-12172
▁silliest	-12173
wow	-12174
Katy	-12175
hide	-12176
pers	-12177
▁Bus	-12178
▁Eli	-12179
ocado	-12180
▁trad	-12181
▁Merry	-12182
▁outer	-12183
▁diaper	-12184
▁crumble	-12185
▁glimpse	-12186
▁shaving	-12187
▁carnival	-12188
▁hammered	-12189
▁Curiosity	-12190
▁protector	-12191
▁shoreline	-12192
▁background	-12193
Sal	-12194
Phew	-12195
oodle	-12196
▁Clar	-12197
▁main	-12198
▁Celly	-12199
▁posts	-12200
▁mustard	-12201
▁bandaged	-12202
▁interests	-12203
▁conversations	-12204
aya	-12205
Spin	-12206
open	-12207
▁Ter	-12208
Green	-12209
▁Donna	-12210
▁glues	-12211
▁kayaks	-12212
▁stalks	-12213
▁twitch	-12214
▁howling	-12215
▁insists	-12216
▁options	-12217
▁paramed	-12218
▁shuffled	-12219
▁springtime	-12220
asc	-12221
now	-12222
rous	-12223
▁woo	-12224
Marie	-12225
▁chug	-12226
▁pang	-12227
▁Fruit	-12228
▁Print	-12229
▁Stick	-12230
▁Alfred	-12231
▁Muscle	-12232
▁Trixie	-12233
▁bubbled	-12234
▁leaders	-12235
▁seashell	-12236
bec	-12237
cup	-12238
ixie	-12239
ords	-12240
pass	-12241
▁rejo	-12242
Amelia	-12243
Peanut	-12244
▁Forky	-12245
▁Youth	-12246
▁smoot	-12247
▁Bright	-12248
▁coiled	-12249
▁meaner	-12250
▁sipping	-12251
▁floaties	-12252
▁relation	-12253
▁cucumbers	-12254
▁surrendering	-12255
cr	-12256
▁oo	-12257
▁Mir	-12258
▁pry	-12259
tingu	-12260
▁Miles	-12261
▁Radio	-12262
▁Wanda	-12263
▁album	-12264
▁cawed	-12265
▁packs	-12266
▁slaps	-12267
▁Junior	-12268
▁gobble	-12269
▁impact	-12270
▁magpie	-12271
▁pastor	-12272
▁bullies	-12273
▁creaked	-12274
▁demands	-12275
▁extingu	-12276
▁fetches	-12277
▁leashes	-12278
▁sharpen	-12279
▁approval	-12280
▁droplets	-12281
▁grownups	-12282
▁nightfall	-12283
gl	-12284
!''	-12285
Dot	-12286
via	-12287
zero	-12288
Looks	-12289
Maisy	-12290
▁Five	-12291
▁Golf	-12292
▁Huggy	-12293
▁dares	-12294
▁Jasper	-12295
▁Halfway	-12296
▁carpets	-12297
▁ignores	-12298
▁leaping	-12299
▁mirrors	-12300
▁rustled	-12301
▁stitched	-12302
▁baseballs	-12303
▁hurriedly	-12304
▁hardworking	-12305
▁imaginative	-12306
Mat	-12307
Tre	-12308
apes	-12309
azzy	-12310
▁Him	-12311
▁hooked	-12312
▁syring	-12313
▁Balloon	-12314
▁Buttons	-12315
▁Grandad	-12316
▁jiggled	-12317
▁similar	-12318
▁glinting	-12319
Down	-12320
Park	-12321
mill	-12322
▁dil	-12323
Fiona	-12324
venge	-12325
▁Fuel	-12326
▁jugs	-12327
▁loss	-12328
alling	-12329
▁cents	-12330
unities	-12331
▁Mousey	-12332
▁uneasy	-12333
▁Bethany	-12334
▁Wiggles	-12335
▁Mushroom	-12336
▁farewell	-12337
▁sheepish	-12338
▁meatballs	-12339
▁hesitantly	-12340
▁opportunities	-12341
Gus	-12342
even	-12343
▁Scr	-12344
▁Yay	-12345
Nancy	-12346
Pizza	-12347
Spicy	-12348
gling	-12349
▁Grow	-12350
▁burp	-12351
▁bust	-12352
▁rugs	-12353
handed	-12354
▁doubt	-12355
▁menus	-12356
▁murky	-12357
▁tiara	-12358
▁Harold	-12359
▁buzzes	-12360
▁goblin	-12361
appiness	-12362
▁padlock	-12363
▁syringe	-12364
▁witness	-12365
▁toughest	-12366
▁wondrous	-12367
aterpillar	-12368
▁blessings	-12369
mag	-12370
yer	-12371
have	-12372
lost	-12373
▁dut	-12374
Greet	-12375
▁moist	-12376
▁risen	-12377
▁whoos	-12378
▁double	-12379
▁hating	-12380
Everyday	-12381
▁closest	-12382
▁fifteen	-12383
▁forming	-12384
▁revenge	-12385
▁simplest	-12386
▁squatted	-12387
▁unfreeze	-12388
▁propeller	-12389
▁succeeding	-12390
▁collections	-12391
New	-12392
OAR	-12393
Rudy	-12394
Ruth	-12395
▁Oil	-12396
▁lens	-12397
▁plun	-12398
ointed	-12399
▁Peach	-12400
▁eater	-12401
▁Celery	-12402
▁Freeze	-12403
▁feeder	-12404
▁habits	-12405
▁losers	-12406
▁starry	-12407
▁artists	-12408
▁endless	-12409
▁position	-12410
▁hopefully	-12411
▁complimented	-12412
De	-12413
Fu	-12414
Luc	-12415
Par	-12416
Dani	-12417
Yoga	-12418
jump	-12419
▁Fast	-12420
▁Seek	-12421
▁untw	-12422
phones	-12423
▁Boris	-12424
▁Lance	-12425
▁clums	-12426
▁ridden	-12427
▁walker	-12428
▁passage	-12429
Butterfly	-12430
▁overnight	-12431
▁strengths	-12432
▁stumbling	-12433
?'.	-12434
urf	-12435
Cook	-12436
toes	-12437
▁Moe	-12438
▁Tad	-12439
Fuzzy	-12440
Holly	-12441
there	-12442
▁sips	-12443
▁Jesus	-12444
▁dilig	-12445
▁Hunter	-12446
▁Shrimp	-12447
▁Trouble	-12448
▁crackle	-12449
▁Michelle	-12450
▁cabinets	-12451
▁gleaming	-12452
▁Chocolate	-12453
▁forgetful	-12454
La	-12455
azy	-12456
▁Lo	-12457
happy	-12458
▁Cont	-12459
▁tech	-12460
Rollie	-12461
▁Lacey	-12462
▁spine	-12463
▁Maxine	-12464
▁chests	-12465
inoceros	-12466
▁Jackson	-12467
▁bobbing	-12468
▁creaking	-12469
▁securely	-12470
Soup	-12471
loat	-12472
pair	-12473
imate	-12474
▁Scott	-12475
▁Alicia	-12476
▁banner	-12477
▁barbec	-12478
▁yummier	-12479
Pup	-12480
cel	-12481
eers	-12482
▁Yog	-12483
▁ups	-12484
▁zig	-12485
crack	-12486
three	-12487
atrice	-12488
▁Paper	-12489
▁pluck	-12490
▁swift	-12491
▁Flying	-12492
▁afloat	-12493
▁unwell	-12494
▁flavours	-12495
▁trespass	-12496
▁struggles	-12497
Abi	-12498
God	-12499
mbur	-12500
ongo	-12501
▁China	-12502
▁Tabby	-12503
▁Toast	-12504
Release	-12505
▁Debbie	-12506
▁screec	-12507
▁assured	-12508
▁ticklish	-12509
bel	-12510
uto	-12511
van	-12512
Rest	-12513
athe	-12514
erie	-12515
▁Con	-12516
Stand	-12517
▁Anya	-12518
▁Nell	-12519
▁Owen	-12520
▁Pray	-12521
▁buds	-12522
Stupid	-12523
▁Beary	-12524
▁dying	-12525
▁Phoebe	-12526
▁Smiley	-12527
▁cupped	-12528
▁unison	-12529
▁spelling	-12530
▁attacking	-12531
▁confusing	-12532
▁scribbles	-12533
▁concentrate	-12534
ANG	-12535
▁Ari	-12536
▁Sab	-12537
▁Sami	-12538
▁smir	-12539
▁zone	-12540
▁Hanna	-12541
▁leaks	-12542
edience	-12543
iscilla	-12544
▁ladies	-12545
▁packet	-12546
▁teases	-12547
▁Feathers	-12548
▁explosion	-12549
▁marveling	-12550
▁receiving	-12551
▁wriggling	-12552
ela	-12553
Mail	-12554
isky	-12555
▁Mor	-12556
▁Pole	-12557
Nearby	-12558
▁Emmie	-12559
▁hambur	-12560
▁ponder	-12561
▁clearer	-12562
▁mothers	-12563
▁warming	-12564
▁cleverness	-12565
▁contentedly	-12566
▁thoughtfulness	-12567
▁cy	-12568
▁Com	-12569
▁Doc	-12570
▁Ink	-12571
▁Syl	-12572
▁unb	-12573
Lemon	-12574
ivers	-12575
▁Beak	-12576
▁Move	-12577
▁spir	-12578
▁Rocks	-12579
▁Stone	-12580
▁adopt	-12581
Brownie	-12582
▁Archie	-12583
▁Rupert	-12584
coloured	-12585
▁Heather	-12586
▁Octopus	-12587
▁grounds	-12588
Greetings	-12589
▁admitted	-12590
▁displays	-12591
▁unzipped	-12592
asey	-12593
▁due	-12594
Buggy	-12595
Missy	-12596
Sofia	-12597
▁Clap	-12598
▁foss	-12599
ercise	-12600
inging	-12601
▁Caleb	-12602
▁mules	-12603
▁roles	-12604
▁awaited	-12605
▁orchard	-12606
▁plumber	-12607
▁register	-12608
▁sentence	-12609
▁spotless	-12610
▁Thanksgiving	-12611
ns	-12612
top	-12613
▁Eag	-12614
Wendy	-12615
fying	-12616
table	-12617
▁dash	-12618
▁dice	-12619
▁blend	-12620
▁soaps	-12621
▁cities	-12622
acky	-12623
dled	-12624
Rolly	-12625
about	-12626
▁thre	-12627
athing	-12628
▁Scale	-12629
▁coast	-12630
▁gnome	-12631
▁Gloria	-12632
▁betray	-12633
▁croaks	-12634
▁wrecked	-12635
▁meanings	-12636
▁muttered	-12637
▁quickest	-12638
▁resolved	-12639
▁secretly	-12640
▁headphones	-12641
whe	-12642
Paws	-12643
help	-12644
iden	-12645
ikki	-12646
pply	-12647
▁bon	-12648
magic	-12649
▁Biff	-12650
▁Flex	-12651
▁Nosy	-12652
▁Real	-12653
▁flex	-12654
▁herd	-12655
▁intr	-12656
▁lave	-12657
▁Beepy	-12658
▁armor	-12659
▁batch	-12660
Whoever	-12661
▁luckier	-12662
▁nibbles	-12663
▁posters	-12664
▁violins	-12665
▁appetite	-12666
▁lavender	-12667
▁obstacle	-12668
▁ponytail	-12669
isappointed	-12670
▁adventurer	-12671
Toy	-12672
zip	-12673
dles	-12674
ulty	-12675
▁pod	-12676
▁zap	-12677
Jonny	-12678
▁Whip	-12679
▁halo	-12680
▁moan	-12681
▁pest	-12682
bbling	-12683
icense	-12684
sticks	-12685
Believe	-12686
▁dearly	-12687
▁mended	-12688
▁grazing	-12689
▁keyboard	-12690
ori	-12691
seed	-12692
▁Rest	-12693
▁Seth	-12694
▁aims	-12695
▁cowg	-12696
itters	-12697
▁Story	-12698
Teacher	-12699
▁Apples	-12700
▁Bumble	-12701
▁Dennis	-12702
▁neared	-12703
▁stalls	-12704
▁whilst	-12705
▁Matches	-12706
▁anthill	-12707
▁barbecue	-12708
▁littlest	-12709
▁luxurious	-12710
Pay	-12711
▁High	-12712
▁orig	-12713
▁rumm	-12714
▁sauc	-12715
▁Cross	-12716
▁Cubey	-12717
▁bulls	-12718
▁perch	-12719
▁trays	-12720
▁Having	-12721
▁Rubber	-12722
▁ballet	-12723
▁cocked	-12724
▁option	-12725
▁radios	-12726
▁Pickles	-12727
▁spatula	-12728
▁sunburn	-12729
Excitedly	-12730
▁bedrooms	-12731
▁chimneys	-12732
▁collapse	-12733
▁homemade	-12734
▁sweating	-12735
Arr	-12736
Inc	-12737
hot	-12738
tles	-12739
▁Paw	-12740
▁hyd	-12741
▁East	-12742
▁cock	-12743
▁amuse	-12744
▁forty	-12745
▁rhyme	-12746
▁surge	-12747
▁Turkey	-12748
▁greens	-12749
▁critter	-12750
▁scoring	-12751
▁skating	-12752
▁vendors	-12753
▁Dinosaur	-12754
▁stumbles	-12755
▁whooshing	-12756
AA	-12757
Ke	-12758
ji	-12759
axi	-12760
lli	-12761
tac	-12762
Emmy	-12763
Todd	-12764
Marry	-12765
ifted	-12766
ancing	-12767
▁splin	-12768
▁stead	-12769
ulously	-12770
▁begins	-12771
▁trades	-12772
▁watery	-12773
▁Harriet	-12774
▁clamber	-12775
▁copying	-12776
▁parades	-12777
▁scrapes	-12778
shadowing	-12779
▁insistent	-12780
▁Rhinoceros	-12781
▁chattering	-12782
Pee	-12783
hop	-12784
Wink	-12785
test	-12786
▁Nod	-12787
▁laz	-12788
▁sup	-12789
Birds	-12790
Bring	-12791
CRASH	-12792
▁Aren	-12793
▁Snee	-12794
▁Sour	-12795
▁cork	-12796
Farmer	-12797
making	-12798
▁Pippy	-12799
▁Smile	-12800
▁strut	-12801
Despite	-12802
Feeling	-12803
▁rinses	-12804
▁fulfill	-12805
▁sunbeam	-12806
▁birdseed	-12807
▁snarling	-12808
▁traveler	-12809
▁underest	-12810
▁whirring	-12811
▁childhood	-12812
▁cornfield	-12813
▁considered	-12814
▁protective	-12815
bag	-12816
eze	-12817
rop	-12818
iged	-12819
▁Far	-12820
Becky	-12821
arney	-12822
▁Foot	-12823
▁rhym	-12824
▁Jesse	-12825
▁Lions	-12826
▁Petal	-12827
▁blind	-12828
▁fifth	-12829
▁flush	-12830
▁puffy	-12831
▁Juliet	-12832
▁direct	-12833
▁meanie	-12834
▁yanked	-12835
▁admires	-12836
▁Confused	-12837
▁squeaking	-12838
▁storybook	-12839
fr	-12840
Bun	-12841
ata	-12842
bies	-12843
izmo	-12844
▁Dark	-12845
▁Theo	-12846
▁Celia	-12847
▁Pilot	-12848
▁Throw	-12849
▁Barber	-12850
▁Cloudy	-12851
▁Kaylee	-12852
▁bullet	-12853
▁remark	-12854
▁volunt	-12855
▁yachts	-12856
▁echoing	-12857
▁flopped	-12858
▁arriving	-12859
▁collects	-12860
▁journals	-12861
▁Stephanie	-12862
▁uncertain	-12863
▁cigarettes	-12864
Kip	-12865
olk	-12866
tie	-12867
▁ko	-12868
▁Net	-12869
▁arc	-12870
aging	-12871
▁Nemo	-12872
▁conso	-12873
▁curse	-12874
▁dates	-12875
▁death	-12876
▁newly	-12877
▁postc	-12878
▁Friday	-12879
▁Samuel	-12880
▁braids	-12881
▁donate	-12882
▁enters	-12883
▁fighters	-12884
▁greeting	-12885
▁sprinted	-12886
▁stroking	-12887
▁screeched	-12888
▁suggesting	-12889
Gas	-12890
anas	-12891
wing	-12892
ament	-12893
raser	-12894
▁Hard	-12895
▁gaps	-12896
▁reel	-12897
▁tags	-12898
number	-12899
▁Muffy	-12900
▁boost	-12901
▁grave	-12902
▁silky	-12903
History	-12904
Rainbow	-12905
▁Avocado	-12906
▁grownup	-12907
▁wizards	-12908
▁quarrelling	-12909
Eva	-12910
Swim	-12911
Wise	-12912
▁Bes	-12913
▁Cup	-12914
▁Tag	-12915
▁som	-12916
▁Indy	-12917
▁Scar	-12918
▁rent	-12919
▁Agnes	-12920
▁Stars	-12921
▁demon	-12922
▁trace	-12923
▁Walter	-12924
▁layers	-12925
▁prepar	-12926
▁wilder	-12927
▁benefit	-12928
▁funnier	-12929
▁hobbies	-12930
▁obliged	-12931
▁Original	-12932
▁Wherever	-12933
▁betrayed	-12934
▁achieving	-12935
▁clipboard	-12936
ows	-12937
▁ic	-12938
tyle	-12939
▁Mei	-12940
▁Reg	-12941
▁cit	-12942
emons	-12943
▁Juan	-12944
Amanda	-12945
belief	-12946
whoosh	-12947
▁Chalk	-12948
▁Learn	-12949
osquito	-12950
▁Fridge	-12951
▁Sharky	-12952
ctopuses	-12953
▁anyways	-12954
▁cookout	-12955
▁fingert	-12956
▁Standing	-12957
▁playmate	-12958
▁Adventure	-12959
▁amusement	-12960
▁apartment	-12961
▁difficulty	-12962
AP	-12963
ja	-12964
nut	-12965
?"."	-12966
Drop	-12967
Life	-12968
wear	-12969
▁tut	-12970
▁Cand	-12971
▁Cleo	-12972
▁Four	-12973
▁Lara	-12974
▁Paint	-12975
▁Windy	-12976
▁swell	-12977
▁tiles	-12978
▁whirl	-12979
▁smarts	-12980
▁wildly	-12981
iversary	-12982
▁Sweetie	-12983
▁existed	-12984
▁sighing	-12985
▁uncover	-12986
uliflower	-12987
▁clicking	-12988
▁persuade	-12989
▁villager	-12990
▁villains	-12991
▁Butterfly	-12992
▁regretful	-12993
▁cooperative	-12994
NO	-12995
tweet	-12996
▁cann	-12997
▁ruby	-12998
▁stab	-12999
minded	-13000
▁Guppy	-13001
▁beats	-13002
▁canes	-13003
▁crump	-13004
▁mango	-13005
▁rakes	-13006
▁fondly	-13007
▁spoilt	-13008
▁rejoiced	-13009
▁Surprised	-13010
Gl	-13011
mi	-13012
▁jay	-13013
nness	-13014
▁Abbi	-13015
▁Home	-13016
▁Wild	-13017
▁axes	-13018
Enough	-13019
▁Mixer	-13020
▁Paige	-13021
▁tangy	-13022
verance	-13023
▁Miranda	-13024
▁hairsty	-13025
▁scooted	-13026
▁shyness	-13027
▁tougher	-13028
▁unscrew	-13029
▁drifting	-13030
▁mastered	-13031
▁gentleman	-13032
▁preferred	-13033
▁Surprisingly	-13034
Six	-13035
ima	-13036
Exit	-13037
Math	-13038
▁Jog	-13039
Puppy	-13040
▁kern	-13041
▁kiwi	-13042
▁Claws	-13043
▁Pasta	-13044
behaved	-13045
brushes	-13046
▁fruity	-13047
▁mopped	-13048
▁squirm	-13049
▁superp	-13050
▁Pumpkin	-13051
▁carrier	-13052
▁lioness	-13053
▁needing	-13054
▁parting	-13055
▁threats	-13056
▁Beatrice	-13057
▁demonstr	-13058
▁rattling	-13059
▁Different	-13060
▁Priscilla	-13061
▁thousands	-13062
bear	-13063
▁Spl	-13064
▁gal	-13065
Could	-13066
crumb	-13067
irley	-13068
▁fizz	-13069
▁loaf	-13070
Change	-13071
iously	-13072
ricket	-13073
▁Blood	-13074
▁chant	-13075
▁swish	-13076
retched	-13077
▁Dreams	-13078
▁Reggie	-13079
▁Repeat	-13080
▁adjust	-13081
▁kettle	-13082
▁sauces	-13083
▁tidier	-13084
▁Contest	-13085
▁blouses	-13086
▁despair	-13087
▁pouting	-13088
▁trainer	-13089
▁visible	-13090
▁suitable	-13091
▁glimmered	-13092
▁photograp	-13093
▁Caterpillar	-13094
▁perseverance	-13095
Ju	-13096
baa	-13097
▁kil	-13098
▁poo	-13099
Bravo	-13100
▁Barb	-13101
▁Fine	-13102
splash	-13103
▁Aaron	-13104
▁Dolph	-13105
▁Ducks	-13106
▁Misty	-13107
▁citiz	-13108
Tonight	-13109
ornness	-13110
▁hopper	-13111
▁litter	-13112
▁somers	-13113
▁streak	-13114
▁wailed	-13115
▁waists	-13116
▁Smiling	-13117
▁compost	-13118
▁handled	-13119
Charlotte	-13120
▁Sparkles	-13121
▁fanciest	-13122
▁Spaghetti	-13123
▁disbelief	-13124
▁breadcrumb	-13125
Min	-13126
Off	-13127
Clap	-13128
beat	-13129
pole	-13130
▁Ind	-13131
▁ens	-13132
Again	-13133
Johny	-13134
Megan	-13135
▁Dove	-13136
▁inqu	-13137
Auntie	-13138
▁Bobbi	-13139
▁Stacy	-13140
▁chief	-13141
▁Leaves	-13142
▁Lizard	-13143
▁surfers	-13144
▁Madeline	-13145
▁combination	-13146
▁impatiently	-13147
▁announcement	-13148
▁recommending	-13149
Roo	-13150
knob	-13151
ruck	-13152
Gabby	-13153
Kelly	-13154
spell	-13155
▁Buck	-13156
▁Face	-13157
▁Fold	-13158
▁mini	-13159
▁pier	-13160
▁Heart	-13161
▁outst	-13162
▁stash	-13163
▁trous	-13164
▁detail	-13165
▁igloos	-13166
▁overhe	-13167
▁Fireman	-13168
▁Knowing	-13169
▁capable	-13170
▁coaster	-13171
▁jingled	-13172
▁blessing	-13173
▁faithful	-13174
▁juggling	-13175
▁mermaids	-13176
▁provides	-13177
▁waitress	-13178
university	-13179
▁Somewhere	-13180
▁grumpiness	-13181
▁experiments	-13182
Pig	-13183
▁du	-13184
occo	-13185
▁bay	-13186
ander	-13187
chors	-13188
▁sobs	-13189
▁Dance	-13190
▁Woody	-13191
▁areas	-13192
▁picky	-13193
Warning	-13194
entions	-13195
▁Anchor	-13196
▁Prunes	-13197
Elephant	-13198
▁Annabel	-13199
▁drummer	-13200
▁whirled	-13201
▁dazzling	-13202
▁doorknob	-13203
▁gleefully	-13204
▁reindeers	-13205
▁thankfully	-13206
▁outstretched	-13207
▁photographer	-13208
▁stubbornness	-13209
Wind	-13210
lude	-13211
roll	-13212
▁Set	-13213
Patty	-13214
orget	-13215
▁Roly	-13216
▁moss	-13217
ananas	-13218
jected	-13219
▁Dolls	-13220
▁camps	-13221
▁dumps	-13222
alities	-13223
grandma	-13224
▁Lillie	-13225
▁Squash	-13226
▁tumble	-13227
▁closets	-13228
▁product	-13229
▁sibling	-13230
▁normally	-13231
▁trousers	-13232
▁Gradually	-13233
▁sheepishly	-13234
▁anniversary	-13235
ST	-13236
ali	-13237
law	-13238
zer	-13239
▁Ly	-13240
Cari	-13241
Stri	-13242
Chewy	-13243
novel	-13244
▁Beet	-13245
▁fres	-13246
▁hens	-13247
Daniel	-13248
danger	-13249
▁Donny	-13250
▁Peppy	-13251
▁ruins	-13252
▁Poison	-13253
▁injury	-13254
▁longed	-13255
▁grunted	-13256
▁Thinking	-13257
▁quarrels	-13258
▁slippers	-13259
▁persisted	-13260
▁recognised	-13261
▁remarkable	-13262
▁compliments	-13263
Wr	-13264
▁.	-13265
?''	-13266
Har	-13267
Rub	-13268
nor	-13269
yum	-13270
Phil	-13271
▁Tam	-13272
Jelly	-13273
Lenny	-13274
iggle	-13275
sized	-13276
▁Cord	-13277
▁Karl	-13278
▁Lacy	-13279
ertime	-13280
▁Ginny	-13281
▁Relax	-13282
▁Thumb	-13283
▁glory	-13284
▁punch	-13285
▁Cassie	-13286
▁tulips	-13287
▁bullets	-13288
▁emptied	-13289
▁greener	-13290
▁mopping	-13291
▁rounded	-13292
▁Isabelle	-13293
▁cheetahs	-13294
▁critters	-13295
▁poisoned	-13296
▁sideways	-13297
▁squawking	-13298
grow	-13299
▁Cee	-13300
Ricky	-13301
Truck	-13302
▁Craw	-13303
▁requ	-13304
Number	-13305
▁Kippy	-13306
▁blues	-13307
▁sixty	-13308
▁snows	-13309
Rebecca	-13310
▁Lawyer	-13311
▁youths	-13312
▁Crabbie	-13313
▁insides	-13314
▁shivers	-13315
▁sensible	-13316
▁windmill	-13317
auliflower	-13318
orgettable	-13319
▁Listening	-13320
▁colouring	-13321
▁thrilling	-13322
▁recommendations	-13323
Ra	-13324
pon	-13325
▁ye	-13326
Mint	-13327
rrrr	-13328
Candy	-13329
Dance	-13330
asons	-13331
▁Oaky	-13332
▁garl	-13333
▁mult	-13334
Biggie	-13335
▁Trunk	-13336
▁pawed	-13337
▁Philip	-13338
▁disres	-13339
▁droopy	-13340
▁policy	-13341
▁tighten	-13342
▁wriggle	-13343
▁drumming	-13344
▁diligently	-13345
Hot	-13346
Mila	-13347
▁Pal	-13348
Roger	-13349
Spray	-13350
shake	-13351
umbly	-13352
▁BEEP	-13353
▁Dawn	-13354
▁mash	-13355
▁unra	-13356
Oxygen	-13357
▁bared	-13358
▁brief	-13359
▁plugs	-13360
▁ponds	-13361
▁rushes	-13362
▁safest	-13363
▁Network	-13364
▁chugged	-13365
▁outdoor	-13366
▁directly	-13367
▁distress	-13368
▁assistant	-13369
▁attracted	-13370
▁dandelion	-13371
▁recordings	-13372
▁roundabout	-13373
▁Grandmother	-13374
▁breadcrumbs	-13375
▁unforgettable	-13376
Peek	-13377
lete	-13378
toot	-13379
▁Gri	-13380
▁gad	-13381
▁sis	-13382
Speed	-13383
▁Addy	-13384
▁Cody	-13385
▁Hopp	-13386
▁Marc	-13387
▁foil	-13388
▁sixt	-13389
orothy	-13390
▁Neigh	-13391
▁eerie	-13392
▁Mollie	-13393
▁sizzle	-13394
▁Squeezy	-13395
▁blended	-13396
▁diaries	-13397
▁suppose	-13398
Surprised	-13399
▁Painting	-13400
▁coolness	-13401
▁fastened	-13402
▁scribble	-13403
▁sledding	-13404
▁clambered	-13405
▁octopuses	-13406
▁lighthouse	-13407
▁moderation	-13408
▁paramedics	-13409
▁suggestions	-13410
rip	-13411
Judy	-13412
Sing	-13413
erek	-13414
▁neg	-13415
▁Lill	-13416
▁Seal	-13417
Gracie	-13418
alance	-13419
▁ambit	-13420
▁cleve	-13421
▁plump	-13422
▁Connie	-13423
▁draped	-13424
▁looped	-13425
▁Allowed	-13426
▁anchors	-13427
▁guiding	-13428
Chocolate	-13429
▁teammates	-13430
▁unplugged	-13431
▁meaningful	-13432
▁slithering	-13433
▁summertime	-13434
Kit	-13435
inn	-13436
ole	-13437
Lina	-13438
gedy	-13439
urly	-13440
▁Jem	-13441
▁jig	-13442
▁nug	-13443
Barky	-13444
▁Nico	-13445
ionate	-13446
ricanes	-13447
▁Barney	-13448
▁Miller	-13449
▁MooMoo	-13450
▁adored	-13451
▁hooted	-13452
▁mixers	-13453
▁prized	-13454
▁volume	-13455
▁Shirley	-13456
▁survived	-13457
▁gardeners	-13458
▁mechanics	-13459
▁squealing	-13460
▁tiredness	-13461
NAP	-13462
Ron	-13463
arch	-13464
isha	-13465
▁Pri	-13466
Jason	-13467
iguel	-13468
▁crad	-13469
▁lays	-13470
▁plea	-13471
▁snoo	-13472
Gotcha	-13473
scapes	-13474
▁Pilly	-13475
▁boing	-13476
▁buyer	-13477
▁drunk	-13478
▁spout	-13479
▁tulip	-13480
ergency	-13481
▁Pillow	-13482
▁Trying	-13483
▁washer	-13484
ightened	-13485
▁session	-13486
▁Counting	-13487
▁croaking	-13488
▁Fireworks	-13489
▁someplace	-13490
▁tornadoes	-13491
▁encourages	-13492
▁approaching	-13493
▁Congratulations	-13494
LA	-13495
arr	-13496
omi	-13497
Bert	-13498
iffy	-13499
oses	-13500
▁Aly	-13501
Twist	-13502
erald	-13503
ereal	-13504
owner	-13505
▁alas	-13506
▁alph	-13507
Frosty	-13508
lessly	-13509
otions	-13510
▁moose	-13511
fashion	-13512
▁Eraser	-13513
▁Forest	-13514
▁eldest	-13515
▁bleated	-13516
▁pasture	-13517
▁peeling	-13518
▁shooter	-13519
▁cactuses	-13520
▁imagines	-13521
▁Especially	-13522
Tia	-13523
sun	-13524
Dodo	-13525
raph	-13526
▁Bud	-13527
▁Hay	-13528
▁Pan	-13529
▁Glue	-13530
▁Hide	-13531
▁wary	-13532
Dinner	-13533
▁Tutor	-13534
▁dents	-13535
▁galax	-13536
▁swarm	-13537
osaurus	-13538
▁splits	-13539
▁limping	-13540
▁campsite	-13541
▁dangling	-13542
▁emotions	-13543
▁searches	-13544
▁cooperation	-13545
itz	-13546
abet	-13547
aley	-13548
▁Gun	-13549
Eddie	-13550
Peace	-13551
Shake	-13552
ottie	-13553
▁Cole	-13554
▁Pige	-13555
▁pred	-13556
angles	-13557
▁Crazy	-13558
▁Gizmo	-13559
▁Pengu	-13560
▁beams	-13561
▁mower	-13562
▁slows	-13563
because	-13564
▁BaaBaa	-13565
▁barbers	-13566
▁console	-13567
▁feature	-13568
▁pathway	-13569
▁yogurts	-13570
Annabelle	-13571
▁eagerness	-13572
▁fingertips	-13573
▁landscapes	-13574
▁whimpering	-13575
uiz	-13576
Eric	-13577
Spid	-13578
Step	-13579
acht	-13580
alie	-13581
four	-13582
▁Bon	-13583
▁vig	-13584
ively	-13585
▁Draw	-13586
▁erra	-13587
▁imit	-13588
▁swer	-13589
Skelly	-13590
orting	-13591
▁Genie	-13592
▁Pingo	-13593
▁Sauce	-13594
▁Style	-13595
▁Train	-13596
▁Trudy	-13597
▁crows	-13598
▁oohed	-13599
license	-13600
▁Blocks	-13601
▁Isabel	-13602
▁Lastly	-13603
▁Sheila	-13604
▁Tigger	-13605
▁fished	-13606
▁flicked	-13607
▁grasped	-13608
Everybody	-13609
asketball	-13610
▁pleading	-13611
▁beekeeper	-13612
▁detectives	-13613
▁speechless	-13614
for	-13615
igo	-13616
Pull	-13617
zzle	-13618
▁Blu	-13619
▁Rec	-13620
March	-13621
irror	-13622
usage	-13623
▁Dust	-13624
▁vain	-13625
▁Bears	-13626
▁inser	-13627
ophones	-13628
▁Doughy	-13629
▁Sylvia	-13630
▁lowest	-13631
▁opener	-13632
▁parach	-13633
▁fortune	-13634
▁obvious	-13635
▁reasons	-13636
▁richest	-13637
▁Teaspoon	-13638
▁alphabet	-13639
▁menacing	-13640
▁helplessly	-13641
▁underestimate	-13642
ini	-13643
ule	-13644
Cats	-13645
acon	-13646
pher	-13647
roar	-13648
▁Pin	-13649
liest	-13650
▁Cory	-13651
▁Mack	-13652
▁Mika	-13653
▁asse	-13654
▁prec	-13655
▁prey	-13656
▁Salad	-13657
▁Sissy	-13658
▁Wanna	-13659
▁grade	-13660
▁koala	-13661
▁memor	-13662
▁torch	-13663
William	-13664
▁Bitter	-13665
▁Callie	-13666
▁Trusty	-13667
▁bakers	-13668
▁ravens	-13669
▁wisest	-13670
▁Anytime	-13671
▁smeared	-13672
▁prisoner	-13673
▁woodland	-13674
▁farmhouse	-13675
▁obedience	-13676
▁permitting	-13677
▁comfortably	-13678
CK	-13679
sk	-13680
Ali	-13681
zzz	-13682
Elsa	-13683
Mona	-13684
ROAR	-13685
Stan	-13686
agon	-13687
izer	-13688
rows	-13689
▁Rat	-13690
Patch	-13691
▁Also	-13692
▁Elli	-13693
▁Fake	-13694
▁gown	-13695
Shadow	-13696
▁Garry	-13697
▁Socks	-13698
▁potty	-13699
▁Clucky	-13700
▁sundae	-13701
▁craziest	-13702
▁inserted	-13703
▁marrying	-13704
▁cigarette	-13705
'!	-13706
Jax	-13707
Pol	-13708
aila	-13709
down	-13710
▁Arm	-13711
Knock	-13712
catch	-13713
enter	-13714
idget	-13715
ooped	-13716
▁Cray	-13717
▁Nala	-13718
▁Town	-13719
▁numb	-13720
▁Aiden	-13721
▁Touch	-13722
▁cance	-13723
▁latch	-13724
▁total	-13725
▁Frisky	-13726
▁badges	-13727
▁boldly	-13728
▁finder	-13729
▁glance	-13730
▁outrun	-13731
▁Georgie	-13732
▁conquer	-13733
▁whizzed	-13734
▁believes	-13735
▁crumbled	-13736
▁handfuls	-13737
▁speckled	-13738
▁wonderland	-13739
Nora	-13740
aunt	-13741
azel	-13742
hony	-13743
▁Ser	-13744
▁coz	-13745
Amber	-13746
stery	-13747
▁Game	-13748
▁Neck	-13749
▁Push	-13750
▁Tall	-13751
Almost	-13752
▁Lunch	-13753
▁Nikki	-13754
▁Shiny	-13755
▁elves	-13756
rinkles	-13757
▁Choose	-13758
▁Snappy	-13759
▁heeded	-13760
▁pauses	-13761
▁scraps	-13762
▁shoved	-13763
▁Melinda	-13764
▁cockpit	-13765
▁grizzly	-13766
▁trained	-13767
▁whimper	-13768
▁sprouted	-13769
▁stressed	-13770
▁appearing	-13771
▁sharpened	-13772
▁sprinkler	-13773
▁stitching	-13774
▁skateboard	-13775
▁measurements	-13776
Was	-13777
bowl	-13778
▁mmm	-13779
▁ome	-13780
▁tad	-13781
Helen	-13782
etern	-13783
somet	-13784
▁Part	-13785
▁clang	-13786
▁Dancer	-13787
▁Needle	-13788
▁Whippy	-13789
▁uneven	-13790
▁boredom	-13791
▁chuckle	-13792
▁majesty	-13793
▁Surprise	-13794
▁scatters	-13795
▁wildlife	-13796
▁longingly	-13797
Ty	-13798
Dogs	-13799
Long	-13800
aaah	-13801
lend	-13802
▁Des	-13803
▁imm	-13804
▁jer	-13805
Janey	-13806
Kevin	-13807
eggie	-13808
idden	-13809
▁Bury	-13810
▁Sari	-13811
▁avail	-13812
▁etern	-13813
▁clicks	-13814
▁tackle	-13815
▁crafted	-13816
▁divided	-13817
▁flicker	-13818
▁flushed	-13819
ependable	-13820
▁bustling	-13821
▁shutting	-13822
▁smashing	-13823
▁tricking	-13824
▁upcoming	-13825
▁Afterward	-13826
▁rainwater	-13827
Aha	-13828
BOOM	-13829
Fore	-13830
Jojo	-13831
anya	-13832
aves	-13833
ench	-13834
toed	-13835
▁tit	-13836
▁Jada	-13837
▁rosy	-13838
▁rung	-13839
▁Bongo	-13840
▁Diane	-13841
▁minty	-13842
▁tacos	-13843
reckles	-13844
▁beaten	-13845
▁Besides	-13846
▁Cooking	-13847
▁Mailman	-13848
▁juggled	-13849
dangerous	-13850
▁citizens	-13851
▁crumpled	-13852
▁scariest	-13853
▁calendars	-13854
▁ringmaster	-13855
ham	-13856
see	-13857
affy	-13858
lett	-13859
▁Gum	-13860
▁Ten	-13861
▁Bike	-13862
▁Cowy	-13863
▁Shop	-13864
▁symp	-13865
▁virt	-13866
▁wilt	-13867
▁Going	-13868
▁alike	-13869
▁brist	-13870
▁ramps	-13871
▁whips	-13872
artment	-13873
▁passer	-13874
▁storyt	-13875
▁Sabrina	-13876
▁behaves	-13877
▁snuggly	-13878
▁trimmed	-13879
▁Microphone	-13880
Aww	-13881
ems	-13882
six	-13883
Mart	-13884
gent	-13885
▁Gab	-13886
Neigh	-13887
Shall	-13888
Shoot	-13889
ydney	-13890
▁laps	-13891
▁micr	-13892
▁oval	-13893
Shelly	-13894
▁Ghost	-13895
▁Oasis	-13896
▁occur	-13897
▁Brandy	-13898
▁client	-13899
▁jiggle	-13900
▁sawing	-13901
Fighting	-13902
▁Napping	-13903
▁tragedy	-13904
▁cultures	-13905
▁splinter	-13906
▁steadily	-13907
▁ambulances	-13908
bbit	-13909
care	-13910
ping	-13911
▁Bab	-13912
▁Hen	-13913
Fetch	-13914
chant	-13915
erous	-13916
icity	-13917
obble	-13918
▁Dale	-13919
▁Page	-13920
▁Sign	-13921
Strike	-13922
▁Brady	-13923
▁farmy	-13924
▁Faster	-13925
▁Jeffrey	-13926
▁shoebox	-13927
▁spelled	-13928
▁frighten	-13929
▁incident	-13930
▁villages	-13931
▁arranging	-13932
▁overheard	-13933
▁disrespect	-13934
▁outsmarted	-13935
▁microphones	-13936
Brr	-13937
THE	-13938
mit	-13939
aomi	-13940
blue	-13941
mary	-13942
▁bol	-13943
▁huh	-13944
Cluck	-13945
Rufus	-13946
ircus	-13947
udges	-13948
▁Hoop	-13949
▁Yuck	-13950
▁cham	-13951
▁fain	-13952
Louise	-13953
▁Mitch	-13954
▁layed	-13955
▁repay	-13956
▁Crocky	-13957
▁finest	-13958
▁mumbled	-13959
▁Mosquito	-13960
▁farmyard	-13961
▁pedalling	-13962
▁policemen	-13963
▁basketballs	-13964
▁disturbance	-13965
Gary	-13966
Rosa	-13967
uiet	-13968
Gerry	-13969
Mindy	-13970
essor	-13971
▁Puzz	-13972
▁Rice	-13973
asting	-13974
udying	-13975
▁Roary	-13976
▁lolly	-13977
▁attend	-13978
▁festiv	-13979
kerchief	-13980
▁Belinda	-13981
▁arrival	-13982
▁faucets	-13983
▁immense	-13984
▁punched	-13985
▁variety	-13986
▁wetness	-13987
▁Happiness	-13988
▁underwear	-13989
▁recognizing	-13990
▁handkerchief	-13991
gh	-13992
hoo	-13993
Dina	-13994
ilia	-13995
vere	-13996
▁Saf	-13997
ippee	-13998
maybe	-13999
nique	-14000
spicy	-14001
▁Grey	-14002
▁Knot	-14003
▁coax	-14004
▁eyeb	-14005
▁joys	-14006
Cheers	-14007
Father	-14008
▁Trina	-14009
▁plums	-14010
▁evenly	-14011
▁pickle	-14012
▁porcup	-14013
▁nuggets	-14014
▁roasted	-14015
▁various	-14016
▁swallows	-14017
▁profession	-14018
▁splattered	-14019
▁zigzagging	-14020
▁apologizing	-14021
▁Disappointed	-14022
Hoo	-14023
tre	-14024
Robo	-14025
baby	-14026
cuff	-14027
lesh	-14028
orky	-14029
otor	-14030
▁Sat	-14031
▁Toe	-14032
▁bob	-14033
▁ooh	-14034
quack	-14035
ucted	-14036
▁Cece	-14037
▁Said	-14038
▁brim	-14039
▁poll	-14040
▁Rocco	-14041
▁Steak	-14042
▁Steam	-14043
▁Terri	-14044
▁booms	-14045
▁curry	-14046
▁flesh	-14047
▁sawed	-14048
pitched	-14049
▁Baking	-14050
▁Beetle	-14051
▁Nation	-14052
▁madder	-14053
▁pumped	-14054
▁sensed	-14055
▁Ancient	-14056
▁peering	-14057
▁produce	-14058
disappear	-14059
▁Exercise	-14060
▁handcuff	-14061
▁matchbox	-14062
▁replying	-14063
ispy	-14064
ivid	-14065
▁Sel	-14066
▁rum	-14067
Snake	-14068
Tessa	-14069
antic	-14070
▁Kari	-14071
▁Lula	-14072
▁Plan	-14073
▁frol	-14074
ribbit	-14075
▁Curly	-14076
▁Slide	-14077
▁Snail	-14078
▁baaed	-14079
▁clasp	-14080
▁ditch	-14081
▁exist	-14082
▁haunt	-14083
▁Clover	-14084
▁mooing	-14085
▁newest	-14086
▁rounds	-14087
▁territ	-14088
▁therap	-14089
▁tosses	-14090
▁Reverse	-14091
▁failure	-14092
▁sparked	-14093
▁bristles	-14094
▁fishbowl	-14095
▁recently	-14096
▁shoelaces	-14097
▁hurricanes	-14098
▁construction	-14099
Tag	-14100
Boat	-14101
Liza	-14102
ishy	-14103
know	-14104
ller	-14105
nine	-14106
ylie	-14107
▁Log	-14108
Sasha	-14109
Willy	-14110
owled	-14111
seven	-14112
▁Corn	-14113
▁Lego	-14114
▁Sand	-14115
▁cack	-14116
▁hasn	-14117
▁pure	-14118
Prince	-14119
▁Elisa	-14120
▁Grape	-14121
▁Maggy	-14122
▁Yacht	-14123
▁posed	-14124
Brother	-14125
Through	-14126
Thunder	-14127
▁virtue	-14128
peration	-14129
▁Dorothy	-14130
▁Fashion	-14131
▁Sausage	-14132
▁Scruffy	-14133
▁kernels	-14134
▁massive	-14135
▁toddled	-14136
▁engineer	-14137
▁smoothie	-14138
Ta	-14139
Eliz	-14140
Tick	-14141
ires	-14142
word	-14143
▁Ham	-14144
▁tur	-14145
Brian	-14146
Judge	-14147
Order	-14148
green	-14149
▁Honk	-14150
▁Snip	-14151
▁dart	-14152
▁Otter	-14153
▁shove	-14154
▁waggy	-14155
ization	-14156
▁fellow	-14157
▁golfer	-14158
▁juices	-14159
▁ninety	-14160
▁sugary	-14161
▁sulked	-14162
▁tiptoe	-14163
▁battles	-14164
▁coldest	-14165
▁tipping	-14166
▁cowgirls	-14167
▁pressure	-14168
▁strutted	-14169
▁waddling	-14170
▁encounter	-14171
▁flickered	-14172
▁gentlemen	-14173
▁seatbelts	-14174
▁billboards	-14175
▁boundaries	-14176
▁replacement	-14177
Ign	-14178
Kay	-14179
Ria	-14180
Bess	-14181
apon	-14182
umbo	-14183
▁Ber	-14184
▁Ear	-14185
▁Lew	-14186
▁Sec	-14187
▁dew	-14188
▁rev	-14189
Mamma	-14190
Riley	-14191
agged	-14192
armed	-14193
▁Amie	-14194
▁vows	-14195
Muffin	-14196
▁Carty	-14197
▁Clock	-14198
▁Power	-14199
▁slope	-14200
▁Knives	-14201
▁judged	-14202
▁English	-14203
▁harbour	-14204
▁collector	-14205
▁dashboard	-14206
▁hummingbird	-14207
Doll	-14208
Honk	-14209
ific	-14210
rett	-14211
cling	-14212
ordan	-14213
▁Lazy	-14214
▁brow	-14215
▁tutu	-14216
▁Casey	-14217
▁Chair	-14218
▁Kimmy	-14219
▁Mario	-14220
▁Meena	-14221
▁Mirac	-14222
▁cools	-14223
▁leafy	-14224
Freddie	-14225
Sweetie	-14226
▁Connor	-14227
▁neighs	-14228
▁Chicken	-14229
▁Giggles	-14230
▁Tonight	-14231
▁buttery	-14232
▁itching	-14233
▁slowing	-14234
▁captains	-14235
▁evenings	-14236
▁swingset	-14237
▁whistler	-14238
▁Blueberry	-14239
▁fortunate	-14240
▁porcupine	-14241
▁smoothness	-14242
sel	-14243
irus	-14244
slap	-14245
▁Cam	-14246
eight	-14247
tract	-14248
▁Grab	-14249
▁Plus	-14250
▁Roll	-14251
▁brat	-14252
▁phra	-14253
▁Benji	-14254
▁Franc	-14255
▁Itchy	-14256
▁Piney	-14257
▁hiked	-14258
▁limit	-14259
▁tourn	-14260
▁Riding	-14261
▁Sharks	-14262
▁camels	-14263
▁latest	-14264
▁nailed	-14265
▁supper	-14266
▁bedside	-14267
▁illness	-14268
▁seventy	-14269
▁untwist	-14270
▁Children	-14271
▁Swimming	-14272
▁chambers	-14273
▁smoothed	-14274
▁speakers	-14275
▁judgement	-14276
▁extinguisher	-14277
di	-14278
Boy	-14279
lie	-14280
acam	-14281
oray	-14282
▁Jed	-14283
▁gig	-14284
▁gur	-14285
▁Dean	-14286
▁Fair	-14287
Animal	-14288
achine	-14289
ealing	-14290
▁Pitch	-14291
▁maths	-14292
▁veils	-14293
acamole	-14294
ractice	-14295
▁Miguel	-14296
▁Smelly	-14297
▁alarms	-14298
▁attent	-14299
▁beings	-14300
▁bumble	-14301
▁eighty	-14302
▁omelet	-14303
▁purses	-14304
▁darkest	-14305
▁escapes	-14306
▁scanned	-14307
▁Spinning	-14308
▁avoiding	-14309
▁hesitate	-14310
▁squashed	-14311
▁tinkling	-14312
▁footballs	-14313
▁chessboard	-14314
cum	-14315
zel	-14316
▁SP	-14317
Herb	-14318
uter	-14319
istic	-14320
▁Luca	-14321
▁Oats	-14322
▁Swan	-14323
▁boop	-14324
▁chem	-14325
▁core	-14326
▁Hooty	-14327
▁Swans	-14328
▁polit	-14329
▁Lotion	-14330
▁Police	-14331
▁Slippy	-14332
▁manner	-14333
▁scenes	-14334
▁applied	-14335
▁coconuts	-14336
▁fearless	-14337
▁markings	-14338
▁guacamole	-14339
▁rainstorm	-14340
▁territory	-14341
▁intentions	-14342
▁hy	-14343
Mole	-14344
Navy	-14345
Roll	-14346
▁Tea	-14347
Bingo	-14348
arium	-14349
▁Tape	-14350
Yellow	-14351
irteen	-14352
▁Fancy	-14353
▁Lucie	-14354
▁Rocko	-14355
▁Steel	-14356
▁award	-14357
▁girly	-14358
▁treet	-14359
▁Mattie	-14360
▁Pebble	-14361
▁Sharon	-14362
▁Stripe	-14363
▁locket	-14364
▁proven	-14365
▁weakly	-14366
▁grilled	-14367
▁savored	-14368
▁shifted	-14369
▁spectac	-14370
Disappear	-14371
▁Bouncing	-14372
▁calmness	-14373
▁flitting	-14374
▁furthest	-14375
▁scowling	-14376
▁everytime	-14377
▁reception	-14378
Cr	-14379
ga	-14380
?'"	-14381
Lad	-14382
eee	-14383
Beef	-14384
Bees	-14385
amps	-14386
ierre	-14387
▁Lean	-14388
▁crop	-14389
▁rese	-14390
eteria	-14391
▁Acorn	-14392
▁Derek	-14393
▁ident	-14394
▁kilos	-14395
pensive	-14396
▁French	-14397
▁Gently	-14398
▁Humble	-14399
▁Success	-14400
▁fancier	-14401
▁gadgets	-14402
▁seesaws	-14403
knowingly	-14404
nightmare	-14405
▁Whatever	-14406
▁doghouse	-14407
▁rhinocer	-14408
▁interrupt	-14409
▁Butterflies	-14410
▁spectacular	-14411
Fle	-14412
ene	-14413
▁Ah	-14414
Ever	-14415
Jean	-14416
imid	-14417
▁cav	-14418
rence	-14419
▁Book	-14420
▁Sold	-14421
innied	-14422
▁Hours	-14423
▁Micky	-14424
▁Wheat	-14425
▁docum	-14426
▁frees	-14427
▁Clouds	-14428
▁Oyster	-14429
▁cooing	-14430
▁jewell	-14431
▁noodle	-14432
▁spiral	-14433
▁ticked	-14434
Lemonade	-14435
▁Ladybug	-14436
▁intimid	-14437
▁keepers	-14438
Excellent	-14439
▁features	-14440
▁predator	-14441
▁stamping	-14442
▁whinnied	-14443
▁cafeteria	-14444
▁mightiest	-14445
▁Basketball	-14446
▁Dependable	-14447
Hmmm	-14448
April	-14449
Cloud	-14450
Tyler	-14451
cloud	-14452
▁saws	-14453
nknown	-14454
▁Georg	-14455
▁Sully	-14456
▁Woofy	-14457
▁Worms	-14458
▁pinec	-14459
▁virus	-14460
isitive	-14461
release	-14462
▁Banana	-14463
▁Screen	-14464
▁Smooth	-14465
▁Street	-14466
▁strive	-14467
▁tailor	-14468
▁Anthony	-14469
▁Cricket	-14470
▁Mailbox	-14471
▁Needles	-14472
▁earring	-14473
▁pounded	-14474
▁pyjamas	-14475
▁shortly	-14476
▁stormed	-14477
Dangerous	-14478
▁Freckles	-14479
▁Skipping	-14480
▁explodes	-14481
▁passerby	-14482
▁watchful	-14483
▁wrinkles	-14484
▁Sprinkles	-14485
▁described	-14486
▁medicines	-14487
▁parachute	-14488
▁politeness	-14489
RR	-14490
Day	-14491
addy	-14492
gery	-14493
long	-14494
▁Rep	-14495
Other	-14496
eresa	-14497
owder	-14498
▁Amaz	-14499
▁Fall	-14500
▁Team	-14501
▁pity	-14502
Squeak	-14503
Wonder	-14504
ourage	-14505
▁Bitty	-14506
▁Jessy	-14507
▁Louis	-14508
▁Marry	-14509
▁Pixie	-14510
▁Around	-14511
▁Cereal	-14512
▁Julian	-14513
▁Parrot	-14514
▁Trucko	-14515
▁archer	-14516
▁ashore	-14517
▁cannon	-14518
▁talons	-14519
▁transp	-14520
Anything	-14521
▁Truckie	-14522
▁comment	-14523
▁fabrics	-14524
▁schools	-14525
▁wheeled	-14526
assionate	-14527
▁ashtrays	-14528
▁pondered	-14529
▁stinging	-14530
▁hairstyle	-14531
▁somersaul	-14532
▁volunteer	-14533
▁haircutter	-14534
▁Cauliflower	-14535
▁daydreaming	-14536
▁inquisitive	-14537
▁disrespectful	-14538
▁relationships	-14539
▁ir	-14540
▁pi	-14541
Ahhh	-14542
Elle	-14543
they	-14544
Smile	-14545
stone	-14546
▁Macy	-14547
▁SNAP	-14548
▁Wool	-14549
▁icic	-14550
▁publ	-14551
▁whee	-14552
inated	-14553
▁Lolly	-14554
▁Plant	-14555
▁Yield	-14556
▁lasts	-14557
▁overc	-14558
▁sales	-14559
▁Fisher	-14560
▁aiming	-14561
▁builds	-14562
▁cheeky	-14563
▁ginger	-14564
▁mostly	-14565
▁slings	-14566
▁soothe	-14567
Penelope	-14568
▁Diamond	-14569
▁Honesty	-14570
▁concern	-14571
▁marches	-14572
▁eternity	-14573
▁postcard	-14574
▁breakable	-14575
▁nighttime	-14576
▁qualities	-14577
▁sentences	-14578
▁strangely	-14579
▁chalkboard	-14580
▁professional	-14581
Li	-14582
Flo	-14583
spe	-14584
Rita	-14585
clap	-14586
hate	-14587
turn	-14588
▁Lea	-14589
▁Mal	-14590
Beaky	-14591
Paula	-14592
Tammy	-14593
wheel	-14594
▁Horn	-14595
▁Kiss	-14596
▁dise	-14597
▁recy	-14598
▁whis	-14599
Yippee	-14600
▁Blaze	-14601
▁Space	-14602
▁Tracy	-14603
▁adver	-14604
▁reeds	-14605
▁shrie	-14606
▁snarl	-14607
▁title	-14608
healthy	-14609
▁Novels	-14610
▁Stuart	-14611
▁tingly	-14612
▁appoint	-14613
Sweetheart	-14614
▁swordfish	-14615
▁brightness	-14616
▁fascination	-14617
▁reflections	-14618
▁threatening	-14619
▁trespassing	-14620
awr	-14621
coot	-14622
▁Dis	-14623
▁aah	-14624
▁adj	-14625
▁bid	-14626
▁ske	-14627
Girls	-14628
stage	-14629
uxury	-14630
▁Guns	-14631
▁Ship	-14632
▁educ	-14633
▁owie	-14634
▁tilt	-14635
▁vans	-14636
Behave	-14637
enched	-14638
▁Marla	-14639
▁Tuffy	-14640
▁bolts	-14641
htaking	-14642
▁Blacky	-14643
▁makers	-14644
▁rhymes	-14645
atherine	-14646
▁Blackie	-14647
▁dislike	-14648
▁payment	-14649
▁Balloons	-14650
▁chugging	-14651
▁strongly	-14652
▁supports	-14653
▁exception	-14654
▁heartbeat	-14655
▁priceless	-14656
▁complaints	-14657
▁unknowingly	-14658
▁breathtaking	-14659
Ot	-14660
sea	-14661
Left	-14662
Woah	-14663
▁abs	-14664
Books	-14665
fight	-14666
ounds	-14667
worth	-14668
▁nois	-14669
▁role	-14670
▁Carry	-14671
▁Hazel	-14672
▁achoo	-14673
▁dread	-14674
▁mercy	-14675
▁weave	-14676
▁Stupid	-14677
▁drains	-14678
▁engulf	-14679
▁forces	-14680
▁hermit	-14681
▁leaked	-14682
▁steamy	-14683
increase	-14684
▁Washing	-14685
▁butcher	-14686
▁dinners	-14687
▁ripping	-14688
▁slurped	-14689
▁perspect	-14690
▁swimmers	-14691
▁unharmed	-14692
▁shrugging	-14693
▁sprinkling	-14694
▁transformation	-14695
ua	-14696
Meg	-14697
Mop	-14698
wed	-14699
▁Pu	-14700
esky	-14701
omen	-14702
umsy	-14703
▁Mya	-14704
▁sam	-14705
Child	-14706
Terry	-14707
break	-14708
dough	-14709
▁Lana	-14710
Winter	-14711
▁Blake	-14712
▁Gruff	-14713
▁Salty	-14714
▁await	-14715
▁pesky	-14716
Matilda	-14717
▁Beebee	-14718
▁Helper	-14719
▁Nearby	-14720
▁coward	-14721
▁froggy	-14722
▁rulers	-14723
▁selves	-14724
rawberry	-14725
▁Natalie	-14726
▁cooling	-14727
▁intense	-14728
▁obeying	-14729
▁yellows	-14730
autiously	-14731
▁adjusted	-14732
▁flooding	-14733
▁gestured	-14734
▁gigantic	-14735
▁whizzing	-14736
▁Goodnight	-14737
▁carpenter	-14738
▁realising	-14739
▁slingshot	-14740
▁convincing	-14741
▁tournament	-14742
▁personality	-14743
▁supervision	-14744
War	-14745
Jose	-14746
▁Pay	-14747
▁maz	-14748
▁Lili	-14749
▁Talk	-14750
▁stam	-14751
Ladies	-14752
Though	-14753
stream	-14754
▁splat	-14755
Restore	-14756
▁Chairy	-14757
▁Pencil	-14758
▁Stinky	-14759
▁growth	-14760
▁hunted	-14761
▁intern	-14762
▁mateys	-14763
▁neater	-14764
▁retrie	-14765
▁staffs	-14766
▁Bathing	-14767
▁Praying	-14768
▁fainted	-14769
▁toppled	-14770
▁blossoms	-14771
▁cleverest	-14772
▁professor	-14773
▁Frightened	-14774
▁expressing	-14775
▁reflecting	-14776
ius	-14777
oyd	-14778
oyo	-14779
Best	-14780
Flop	-14781
Joan	-14782
Joke	-14783
eral	-14784
▁Air	-14785
▁Mer	-14786
▁Tug	-14787
▁bul	-14788
▁ess	-14789
▁oar	-14790
Plant	-14791
arten	-14792
feree	-14793
hness	-14794
owers	-14795
▁Band	-14796
▁Eddy	-14797
▁Lyla	-14798
▁fang	-14799
▁pros	-14800
vanish	-14801
▁drips	-14802
▁pools	-14803
▁pyram	-14804
▁rafts	-14805
atience	-14806
▁Easter	-14807
▁Nicole	-14808
▁Pigeon	-14809
▁cheery	-14810
▁peaked	-14811
▁planks	-14812
ignorant	-14813
▁Jogging	-14814
▁merrily	-14815
▁referee	-14816
▁seaside	-14817
▁sharper	-14818
emergency	-14819
▁glorious	-14820
▁outsmart	-14821
▁password	-14822
▁drumsticks	-14823
▁storyteller	-14824
▁rhinoceroses	-14825
ys	-14826
Bubb	-14827
STOP	-14828
▁fal	-14829
▁inh	-14830
ilets	-14831
power	-14832
▁Chug	-14833
▁Easy	-14834
▁Fear	-14835
▁Mist	-14836
▁pats	-14837
▁shim	-14838
▁whom	-14839
Bobbie	-14840
Coffee	-14841
Martin	-14842
alking	-14843
▁Baker	-14844
▁Cluck	-14845
▁bloss	-14846
▁glint	-14847
▁mazes	-14848
ference	-14849
▁Amelie	-14850
▁Higher	-14851
▁Printy	-14852
▁Sydney	-14853
▁Teresa	-14854
▁pinned	-14855
▁reluct	-14856
▁snored	-14857
▁Carrots	-14858
▁Hearing	-14859
▁longing	-14860
▁smudged	-14861
▁puckered	-14862
▁thirteen	-14863
▁mentioning	-14864
▁Miraculously	-14865
Se	-14866
fy	-14867
Bro	-14868
Fel	-14869
fty	-14870
kie	-14871
yay	-14872
?!".	-14873
BANG	-14874
Crab	-14875
alls	-14876
gies	-14877
nter	-14878
▁aqu	-14879
▁rap	-14880
Janet	-14881
Super	-14882
▁Free	-14883
▁Leon	-14884
▁diet	-14885
▁hula	-14886
Grumpy	-14887
▁Luisa	-14888
▁smirk	-14889
▁snout	-14890
Perfect	-14891
Tuesday	-14892
iration	-14893
▁Carley	-14894
▁Colors	-14895
▁Snakes	-14896
▁hotdog	-14897
▁sliced	-14898
▁untidy	-14899
▁Running	-14900
▁grandad	-14901
▁patched	-14902
▁potions	-14903
▁shepher	-14904
▁observes	-14905
▁hamburger	-14906
▁tradition	-14907
▁celebrations	-14908
▁demonstrated	-14909
su	-14910
iya	-14911
ple	-14912
Send	-14913
ormy	-14914
▁Bry	-14915
▁Fer	-14916
▁Rot	-14917
Angel	-14918
Light	-14919
affod	-14920
▁Ants	-14921
▁Coop	-14922
▁Deep	-14923
▁Eggy	-14924
▁Goat	-14925
Things	-14926
rolled	-14927
▁Elena	-14928
▁bales	-14929
▁fives	-14930
▁pests	-14931
▁rests	-14932
▁shuts	-14933
▁south	-14934
▁tenth	-14935
Squeeze	-14936
▁divide	-14937
▁floods	-14938
▁nuzzle	-14939
▁public	-14940
▁typing	-14941
▁partied	-14942
▁scaredy	-14943
▁swished	-14944
[...]
