<pad>	0
<s>	0
</s>	0
<unk>	0
▁t	-0
he	-1
▁a	-2
▁s	-3
▁w	-4
nd	-5
▁the	-6
ed	-7
▁to	-8
▁b	-9
▁and	-10
▁h	-11
in	-12
▁f	-13
▁wa	-14
▁T	-15
it	-16
re	-17
ou	-18
▁l	-19
▁d	-20
▁c	-21
▁he	-22
▁p	-23
ay	-24
▁m	-25
er	-26
▁was	-27
om	-28
im	-29
on	-30
il	-31
▁The	-32
id	-33
is	-34
at	-35
ar	-36
▁sa	-37
▁n	-38
▁g	-39
ing	-40
▁ha	-41
▁S	-42
en	-43
an	-44
or	-45
le	-46
ll	-47
▁L	-48
▁th	-49
ot	-50
ily	-51
▁her	-52
▁it	-53
▁"	-54
am	-55
ir	-56
et	-57
▁Lily	-58
▁u	-59
▁H	-60
On	-61
▁in	-62
ut	-63
▁pl	-64
ri	-65
▁Tim	-66
ow	-67
▁day	-68
▁be	-69
ver	-70
ce	-71
ith	-72
ig	-73
▁o	-74
▁with	-75
▁said	-76
▁play	-77
▁She	-78
pp	-79
ck	-80
ld	-81
▁They	-82
my	-83
▁e	-84
▁his	-85
▁He	-86
oo	-87
▁y	-88
▁st	-89
▁up	-90
▁that	-91
▁r	-92
▁on	-93
ke	-94
ked	-95
st	-96
▁mom	-97
▁she	-98
▁I	-99
ve	-100
nt	-101
itt	-102
very	-103
▁you	-104
▁happ	-105
▁they	-106
end	-107
▁B	-108
ime	-109
▁big	-110
▁fri	-111
se	-112
▁of	-113
▁friend	-114
ittle	-115
▁little	-116
ent	-117
▁time	-118
un	-119
ad	-120
▁had	-121
▁we	-122
▁there	-123
One	-124
▁so	-125
her	-126
▁for	-127
all	-128
ould	-129
▁nam	-130
▁want	-131
▁M	-132
▁happy	-133
▁saw	-134
▁named	-135
ved	-136
▁li	-137
▁but	-138
▁very	-139
▁do	-140
▁lo	-141
Once	-142
ch	-143
▁One	-144
▁ne	-145
▁Timmy	-146
es	-147
▁upon	-148
out	-149
▁k	-150
▁sh	-151
ound	-152
."	-153
ly	-154
▁A	-155
▁not	-156
▁wh	-157
el	-158
ide	-159
ome	-160
ht	-161
al	-162
▁re	-163
▁bo	-164
ter	-165
▁went	-166
▁as	-167
▁an	-168
▁hel	-169
▁friends	-170
▁help	-171
!"	-172
ake	-173
▁too	-174
▁were	-175
▁loved	-176
▁wanted	-177
▁sm	-178
ird	-179
ore	-180
ack	-181
▁bird	-182
irl	-183
▁did	-184
ry	-185
▁girl	-186
▁toy	-187
ra	-188
▁all	-189
ug	-190
ind	-191
▁him	-192
▁It	-193
ur	-194
ame	-195
▁loo	-196
▁could	-197
rom	-198
▁Tom	-199
▁j	-200
▁out	-201
way	-202
get	-203
hen	-204
ted	-205
ec	-206
▁at	-207
▁is	-208
gether	-209
▁kn	-210
▁go	-211
ain	-212
▁se	-213
▁fun	-214
▁together	-215
ard	-216
▁But	-217
ark	-218
ul	-219
ood	-220
ue	-221
▁can	-222
side	-223
▁le	-224
?"	-225
ic	-226
ill	-227
▁tre	-228
ax	-229
▁asked	-230
▁boy	-231
▁sad	-232
hed	-233
ght	-234
▁Max	-235
▁W	-236
ful	-237
▁F	-238
elt	-239
▁ro	-240
▁back	-241
▁star	-242
▁felt	-243
own	-244
▁have	-245
▁them	-246
▁bec	-247
▁ca	-248
other	-249
▁cat	-250
one	-251
▁cl	-252
▁al	-253
▁sc	-254
▁sp	-255
▁found	-256
um	-257
▁their	-258
▁man	-259
▁dog	-260
round	-261
▁played	-262
hing	-263
ro	-264
▁park	-265
ong	-266
ick	-267
▁looked	-268
▁smil	-269
▁car	-270
▁came	-271
▁ball	-272
▁me	-273
▁are	-274
▁started	-275
▁fe	-276
▁fa	-277
▁would	-278
▁like	-279
▁tree	-280
omet	-281
▁new	-282
▁mommy	-283
ss	-284
▁ex	-285
▁ag	-286
ared	-287
▁Ben	-288
ure	-289
▁what	-290
▁didn	-291
ings	-292
ie	-293
▁make	-294
dd	-295
▁somet	-296
▁see	-297
▁no	-298
ny	-299
▁J	-300
ought	-301
▁playing	-302
ade	-303
ried	-304
▁wor	-305
▁some	-306
▁home	-307
op	-308
ice	-309
▁when	-310
ouse	-311
ag	-312
▁mu	-313
▁got	-314
You	-315
▁co	-316
▁made	-317
▁away	-318
▁wal	-319
if	-320
▁smiled	-321
▁then	-322
▁other	-323
▁again	-324
ty	-325
▁la	-326
▁every	-327
▁good	-328
king	-329
ned	-330
▁outside	-331
▁toys	-332
▁find	-333
▁from	-334
ble	-335
au	-336
ave	-337
▁around	-338
ook	-339
▁put	-340
▁fl	-341
ened	-342
ep	-343
▁Sue	-344
ways	-345
,"	-346
ause	-347
▁something	-348
uck	-349
ight	-350
▁always	-351
ally	-352
▁From	-353
▁because	-354
▁lear	-355
▁thought	-356
oud	-357
▁things	-358
▁scared	-359
▁ran	-360
ell	-361
▁liked	-362
▁who	-363
udd	-364
▁sw	-365
▁down	-366
▁Her	-367
▁Sam	-368
▁get	-369
▁kne	-370
as	-371
▁my	-372
▁ab	-373
▁took	-374
ant	-375
▁dec	-376
ret	-377
ust	-378
▁about	-379
ach	-380
▁know	-381
ist	-382
pl	-383
▁eat	-384
▁your	-385
▁ch	-386
▁house	-387
▁told	-388
fter	-389
ited	-390
▁care	-391
▁small	-392
▁knew	-393
ank	-394
ided	-395
▁tried	-396
▁decided	-397
▁any	-398
pped	-399
hat	-400
▁br	-401
▁pr	-402
▁bl	-403
ish	-404
▁Sp	-405
ite	-406
▁bu	-407
▁lot	-408
▁int	-409
▁say	-410
fe	-411
▁You	-412
▁So	-413
▁learned	-414
ous	-415
ile	-416
▁dad	-417
▁exc	-418
▁pret	-419
udden	-420
qu	-421
uddenly	-422
▁ta	-423
▁Spot	-424
▁When	-425
▁v	-426
ise	-427
▁laug	-428
▁sun	-429
▁much	-430
▁more	-431
ers	-432
▁feel	-433
are	-434
ob	-435
▁lived	-436
nder	-437
▁ke	-438
▁box	-439
ive	-440
▁will	-441
ace	-442
▁show	-443
▁po	-444
▁hug	-445
ven	-446
ump	-447
▁Mom	-448
▁into	-449
uc	-450
▁un	-451
▁D	-452
ia	-453
▁one	-454
urp	-455
▁gave	-456
▁Suddenly	-457
▁water	-458
▁need	-459
▁excited	-460
etter	-461
▁inside	-462
▁ho	-463
▁As	-464
ate	-465
oth	-466
ap	-467
ort	-468
▁how	-469
▁room	-470
▁gra	-471
▁tr	-472
▁And	-473
dy	-474
▁pick	-475
▁couldn	-476
▁gre	-477
▁E	-478
▁pe	-479
▁cle	-480
▁if	-481
▁many	-482
▁His	-483
▁take	-484
▁look	-485
▁long	-486
▁pu	-487
our	-488
▁pretty	-489
▁became	-490
▁Mia	-491
urt	-492
▁op	-493
urpr	-494
▁run	-495
▁over	-496
▁sk	-497
iz	-498
▁surpr	-499
here	-500
▁best	-501
▁better	-502
▁bear	-503
bb	-504
lf	-505
▁im	-506
▁than	-507
ised	-508
▁mo	-509
ged	-510
▁red	-511
▁kind	-512
▁just	-513
lew	-514
Th	-515
▁fi	-516
ge	-517
ma	-518
ink	-519
▁str	-520
▁gr	-521
▁flow	-522
iny	-523
imal	-524
▁animal	-525
▁even	-526
Yes	-527
▁sl	-528
▁this	-529
em	-530
▁end	-531
▁fast	-532
▁clean	-533
▁laughed	-534
▁jump	-535
▁careful	-536
▁dre	-537
sed	-538
▁both	-539
ched	-540
▁wat	-541
▁list	-542
▁Bob	-543
▁or	-544
ucy	-545
▁rock	-546
ber	-547
▁nice	-548
ving	-549
▁Lucy	-550
ess	-551
▁After	-552
Can	-553
▁clo	-554
▁tow	-555
▁never	-556
▁imp	-557
▁by	-558
▁says	-559
▁Then	-560
▁under	-561
ion	-562
▁old	-563
▁happened	-564
ct	-565
▁heard	-566
▁fly	-567
▁walked	-568
ine	-569
pec	-570
▁hurt	-571
▁sn	-572
▁safe	-573
ase	-574
▁animals	-575
▁com	-576
▁proud	-577
▁en	-578
ied	-579
▁try	-580
▁ri	-581
▁hand	-582
▁te	-583
igh	-584
▁don	-585
ft	-586
▁col	-587
▁fore	-588
▁sky	-589
orry	-590
▁lots	-591
Thank	-592
▁flew	-593
kay	-594
▁dan	-595
▁while	-596
ara	-597
▁bea	-598
▁fo	-599
▁food	-600
▁fam	-601
▁fish	-602
▁ground	-603
▁stor	-604
▁let	-605
▁ra	-606
▁repl	-607
▁each	-608
oug	-609
illy	-610
▁sorry	-611
▁rem	-612
▁picked	-613
ough	-614
▁pic	-615
▁che	-616
▁ide	-617
▁off	-618
▁its	-619
ies	-620
▁shiny	-621
▁idea	-622
ady	-623
▁We	-624
▁real	-625
▁replied	-626
ex	-627
▁bad	-628
ff	-629
by	-630
imb	-631
▁Benny	-632
▁share	-633
sh	-634
gry	-635
▁come	-636
▁climb	-637
▁tur	-638
▁Jack	-639
▁Sara	-640
ool	-641
ial	-642
▁import	-643
ture	-644
▁way	-645
▁loud	-646
▁spec	-647
more	-648
▁special	-649
▁anymore	-650
▁beaut	-651
ning	-652
▁unt	-653
▁bro	-654
▁important	-655
self	-656
▁family	-657
rm	-658
▁wind	-659
▁ad	-660
nn	-661
▁thanked	-662
▁still	-663
▁dra	-664
▁hugged	-665
▁hard	-666
and	-667
▁until	-668
▁surprised	-669
iful	-670
▁beautiful	-671
▁tal	-672
ild	-673
▁Ann	-674
▁helped	-675
eet	-676
▁love	-677
arden	-678
▁garden	-679
▁forest	-680
pected	-681
ized	-682
▁being	-683
▁near	-684
▁qu	-685
ip	-686
ople	-687
▁tw	-688
hy	-689
▁gl	-690
expected	-691
▁unexpected	-692
ummy	-693
▁fell	-694
vor	-695
▁walk	-696
▁picture	-697
▁con	-698
▁keep	-699
▁cu	-700
▁color	-701
▁after	-702
▁expl	-703
vent	-704
xt	-705
▁next	-706
▁In	-707
▁book	-708
▁people	-709
hes	-710
▁bug	-711
▁Once	-712
▁favor	-713
▁give	-714
▁favorite	-715
▁showed	-716
▁now	-717
▁cry	-718
▁fin	-719
▁N	-720
▁par	-721
▁high	-722
ember	-723
▁store	-724
unny	-725
▁ma	-726
▁going	-727
▁Anna	-728
▁far	-729
▁cre	-730
▁app	-731
ished	-732
▁should	-733
ak	-734
▁mag	-735
ock	-736
▁call	-737
▁listen	-738
▁great	-739
▁cake	-740
▁am	-741
▁stay	-742
▁Amy	-743
fore	-744
▁remember	-745
ary	-746
▁lost	-747
▁rain	-748
▁squ	-749
▁wo	-750
Let	-751
ull	-752
▁cook	-753
ger	-754
▁bed	-755
▁P	-756
▁jo	-757
▁ac	-758
pt	-759
▁fr	-760
▁bra	-761
▁pa	-762
▁own	-763
rel	-764
▁opened	-765
▁truck	-766
▁butter	-767
▁ever	-768
▁before	-769
▁strong	-770
▁sto	-771
▁flowers	-772
age	-773
▁okay	-774
▁Every	-775
▁blue	-776
▁door	-777
▁fix	-778
▁watch	-779
It	-780
What	-781
▁where	-782
▁worry	-783
▁noise	-784
uff	-785
ater	-786
▁de	-787
▁place	-788
Don	-789
▁realized	-790
les	-791
▁ate	-792
lease	-793
No	-794
▁doll	-795
▁mor	-796
▁wr	-797
bbit	-798
▁boat	-799
▁story	-800
imes	-801
▁advent	-802
eddy	-803
▁magic	-804
▁yummy	-805
▁Let	-806
▁R	-807
▁Billy	-808
Mom	-809
leep	-810
thing	-811
be	-812
▁rabbit	-813
▁met	-814
▁butterf	-815
rog	-816
▁leave	-817
▁wait	-818
▁bunny	-819
▁Jo	-820
▁happily	-821
oon	-822
able	-823
▁tra	-824
▁catch	-825
uch	-826
ting	-827
▁mouse	-828
▁bre	-829
▁dress	-830
owl	-831
so	-832
▁draw	-833
▁mon	-834
irrel	-835
▁Sally	-836
▁also	-837
▁Fin	-838
▁C	-839
▁face	-840
▁jumped	-841
▁stopped	-842
▁squirrel	-843
▁everyone	-844
▁others	-845
▁sing	-846
irst	-847
▁frog	-848
ught	-849
▁called	-850
ens	-851
▁brave	-852
That	-853
▁stick	-854
▁adventure	-855
ane	-856
▁kid	-857
▁sat	-858
▁cont	-859
▁game	-860
▁kept	-861
ious	-862
▁K	-863
▁butterfly	-864
▁needed	-865
▁soon	-866
ndma	-867
ired	-868
led	-869
▁walking	-870
▁use	-871
▁slide	-872
▁warm	-873
▁sometimes	-874
▁right	-875
▁sand	-876
ppy	-877
▁forg	-878
▁pie	-879
▁feeling	-880
oy	-881
▁having	-882
▁pain	-883
▁ey	-884
▁dif	-885
dded	-886
▁thr	-887
▁Mommy	-888
▁rest	-889
uffy	-890
ken	-891
▁angry	-892
▁hear	-893
▁flower	-894
▁night	-895
▁Th	-896
▁remembered	-897
▁work	-898
day	-899
Wow	-900
ol	-901
zy	-902
▁At	-903
ued	-904
▁kids	-905
▁Can	-906
▁ice	-907
▁dis	-908
joy	-909
▁Fl	-910
▁open	-911
ath	-912
▁sure	-913
▁Wh	-914
iced	-915
Look	-916
▁smile	-917
ree	-918
▁mean	-919
▁tri	-920
▁our	-921
▁tired	-922
ange	-923
irt	-924
▁hat	-925
ster	-926
itc	-927
▁us	-928
▁cra	-929
▁soft	-930
▁head	-931
us	-932
▁brother	-933
▁buy	-934
▁fire	-935
▁looking	-936
▁din	-937
▁sleep	-938
▁beh	-939
▁first	-940
▁prom	-941
▁birds	-942
▁del	-943
▁used	-944
▁cr	-945
▁enjoy	-946
▁contin	-947
▁ba	-948
▁clos	-949
ner	-950
▁green	-951
ng	-952
▁wear	-953
▁hole	-954
▁ask	-955
itchen	-956
▁kitchen	-957
▁sound	-958
ount	-959
▁hands	-960
gan	-961
▁nodded	-962
uit	-963
▁lady	-964
▁Do	-965
Hi	-966
▁eyes	-967
▁watched	-968
▁making	-969
▁prin	-970
▁continued	-971
▁party	-972
▁cut	-973
▁mess	-974
▁z	-975
▁duck	-976
▁funny	-977
▁flo	-978
ello	-979
fere	-980
Hello	-981
▁dr	-982
▁differe	-983
▁yell	-984
llow	-985
▁bel	-986
▁town	-987
ident	-988
▁tast	-989
itty	-990
▁cand	-991
▁piece	-992
▁Mr	-993
▁tell	-994
▁mis	-995
▁cried	-996
▁moral	-997
▁acc	-998
que	-999
ient	-1000
▁Fluffy	-1001
maz	-1002
▁two	-1003
▁amaz	-1004
ear	-1005
air	-1006
▁pond	-1007
▁noticed	-1008
▁hid	-1009
▁cold	-1010
▁dro	-1011
▁broken	-1012
▁bri	-1013
▁hot	-1014
▁swim	-1015
▁ru	-1016
▁worked	-1017
▁follow	-1018
▁accident	-1019
▁read	-1020
▁ar	-1021
▁turned	-1022
▁race	-1023
▁farm	-1024
ect	-1025
▁cool	-1026
where	-1027
▁trees	-1028
▁hun	-1029
▁different	-1030
▁lion	-1031
▁grandma	-1032
oney	-1033
▁quick	-1034
aybe	-1035
▁Tw	-1036
▁cookies	-1037
▁Kitty	-1038
▁bag	-1039
▁daddy	-1040
▁sweet	-1041
▁talk	-1042
▁pull	-1043
▁please	-1044
We	-1045
▁stop	-1046
▁hair	-1047
▁scary	-1048
▁thing	-1049
reed	-1050
▁hop	-1051
▁behind	-1052
▁think	-1053
▁surprise	-1054
ered	-1055
▁explore	-1056
orn	-1057
▁climbed	-1058
▁song	-1059
▁per	-1060
▁helping	-1061
▁top	-1062
▁tall	-1063
▁Now	-1064
▁cream	-1065
▁Tweet	-1066
hn	-1067
▁dri	-1068
▁grass	-1069
▁move	-1070
▁bar	-1071
▁Later	-1072
▁listened	-1073
▁running	-1074
▁turn	-1075
▁wrong	-1076
aper	-1077
▁John	-1078
▁curi	-1079
▁cars	-1080
▁dark	-1081
▁build	-1082
▁friendly	-1083
▁owner	-1084
▁dinner	-1085
▁cla	-1086
▁sho	-1087
▁curious	-1088
ph	-1089
▁agreed	-1090
▁shared	-1091
▁table	-1092
▁coming	-1093
▁closer	-1094
▁bright	-1095
▁learn	-1096
ced	-1097
▁hungry	-1098
▁floor	-1099
ike	-1100
▁quickly	-1101
oice	-1102
▁another	-1103
ucky	-1104
▁That	-1105
▁dance	-1106
▁dream	-1107
▁swing	-1108
▁block	-1109
▁here	-1110
sy	-1111
▁doing	-1112
▁Sarah	-1113
▁might	-1114
ey	-1115
ign	-1116
▁forgot	-1117
▁teddy	-1118
▁accidentally	-1119
nts	-1120
▁leaves	-1121
▁wet	-1122
▁touch	-1123
▁broke	-1124
▁shar	-1125
key	-1126
▁stuck	-1127
ather	-1128
▁tail	-1129
ards	-1130
lly	-1131
▁brought	-1132
▁smell	-1133
▁hide	-1134
▁underst	-1135
ittens	-1136
▁Just	-1137
▁herself	-1138
Mommy	-1139
Why	-1140
asure	-1141
▁himself	-1142
▁gone	-1143
▁paper	-1144
▁left	-1145
▁wood	-1146
▁finished	-1147
▁pretend	-1148
▁This	-1149
▁promised	-1150
▁why	-1151
▁vis	-1152
▁grate	-1153
▁light	-1154
▁close	-1155
rot	-1156
▁grateful	-1157
icy	-1158
▁candy	-1159
▁fair	-1160
▁ready	-1161
bo	-1162
▁yard	-1163
▁delic	-1164
▁plan	-1165
▁anything	-1166
▁glad	-1167
bye	-1168
▁has	-1169
▁colors	-1170
▁voice	-1171
▁tight	-1172
▁perf	-1173
▁hill	-1174
▁ride	-1175
▁really	-1176
▁owl	-1177
▁through	-1178
Oh	-1179
▁Finally	-1180
▁Tommy	-1181
▁trying	-1182
av	-1183
ield	-1184
▁puppy	-1185
art	-1186
▁wished	-1187
ached	-1188
▁train	-1189
oup	-1190
▁Mittens	-1191
cess	-1192
row	-1193
▁Dad	-1194
oom	-1195
▁hold	-1196
▁window	-1197
▁shout	-1198
▁fall	-1199
▁sunny	-1200
▁balloon	-1201
▁pink	-1202
▁full	-1203
▁snow	-1204
ctor	-1205
pe	-1206
▁began	-1207
▁yellow	-1208
ation	-1209
irty	-1210
▁world	-1211
▁fruit	-1212
bbed	-1213
▁pictures	-1214
gg	-1215
▁dirty	-1216
▁While	-1217
▁ve	-1218
▁been	-1219
isy	-1220
ssed	-1221
set	-1222
▁someone	-1223
▁less	-1224
▁seen	-1225
▁wonder	-1226
▁everywhere	-1227
▁moment	-1228
▁pare	-1229
co	-1230
▁grow	-1231
▁ju	-1232
▁eating	-1233
af	-1234
▁flying	-1235
▁visit	-1236
▁roll	-1237
▁goodbye	-1238
stle	-1239
▁count	-1240
ac	-1241
ask	-1242
▁nest	-1243
▁only	-1244
▁does	-1245
▁blocks	-1246
Okay	-1247
▁land	-1248
▁sit	-1249
▁set	-1250
avy	-1251
▁bran	-1252
▁pat	-1253
▁mus	-1254
▁sear	-1255
▁win	-1256
▁break	-1257
▁ste	-1258
▁name	-1259
▁apple	-1260
▁done	-1261
▁monkey	-1262
▁baby	-1263
amp	-1264
▁happen	-1265
ons	-1266
▁thre	-1267
▁slow	-1268
▁air	-1269
red	-1270
▁reached	-1271
▁mar	-1272
▁pre	-1273
▁comp	-1274
▁books	-1275
▁waited	-1276
▁bit	-1277
thy	-1278
▁laugh	-1279
▁yes	-1280
▁crying	-1281
▁colorful	-1282
▁gent	-1283
▁beach	-1284
▁Em	-1285
▁arm	-1286
orm	-1287
ained	-1288
der	-1289
▁To	-1290
▁won	-1291
zz	-1292
▁plant	-1293
▁held	-1294
▁pen	-1295
ister	-1296
▁carrot	-1297
▁reach	-1298
▁clot	-1299
ries	-1300
os	-1301
▁pus	-1302
▁clothes	-1303
ash	-1304
de	-1305
▁wasn	-1306
▁wise	-1307
ste	-1308
▁sister	-1309
ames	-1310
illed	-1311
▁Everyone	-1312
gon	-1313
▁fight	-1314
ix	-1315
▁towards	-1316
▁cup	-1317
▁pro	-1318
▁mat	-1319
▁upset	-1320
up	-1321
stead	-1322
▁thank	-1323
▁O	-1324
▁monster	-1325
▁pol	-1326
▁treasure	-1327
▁paint	-1328
▁finally	-1329
▁heavy	-1330
▁parents	-1331
▁music	-1332
Sure	-1333
room	-1334
ance	-1335
▁enjoyed	-1336
▁treat	-1337
▁everything	-1338
▁alone	-1339
▁lesson	-1340
▁spl	-1341
▁job	-1342
ower	-1343
▁castle	-1344
▁delicious	-1345
▁bike	-1346
gle	-1347
ott	-1348
▁Bobo	-1349
▁nap	-1350
▁bigger	-1351
▁danger	-1352
▁join	-1353
▁getting	-1354
cle	-1355
▁cloud	-1356
▁There	-1357
▁followed	-1358
ich	-1359
▁sail	-1360
▁woods	-1361
▁understand	-1362
▁res	-1363
ere	-1364
▁doctor	-1365
ream	-1366
▁child	-1367
▁money	-1368
▁woke	-1369
▁swings	-1370
▁hopped	-1371
ully	-1372
▁arri	-1373
less	-1374
▁spot	-1375
▁games	-1376
▁pot	-1377
▁ele	-1378
llie	-1379
▁wall	-1380
Lily	-1381
▁mix	-1382
▁je	-1383
▁em	-1384
fully	-1385
▁swam	-1386
▁Jane	-1387
▁looks	-1388
▁dry	-1389
▁All	-1390
▁without	-1391
outh	-1392
ast	-1393
▁blew	-1394
bble	-1395
aught	-1396
▁mouth	-1397
▁Bl	-1398
▁gif	-1399
ze	-1400
▁bath	-1401
▁fur	-1402
▁grabbed	-1403
▁bor	-1404
▁bott	-1405
man	-1406
▁must	-1407
▁bite	-1408
▁shouted	-1409
ves	-1410
▁field	-1411
▁snack	-1412
▁river	-1413
▁arrived	-1414
▁pulled	-1415
ins	-1416
▁caught	-1417
▁pushed	-1418
▁rel	-1419
oc	-1420
cy	-1421
▁hit	-1422
▁heal	-1423
▁tower	-1424
▁leg	-1425
th	-1426
▁deep	-1427
▁pet	-1428
unch	-1429
iss	-1430
▁explained	-1431
▁word	-1432
This	-1433
▁tiny	-1434
▁stayed	-1435
chool	-1436
▁pieces	-1437
▁What	-1438
▁waved	-1439
aisy	-1440
▁chair	-1441
▁gu	-1442
▁Blue	-1443
fort	-1444
▁threw	-1445
▁dangerous	-1446
▁school	-1447
let	-1448
▁side	-1449
▁bee	-1450
▁black	-1451
▁wouldn	-1452
▁white	-1453
Do	-1454
▁able	-1455
▁carefully	-1456
▁Soon	-1457
▁es	-1458
cket	-1459
▁sea	-1460
▁silly	-1461
eared	-1462
▁Sammy	-1463
▁free	-1464
▁worried	-1465
gged	-1466
▁perfect	-1467
▁el	-1468
iet	-1469
▁king	-1470
ence	-1471
▁Inside	-1472
▁clapped	-1473
ila	-1474
▁branch	-1475
▁fox	-1476
itting	-1477
▁blank	-1478
▁key	-1479
▁cour	-1480
▁quiet	-1481
▁adventures	-1482
come	-1483
▁else	-1484
ocked	-1485
▁ear	-1486
▁blanket	-1487
▁enough	-1488
▁amazed	-1489
▁course	-1490
ated	-1491
pping	-1492
▁bowl	-1493
▁mother	-1494
▁today	-1495
▁talked	-1496
▁Lila	-1497
ier	-1498
oun	-1499
▁drink	-1500
▁que	-1501
▁princess	-1502
▁dropped	-1503
▁fairy	-1504
▁soup	-1505
▁sharing	-1506
▁farmer	-1507
▁sec	-1508
▁sees	-1509
▁bat	-1510
▁sick	-1511
▁att	-1512
▁sandw	-1513
ord	-1514
▁tom	-1515
▁bring	-1516
phant	-1517
▁danced	-1518
▁gi	-1519
ek	-1520
▁spr	-1521
bor	-1522
og	-1523
▁amazing	-1524
▁pudd	-1525
▁well	-1526
▁poin	-1527
▁instead	-1528
▁ant	-1529
▁three	-1530
▁wish	-1531
▁late	-1532
▁pack	-1533
▁dolls	-1534
▁Teddy	-1535
yard	-1536
▁jar	-1537
▁closed	-1538
ming	-1539
ract	-1540
▁backyard	-1541
▁elephant	-1542
▁morning	-1543
▁though	-1544
▁smart	-1545
cked	-1546
ible	-1547
▁rocks	-1548
▁pig	-1549
▁cray	-1550
▁lunch	-1551
olly	-1552
▁sitting	-1553
▁sang	-1554
▁dragon	-1555
ire	-1556
ses	-1557
▁wel	-1558
▁bus	-1559
▁storm	-1560
▁Daisy	-1561
▁such	-1562
ee	-1563
▁strange	-1564
▁cow	-1565
▁ph	-1566
ling	-1567
asket	-1568
▁mail	-1569
iver	-1570
▁miss	-1571
▁basket	-1572
▁searched	-1573
▁leaf	-1574
▁neigh	-1575
sp	-1576
▁makes	-1577
▁creat	-1578
▁crab	-1579
But	-1580
▁sign	-1581
ased	-1582
ang	-1583
ub	-1584
ball	-1585
ined	-1586
Of	-1587
▁few	-1588
ross	-1589
▁turns	-1590
▁juice	-1591
▁letter	-1592
▁mud	-1593
▁On	-1594
".	-1595
▁cute	-1596
▁barked	-1597
ever	-1598
▁stre	-1599
pper	-1600
▁belie	-1601
used	-1602
▁orange	-1603
ese	-1604
▁neck	-1605
▁carry	-1606
ren	-1607
▁wings	-1608
▁past	-1609
▁gift	-1610
itten	-1611
▁purp	-1612
▁cheese	-1613
▁wore	-1614
▁war	-1615
▁hig	-1616
▁fan	-1617
▁year	-1618
▁patient	-1619
Tim	-1620
▁shoes	-1621
▁Emma	-1622
▁Ducky	-1623
▁ben	-1624
▁smo	-1625
me	-1626
▁apples	-1627
▁secret	-1628
▁hiding	-1629
▁belong	-1630
▁purple	-1631
uddy	-1632
▁fixed	-1633
igg	-1634
▁egg	-1635
▁brown	-1636
▁taking	-1637
▁butt	-1638
app	-1639
▁neighbor	-1640
▁children	-1641
▁Tweety	-1642
▁round	-1643
▁faster	-1644
▁welcome	-1645
▁dist	-1646
blem	-1647
▁problem	-1648
▁boun	-1649
▁shap	-1650
vel	-1651
▁mil	-1652
▁whe	-1653
▁road	-1654
▁fit	-1655
▁stu	-1656
▁seem	-1657
▁singing	-1658
▁bottle	-1659
br	-1660
▁spid	-1661
▁bought	-1662
▁colle	-1663
ises	-1664
▁suddenly	-1665
▁sug	-1666
▁hor	-1667
▁throw	-1668
ipped	-1669
▁Ch	-1670
▁jun	-1671
▁likes	-1672
isk	-1673
▁snake	-1674
▁filled	-1675
▁buck	-1676
▁Maybe	-1677
▁milk	-1678
▁Buddy	-1679
ail	-1680
ian	-1681
▁bench	-1682
▁days	-1683
▁higher	-1684
▁helpful	-1685
▁disapp	-1686
▁craw	-1687
irth	-1688
▁wagged	-1689
irthday	-1690
fish	-1691
onely	-1692
▁lonely	-1693
board	-1694
▁pocket	-1695
▁heart	-1696
▁cozy	-1697
▁trou	-1698
ugg	-1699
emo	-1700
sw	-1701
▁min	-1702
▁talking	-1703
▁trip	-1704
unt	-1705
ining	-1706
fused	-1707
▁Nemo	-1708
▁ob	-1709
▁answ	-1710
▁Together	-1711
▁har	-1712
▁start	-1713
▁band	-1714
▁paw	-1715
▁words	-1716
▁forever	-1717
▁teac	-1718
▁nose	-1719
aur	-1720
▁driver	-1721
▁lake	-1722
▁same	-1723
ose	-1724
itch	-1725
▁inc	-1726
▁birthday	-1727
iskers	-1728
▁street	-1729
▁prot	-1730
▁stand	-1731
▁pers	-1732
▁mist	-1733
▁Bu	-1734
erry	-1735
▁Br	-1736
▁whist	-1737
▁tasty	-1738
▁kick	-1739
▁Whiskers	-1740
▁eas	-1741
▁knocked	-1742
▁puddle	-1743
to	-1744
▁spider	-1745
ountain	-1746
▁coat	-1747
▁mark	-1748
▁teacher	-1749
▁seed	-1750
Maybe	-1751
▁healthy	-1752
▁rolled	-1753
▁act	-1754
▁ban	-1755
ass	-1756
▁missed	-1757
▁pop	-1758
▁Ellie	-1759
fortable	-1760
▁cover	-1761
▁shell	-1762
▁des	-1763
▁believe	-1764
▁drove	-1765
▁birdie	-1766
▁wants	-1767
cing	-1768
▁honey	-1769
eb	-1770
▁cookie	-1771
▁grew	-1772
▁banan	-1773
▁pill	-1774
▁gentle	-1775
▁spin	-1776
bow	-1777
▁val	-1778
▁bow	-1779
▁spo	-1780
idge	-1781
▁appeared	-1782
▁bush	-1783
▁collect	-1784
▁drew	-1785
▁teach	-1786
▁Brown	-1787
The	-1788
▁landed	-1789
▁organ	-1790
▁shop	-1791
▁most	-1792
▁shining	-1793
▁part	-1794
▁sharp	-1795
▁fence	-1796
ches	-1797
ize	-1798
alm	-1799
▁living	-1800
▁magical	-1801
▁nut	-1802
▁power	-1803
ale	-1804
ato	-1805
umb	-1806
▁later	-1807
▁sandwich	-1808
▁rainbow	-1809
▁shy	-1810
▁shirt	-1811
▁knee	-1812
▁seek	-1813
▁laughing	-1814
▁shr	-1815
▁longer	-1816
▁af	-1817
▁wra	-1818
ital	-1819
sting	-1820
▁Joe	-1821
▁worm	-1822
▁songs	-1823
▁watching	-1824
▁hosp	-1825
▁hospital	-1826
▁moved	-1827
cer	-1828
▁phone	-1829
bbles	-1830
▁rob	-1831
▁sack	-1832
▁pract	-1833
▁feather	-1834
▁kite	-1835
ually	-1836
▁cave	-1837
▁spoon	-1838
▁ap	-1839
▁suc	-1840
▁pile	-1841
ator	-1842
▁live	-1843
▁mad	-1844
▁Thank	-1845
▁puzz	-1846
▁jungle	-1847
▁mine	-1848
▁horse	-1849
▁onto	-1850
aughty	-1851
▁inv	-1852
▁chick	-1853
▁robot	-1854
▁cou	-1855
▁busy	-1856
▁meet	-1857
▁naughty	-1858
▁life	-1859
▁mach	-1860
▁spark	-1861
umpy	-1862
▁bread	-1863
▁med	-1864
epend	-1865
▁coo	-1866
nic	-1867
cks	-1868
orrow	-1869
▁kitten	-1870
▁crayons	-1871
raid	-1872
▁cart	-1873
▁picnic	-1874
▁building	-1875
▁afraid	-1876
▁button	-1877
▁joy	-1878
▁carrots	-1879
▁wonderful	-1880
▁bucket	-1881
▁along	-1882
▁wolf	-1883
▁wash	-1884
▁pan	-1885
▁chased	-1886
▁scream	-1887
ocol	-1888
▁smiles	-1889
▁gently	-1890
ourn	-1891
adow	-1892
▁asleep	-1893
ular	-1894
▁chocol	-1895
▁thin	-1896
▁journ	-1897
▁tomorrow	-1898
▁oven	-1899
▁lem	-1900
▁bur	-1901
▁exp	-1902
ially	-1903
una	-1904
▁fold	-1905
▁cir	-1906
▁drawing	-1907
mb	-1908
pecially	-1909
▁swimming	-1910
▁taste	-1911
▁rope	-1912
▁especially	-1913
▁spicy	-1914
randma	-1915
eter	-1916
▁dirt	-1917
▁peace	-1918
▁mum	-1919
▁foot	-1920
com	-1921
▁meant	-1922
▁holding	-1923
▁messy	-1924
▁ser	-1925
irp	-1926
▁plane	-1927
▁di	-1928
▁chocolate	-1929
▁tasted	-1930
Please	-1931
▁shake	-1932
▁bugs	-1933
▁protect	-1934
▁zoo	-1935
▁slowly	-1936
▁push	-1937
ert	-1938
▁su	-1939
▁save	-1940
▁intere	-1941
▁vill	-1942
▁drive	-1943
▁young	-1944
▁seat	-1945
▁touc	-1946
▁stone	-1947
▁pour	-1948
▁cheered	-1949
▁shook	-1950
▁sounds	-1951
▁mistake	-1952
ress	-1953
▁coin	-1954
▁bone	-1955
oose	-1956
lla	-1957
▁lucky	-1958
cean	-1959
▁ocean	-1960
ity	-1961
▁sal	-1962
▁pres	-1963
▁anyone	-1964
llo	-1965
shine	-1966
▁promise	-1967
▁knowing	-1968
ho	-1969
▁nearby	-1970
gly	-1971
▁imag	-1972
▁ce	-1973
▁sol	-1974
▁sunshine	-1975
▁confused	-1976
My	-1977
umber	-1978
▁wild	-1979
gest	-1980
▁touched	-1981
▁glow	-1982
▁ugly	-1983
▁whole	-1984
▁mind	-1985
ions	-1986
▁turt	-1987
▁treats	-1988
▁joke	-1989
▁machine	-1990
elly	-1991
▁smelled	-1992
den	-1993
ella	-1994
ten	-1995
▁pass	-1996
getable	-1997
▁cleaned	-1998
▁gray	-1999
els	-2000
▁vegetable	-2001
▁Tweetie	-2002
ove	-2003
ment	-2004
▁ret	-2005
▁whistle	-2006
▁fle	-2007
▁bake	-2008
kin	-2009
▁calm	-2010
▁fancy	-2011
▁Jim	-2012
▁hidden	-2013
▁myster	-2014
▁wave	-2015
▁Le	-2016
▁hoped	-2017
oop	-2018
imi	-2019
▁tid	-2020
▁stars	-2021
▁splas	-2022
izz	-2023
▁turtle	-2024
▁interesting	-2025
▁couch	-2026
pa	-2027
▁supp	-2028
▁vase	-2029
▁village	-2030
▁clever	-2031
▁shapes	-2032
▁present	-2033
▁ship	-2034
▁shelf	-2035
▁net	-2036
▁Mimi	-2037
▁whenever	-2038
▁wide	-2039
▁wing	-2040
bar	-2041
▁retur	-2042
▁tea	-2043
▁finish	-2044
▁Jen	-2045
▁Daddy	-2046
▁tidy	-2047
dge	-2048
onest	-2049
ife	-2050
ont	-2051
▁waiting	-2052
▁jelly	-2053
▁ign	-2054
▁bell	-2055
▁asks	-2056
ama	-2057
▁saved	-2058
▁boss	-2059
▁Bella	-2060
▁spe	-2061
▁ent	-2062
▁fing	-2063
▁card	-2064
▁rude	-2065
barra	-2066
box	-2067
▁puzzle	-2068
▁clown	-2069
▁embarra	-2070
▁wondered	-2071
▁forget	-2072
▁cloth	-2073
▁Molly	-2074
▁Jerry	-2075
▁tightly	-2076
lace	-2077
▁sour	-2078
vous	-2079
▁write	-2080
▁necklace	-2081
▁smooth	-2082
▁honest	-2083
▁front	-2084
Hey	-2085
▁pillow	-2086
erly	-2087
▁wearing	-2088
la	-2089
▁grumpy	-2090
mer	-2091
▁hello	-2092
▁stories	-2093
▁giant	-2094
▁sel	-2095
▁zoom	-2096
▁spoil	-2097
▁ducks	-2098
▁sur	-2099
▁path	-2100
▁bark	-2101
cap	-2102
▁snowman	-2103
▁av	-2104
▁chew	-2105
ult	-2106
▁rad	-2107
▁emp	-2108
▁plate	-2109
▁empty	-2110
ndpa	-2111
ope	-2112
▁prince	-2113
▁fruits	-2114
▁string	-2115
▁lemon	-2116
▁years	-2117
▁group	-2118
▁runs	-2119
▁class	-2120
▁working	-2121
▁quest	-2122
▁jew	-2123
lower	-2124
▁spray	-2125
▁Re	-2126
▁trouble	-2127
▁pizz	-2128
▁selfish	-2129
▁Their	-2130
▁lad	-2131
ward	-2132
▁huge	-2133
▁thinks	-2134
▁gather	-2135
▁pretended	-2136
▁noises	-2137
eth	-2138
▁Leo	-2139
ness	-2140
urse	-2141
▁change	-2142
▁arms	-2143
aughter	-2144
▁pizza	-2145
▁ner	-2146
▁fighting	-2147
▁vegetables	-2148
oppy	-2149
ors	-2150
▁nervous	-2151
ork	-2152
▁pointed	-2153
▁ladder	-2154
▁stra	-2155
▁sleepy	-2156
izzy	-2157
▁Sn	-2158
▁fil	-2159
ars	-2160
▁explor	-2161
▁grab	-2162
▁chest	-2163
▁ash	-2164
▁line	-2165
▁slid	-2166
▁sheep	-2167
▁mot	-2168
ipe	-2169
▁Johnny	-2170
▁jumping	-2171
▁fake	-2172
▁legs	-2173
▁sold	-2174
▁decor	-2175
▁trust	-2176
▁across	-2177
▁clouds	-2178
ensive	-2179
▁lazy	-2180
▁lay	-2181
▁cheer	-2182
▁scar	-2183
era	-2184
▁expensive	-2185
▁smelly	-2186
▁moon	-2187
▁van	-2188
▁Jill	-2189
est	-2190
work	-2191
▁tie	-2192
▁search	-2193
uce	-2194
▁hang	-2195
▁Fred	-2196
▁feels	-2197
▁pool	-2198
▁lovely	-2199
▁Remy	-2200
▁twins	-2201
imed	-2202
▁drum	-2203
▁drank	-2204
▁lift	-2205
▁step	-2206
▁remind	-2207
▁embarrassed	-2208
▁person	-2209
▁stepped	-2210
▁easy	-2211
pect	-2212
▁which	-2213
▁dogs	-2214
▁Mark	-2215
▁carried	-2216
▁yog	-2217
Tom	-2218
▁hum	-2219
▁police	-2220
▁beak	-2221
▁scre	-2222
▁ring	-2223
▁bal	-2224
▁reg	-2225
▁bossy	-2226
▁cleaning	-2227
osaur	-2228
▁Emily	-2229
▁snacks	-2230
▁tool	-2231
▁balls	-2232
▁weak	-2233
▁Be	-2234
▁daughter	-2235
iting	-2236
▁chase	-2237
▁cro	-2238
Be	-2239
▁pri	-2240
▁dinosaur	-2241
irr	-2242
ush	-2243
▁deer	-2244
▁queen	-2245
▁pin	-2246
▁law	-2247
▁sweetie	-2248
▁closet	-2249
▁places	-2250
▁teeth	-2251
▁gold	-2252
▁sticks	-2253
ond	-2254
▁last	-2255
▁gun	-2256
▁passed	-2257
▁stood	-2258
▁plants	-2259
▁Brownie	-2260
isa	-2261
OK	-2262
▁creative	-2263
▁polite	-2264
▁My	-2265
▁mov	-2266
▁splash	-2267
amed	-2268
▁sugar	-2269
▁excla	-2270
▁Bunny	-2271
▁pay	-2272
▁hope	-2273
▁exclaimed	-2274
▁rich	-2275
▁relie	-2276
▁dish	-2277
▁blow	-2278
▁understood	-2279
▁answer	-2280
▁sell	-2281
▁powerful	-2282
▁medic	-2283
▁furry	-2284
lves	-2285
▁wand	-2286
▁medicine	-2287
▁Lisa	-2288
erp	-2289
▁mountain	-2290
▁rocket	-2291
▁lead	-2292
oman	-2293
cape	-2294
▁check	-2295
▁woman	-2296
▁Bun	-2297
▁hero	-2298
oof	-2299
▁fear	-2300
▁Red	-2301
▁eag	-2302
▁pump	-2303
▁peaceful	-2304
▁weird	-2305
▁seemed	-2306
▁map	-2307
▁success	-2308
erpill	-2309
▁caterpill	-2310
▁stret	-2311
▁famous	-2312
▁gen	-2313
▁test	-2314
ual	-2315
ipp	-2316
▁boring	-2317
▁dancing	-2318
▁motor	-2319
erries	-2320
▁Ollie	-2321
owed	-2322
▁ones	-2323
▁chicken	-2324
▁berries	-2325
▁disco	-2326
▁spilled	-2327
▁sort	-2328
arge	-2329
▁Bet	-2330
rag	-2331
ti	-2332
▁nothing	-2333
▁matter	-2334
itter	-2335
▁cri	-2336
▁gate	-2337
het	-2338
▁cage	-2339
▁mysterious	-2340
▁match	-2341
▁caterpillar	-2342
▁relieved	-2343
▁happening	-2344
▁lock	-2345
▁space	-2346
▁tig	-2347
oomy	-2348
aghet	-2349
aghetti	-2350
ometimes	-2351
ume	-2352
▁tummy	-2353
▁shark	-2354
▁print	-2355
▁maybe	-2356
lebr	-2357
▁lose	-2358
▁adm	-2359
▁gigg	-2360
▁scare	-2361
▁celebr	-2362
▁clear	-2363
▁spaghetti	-2364
▁Mama	-2365
arl	-2366
▁dizzy	-2367
▁journey	-2368
▁spent	-2369
▁rec	-2370
aving	-2371
▁ord	-2372
▁hugs	-2373
▁soap	-2374
▁mic	-2375
▁poor	-2376
ustr	-2377
▁rough	-2378
▁crown	-2379
▁asking	-2380
▁team	-2381
gy	-2382
▁hur	-2383
pack	-2384
▁whale	-2385
▁pray	-2386
▁With	-2387
▁forgive	-2388
▁jewel	-2389
▁taught	-2390
ser	-2391
▁organized	-2392
▁bald	-2393
▁mixed	-2394
▁large	-2395
▁frustr	-2396
▁towel	-2397
▁balloons	-2398
isp	-2399
▁missing	-2400
▁Mary	-2401
▁How	-2402
▁banana	-2403
▁finding	-2404
▁guit	-2405
▁true	-2406
▁rare	-2407
▁feet	-2408
oot	-2409
▁toug	-2410
▁noisy	-2411
aking	-2412
▁faces	-2413
▁moving	-2414
not	-2415
ventually	-2416
▁slipped	-2417
port	-2418
▁mirr	-2419
▁comes	-2420
▁covered	-2421
airs	-2422
▁comfortable	-2423
▁boot	-2424
iff	-2425
▁spend	-2426
▁rid	-2427
phone	-2428
▁micro	-2429
ragile	-2430
▁jack	-2431
▁norm	-2432
▁stir	-2433
▁cannot	-2434
▁stuff	-2435
ado	-2436
▁mirror	-2437
▁lamp	-2438
▁become	-2439
ory	-2440
▁tough	-2441
ique	-2442
▁tick	-2443
▁normal	-2444
▁frustrated	-2445
▁straw	-2446
▁splashed	-2447
ote	-2448
▁breath	-2449
ones	-2450
▁guitar	-2451
▁Why	-2452
▁fragile	-2453
▁often	-2454
ute	-2455
▁number	-2456
▁whisp	-2457
▁unique	-2458
▁hunt	-2459
unk	-2460
▁gener	-2461
▁ignor	-2462
▁batter	-2463
▁mel	-2464
und	-2465
▁borrow	-2466
ilt	-2467
olog	-2468
▁snee	-2469
alous	-2470
▁glass	-2471
▁feed	-2472
alk	-2473
▁shoot	-2474
zed	-2475
▁exam	-2476
▁flag	-2477
bby	-2478
aw	-2479
▁glue	-2480
▁ants	-2481
▁jealous	-2482
▁Luna	-2483
anut	-2484
▁apolog	-2485
▁jacket	-2486
imp	-2487
issors	-2488
▁dest	-2489
▁Come	-2490
▁brush	-2491
▁march	-2492
read	-2493
▁body	-2494
▁feathers	-2495
▁icy	-2496
▁discover	-2497
arn	-2498
▁Mrs	-2499
▁yelled	-2500
▁cost	-2501
▁ashamed	-2502
▁sword	-2503
▁cone	-2504
▁ter	-2505
▁spoiled	-2506
▁branches	-2507
▁creature	-2508
▁takes	-2509
fast	-2510
▁incred	-2511
▁eggs	-2512
Come	-2513
▁scissors	-2514
▁pumpkin	-2515
▁breakfast	-2516
▁St	-2517
▁resc	-2518
▁tiger	-2519
▁yourself	-2520
▁strawber	-2521
▁spread	-2522
▁driving	-2523
▁note	-2524
▁generous	-2525
Are	-2526
▁fis	-2527
▁dig	-2528
▁fine	-2529
▁unus	-2530
cil	-2531
▁scarf	-2532
▁hopping	-2533
▁incredible	-2534
▁thick	-2535
▁unusual	-2536
▁eld	-2537
▁fill	-2538
St	-2539
▁acorn	-2540
yal	-2541
▁pencil	-2542
▁balance	-2543
▁washed	-2544
▁exploring	-2545
▁yarn	-2546
▁movie	-2547
▁shore	-2548
▁finger	-2549
selves	-2550
▁perform	-2551
▁roar	-2552
▁terri	-2553
▁tele	-2554
▁Cat	-2555
▁peanut	-2556
▁tun	-2557
▁tent	-2558
▁fridge	-2559
▁leaving	-2560
Timmy	-2561
▁bounce	-2562
▁dough	-2563
▁Chirp	-2564
▁built	-2565
▁these	-2566
▁suggest	-2567
▁kiss	-2568
▁loudly	-2569
▁offered	-2570
▁Bobby	-2571
▁loyal	-2572
▁seeds	-2573
▁bubbles	-2574
fic	-2575
▁add	-2576
ggy	-2577
▁cross	-2578
▁elderly	-2579
▁harm	-2580
▁swan	-2581
▁nod	-2582
▁track	-2583
▁kicked	-2584
andy	-2585
▁solve	-2586
▁shadow	-2587
dle	-2588
ground	-2589
▁bloom	-2590
▁diffic	-2591
▁Fr	-2592
light	-2593
▁stubb	-2594
▁ind	-2595
mbre	-2596
▁unl	-2597
Max	-2598
▁fat	-2599
▁umbre	-2600
▁painting	-2601
▁taken	-2602
▁tomato	-2603
▁dead	-2604
▁difficult	-2605
▁wagon	-2606
als	-2607
▁useful	-2608
▁bathroom	-2609
▁stubborn	-2610
▁log	-2611
▁mighty	-2612
▁wrote	-2613
▁Even	-2614
▁painted	-2615
▁waves	-2616
cc	-2617
ipop	-2618
llipop	-2619
cient	-2620
▁giggled	-2621
▁pir	-2622
▁lollipop	-2623
▁delicate	-2624
▁fluffy	-2625
ray	-2626
▁barn	-2627
kn	-2628
▁sque	-2629
▁terrible	-2630
▁Don	-2631
▁packed	-2632
▁ancient	-2633
▁tape	-2634
bin	-2635
umsy	-2636
▁cor	-2637
▁crazy	-2638
▁rode	-2639
▁tag	-2640
▁ham	-2641
uring	-2642
▁fool	-2643
▁Sometimes	-2644
robe	-2645
▁umbrella	-2646
▁clumsy	-2647
▁wake	-2648
▁cabin	-2649
▁compet	-2650
▁weal	-2651
known	-2652
ipper	-2653
▁fright	-2654
corn	-2655
▁Chirpy	-2656
▁bushes	-2657
ighed	-2658
▁witch	-2659
▁stat	-2660
▁tripped	-2661
▁Momo	-2662
▁using	-2663
Where	-2664
▁unknown	-2665
▁escape	-2666
▁clock	-2667
▁bitter	-2668
pes	-2669
▁stove	-2670
▁Andy	-2671
▁bean	-2672
Now	-2673
▁scr	-2674
▁Polly	-2675
▁screamed	-2676
▁libr	-2677
asing	-2678
▁popcorn	-2679
▁forgave	-2680
ony	-2681
▁nosy	-2682
▁licked	-2683
ying	-2684
▁dol	-2685
▁dolph	-2686
▁Snow	-2687
▁gar	-2688
▁market	-2689
▁dove	-2690
▁foolish	-2691
▁kindness	-2692
▁anyway	-2693
▁Bear	-2694
▁wander	-2695
▁fier	-2696
▁measure	-2697
▁If	-2698
▁circle	-2699
▁dug	-2700
▁Pe	-2701
▁frightened	-2702
▁jam	-2703
▁gloomy	-2704
▁dreaming	-2705
▁ref	-2706
edient	-2707
comfortable	-2708
▁Al	-2709
▁mailbox	-2710
lies	-2711
▁Your	-2712
▁fierce	-2713
illi	-2714
▁wealthy	-2715
gu	-2716
▁uncomfortable	-2717
▁gas	-2718
xible	-2719
▁depend	-2720
ung	-2721
urous	-2722
▁crack	-2723
▁wis	-2724
▁cere	-2725
▁adventurous	-2726
▁bored	-2727
land	-2728
iable	-2729
▁wrap	-2730
▁bridge	-2731
▁obedient	-2732
▁disappeared	-2733
▁respect	-2734
▁salad	-2735
▁board	-2736
fted	-2737
▁gum	-2738
▁competit	-2739
▁means	-2740
▁char	-2741
▁Jimmy	-2742
▁statue	-2743
▁crawled	-2744
▁clay	-2745
▁study	-2746
▁safely	-2747
▁sleeping	-2748
▁flexible	-2749
arth	-2750
inal	-2751
▁week	-2752
▁ruined	-2753
▁cereal	-2754
▁record	-2755
coa	-2756
▁hose	-2757
▁nuts	-2758
▁sauce	-2759
elp	-2760
▁swe	-2761
▁giving	-2762
▁impress	-2763
▁trucks	-2764
ict	-2765
▁potato	-2766
▁tank	-2767
irsty	-2768
illiant	-2769
▁office	-2770
▁Instead	-2771
▁belonged	-2772
▁shoe	-2773
▁brace	-2774
▁liz	-2775
▁brilliant	-2776
▁dull	-2777
▁trick	-2778
▁bracelet	-2779
▁wheel	-2780
▁Bird	-2781
▁reliable	-2782
▁poured	-2783
▁orig	-2784
▁practiced	-2785
▁stage	-2786
▁cher	-2787
met	-2788
▁grandpa	-2789
ormous	-2790
cod	-2791
▁twist	-2792
▁corn	-2793
▁helmet	-2794
▁successful	-2795
apped	-2796
▁enormous	-2797
▁badly	-2798
▁smiling	-2799
▁original	-2800
▁cam	-2801
▁Ros	-2802
▁bananas	-2803
▁thirsty	-2804
▁cocoa	-2805
▁island	-2806
▁Please	-2807
sc	-2808
▁gives	-2809
▁flash	-2810
cles	-2811
▁meal	-2812
▁destro	-2813
▁independ	-2814
▁juicy	-2815
▁rose	-2816
▁sunf	-2817
▁hairy	-2818
any	-2819
isted	-2820
Stop	-2821
inky	-2822
▁serious	-2823
▁cooking	-2824
▁goes	-2825
▁loves	-2826
▁knife	-2827
▁lizard	-2828
▁mole	-2829
▁hoop	-2830
▁steal	-2831
▁suggested	-2832
▁independent	-2833
loo	-2834
ours	-2835
▁mask	-2836
ery	-2837
oin	-2838
▁shiver	-2839
▁Doggy	-2840
▁toast	-2841
▁marble	-2842
▁parade	-2843
gust	-2844
▁impressive	-2845
▁Rosie	-2846
▁hay	-2847
▁blueber	-2848
▁aunt	-2849
▁ang	-2850
inary	-2851
ushed	-2852
▁horn	-2853
bled	-2854
▁disgust	-2855
▁crocod	-2856
▁grace	-2857
▁mid	-2858
anger	-2859
▁raven	-2860
▁relax	-2861
upid	-2862
atter	-2863
▁joined	-2864
▁goat	-2865
▁early	-2866
shion	-2867
▁dependable	-2868
ages	-2869
▁counted	-2870
▁forth	-2871
▁wip	-2872
▁cheap	-2873
▁rat	-2874
▁invited	-2875
▁middle	-2876
ps	-2877
▁deliver	-2878
▁disgusting	-2879
▁Sm	-2880
▁pant	-2881
▁stamp	-2882
▁smaller	-2883
▁penny	-2884
uth	-2885
▁moder	-2886
iches	-2887
▁lifted	-2888
▁playful	-2889
▁sandwiches	-2890
▁square	-2891
ilty	-2892
cut	-2893
▁Buzz	-2894
▁popular	-2895
Me	-2896
▁regular	-2897
▁jolly	-2898
▁guilty	-2899
▁fountain	-2900
▁lab	-2901
▁exciting	-2902
uper	-2903
Help	-2904
▁beet	-2905
▁hammer	-2906
▁prize	-2907
host	-2908
▁knight	-2909
▁thoughtful	-2910
▁crocodile	-2911
▁tor	-2912
amond	-2913
▁clap	-2914
aurant	-2915
▁restaurant	-2916
▁locked	-2917
▁corner	-2918
▁stupid	-2919
▁hurts	-2920
▁disappoin	-2921
▁diamond	-2922
▁pasta	-2923
▁Freddy	-2924
▁puts	-2925
▁charming	-2926
▁eye	-2927
▁paws	-2928
▁compass	-2929
▁reminded	-2930
▁fork	-2931
▁sock	-2932
▁crayon	-2933
▁choose	-2934
▁crane	-2935
▁jet	-2936
▁camera	-2937
▁needs	-2938
▁destroy	-2939
▁env	-2940
▁ghost	-2941
iness	-2942
▁tunn	-2943
If	-2944
cream	-2945
▁gem	-2946
atch	-2947
▁cheerful	-2948
▁warned	-2949
▁sailed	-2950
ost	-2951
time	-2952
▁pige	-2953
▁jog	-2954
▁squee	-2955
▁arrow	-2956
▁garage	-2957
▁rep	-2958
▁batht	-2959
▁stri	-2960
▁bathtub	-2961
▁returned	-2962
▁Betsy	-2963
▁grown	-2964
▁saf	-2965
▁twig	-2966
▁gir	-2967
▁saying	-2968
▁pil	-2969
▁muff	-2970
▁harmless	-2971
ctop	-2972
ates	-2973
▁fearful	-2974
▁trunk	-2975
▁careless	-2976
▁hunter	-2977
▁nowhere	-2978
▁led	-2979
vice	-2980
▁goose	-2981
▁modern	-2982
erable	-2983
▁cartoon	-2984
▁low	-2985
▁fig	-2986
ating	-2987
▁dolphin	-2988
▁gifted	-2989
▁beetle	-2990
▁humble	-2991
▁miserable	-2992
▁tire	-2993
ention	-2994
anged	-2995
▁comput	-2996
iv	-2997
▁walks	-2998
▁distance	-2999
▁library	-3000
▁super	-3001
▁stranger	-3002
ctopus	-3003
▁bandage	-3004
▁spring	-3005
▁Some	-3006
▁truth	-3007
▁Tiny	-3008
▁tied	-3009
▁eager	-3010
▁yet	-3011
▁mush	-3012
icop	-3013
icopter	-3014
▁jeep	-3015
▁vide	-3016
▁roof	-3017
▁doesn	-3018
▁filthy	-3019
▁zip	-3020
▁order	-3021
▁cooked	-3022
▁coll	-3023
▁enc	-3024
▁rug	-3025
▁wrapped	-3026
ready	-3027
oli	-3028
▁bicy	-3029
▁twirl	-3030
▁sunflower	-3031
▁torn	-3032
▁bottom	-3033
▁helicopter	-3034
▁pian	-3035
▁whispered	-3036
ccoli	-3037
▁create	-3038
▁already	-3039
▁compassion	-3040
▁Mum	-3041
▁trap	-3042
ither	-3043
▁octopus	-3044
▁barber	-3045
▁disappointed	-3046
▁boxes	-3047
▁answered	-3048
▁tries	-3049
▁flashlight	-3050
▁piano	-3051
▁parrot	-3052
▁coins	-3053
▁soldier	-3054
▁ordinary	-3055
▁apologized	-3056
▁crawl	-3057
▁pants	-3058
▁anx	-3059
▁quar	-3060
ject	-3061
▁deaf	-3062
▁comb	-3063
▁cryst	-3064
▁ending	-3065
ief	-3066
▁ways	-3067
▁anxious	-3068
▁mushroom	-3069
▁candle	-3070
▁case	-3071
▁magn	-3072
▁haircut	-3073
▁computer	-3074
ina	-3075
▁waff	-3076
▁er	-3077
▁prep	-3078
most	-3079
▁graceful	-3080
▁tooth	-3081
▁cop	-3082
▁troubled	-3083
▁stream	-3084
old	-3085
▁broccoli	-3086
▁rescue	-3087
▁dreamed	-3088
io	-3089
▁soar	-3090
▁value	-3091
▁rubb	-3092
▁Tr	-3093
ellig	-3094
▁Smith	-3095
▁advice	-3096
▁almost	-3097
▁belt	-3098
▁intellig	-3099
▁mug	-3100
▁anywhere	-3101
▁lying	-3102
▁smoke	-3103
▁send	-3104
ature	-3105
▁sil	-3106
▁lean	-3107
▁mill	-3108
▁butterflies	-3109
▁bull	-3110
▁frown	-3111
▁sandc	-3112
illa	-3113
▁changed	-3114
▁times	-3115
opl	-3116
eropl	-3117
▁decorate	-3118
▁kis	-3119
▁suit	-3120
utes	-3121
▁eng	-3122
▁skin	-3123
Here	-3124
▁harsh	-3125
▁base	-3126
▁vi	-3127
▁aeropl	-3128
▁helpless	-3129
▁celebrate	-3130
▁compassionate	-3131
opard	-3132
▁melon	-3133
▁pale	-3134
▁tricks	-3135
▁yours	-3136
▁wallet	-3137
▁bees	-3138
▁restless	-3139
live	-3140
umpet	-3141
▁jug	-3142
▁persist	-3143
▁quarrel	-3144
▁sighed	-3145
▁stretch	-3146
▁envious	-3147
▁shine	-3148
▁learning	-3149
▁angel	-3150
▁trumpet	-3151
▁thief	-3152
▁excite	-3153
▁minutes	-3154
▁alert	-3155
▁planet	-3156
▁bicycle	-3157
▁picking	-3158
▁notice	-3159
▁rice	-3160
▁sink	-3161
▁thinking	-3162
atient	-3163
▁intelligent	-3164
▁attract	-3165
▁cube	-3166
▁tem	-3167
▁question	-3168
ubby	-3169
▁tax	-3170
▁carp	-3171
▁vol	-3172
can	-3173
▁yogurt	-3174
▁lit	-3175
▁magnet	-3176
igator	-3177
uggled	-3178
▁may	-3179
▁bump	-3180
▁scoot	-3181
▁leopard	-3182
▁pepper	-3183
▁cap	-3184
▁enjoying	-3185
▁desk	-3186
▁flute	-3187
▁crystal	-3188
cake	-3189
▁viol	-3190
▁standing	-3191
▁valu	-3192
▁tunnel	-3193
▁cricket	-3194
▁chubby	-3195
▁carpet	-3196
orable	-3197
▁sle	-3198
▁stronger	-3199
▁scatter	-3200
Who	-3201
▁competitive	-3202
▁persistent	-3203
▁sweater	-3204
▁pigeon	-3205
▁impatient	-3206
▁encou	-3207
▁nail	-3208
▁those	-3209
▁basketball	-3210
▁adorable	-3211
▁speed	-3212
▁cact	-3213
cycle	-3214
▁rubbed	-3215
▁once	-3216
asses	-3217
▁taxi	-3218
▁figure	-3219
▁bedroom	-3220
▁reading	-3221
urb	-3222
▁load	-3223
▁attractive	-3224
▁guess	-3225
▁travel	-3226
▁knock	-3227
▁alligator	-3228
▁telling	-3229
▁violin	-3230
▁package	-3231
▁design	-3232
▁houses	-3233
ebra	-3234
▁scale	-3235
▁collar	-3236
▁pengu	-3237
▁envel	-3238
▁flour	-3239
▁laund	-3240
aff	-3241
hero	-3242
▁earth	-3243
▁laundry	-3244
cano	-3245
▁squash	-3246
▁added	-3247
angle	-3248
▁avoc	-3249
How	-3250
▁wiped	-3251
▁disturb	-3252
▁superhero	-3253
night	-3254
▁engine	-3255
▁purse	-3256
▁Rose	-3257
▁seal	-3258
▁melt	-3259
▁volcano	-3260
▁playground	-3261
▁themselves	-3262
▁valuable	-3263
▁zebra	-3264
▁barking	-3265
▁ears	-3266
cu	-3267
▁meat	-3268
▁guard	-3269
▁wheels	-3270
▁sheet	-3271
▁shrimp	-3272
▁radio	-3273
▁lively	-3274
ebook	-3275
▁notebook	-3276
▁post	-3277
▁pow	-3278
▁shade	-3279
▁ignorant	-3280
▁comet	-3281
▁raft	-3282
▁cats	-3283
▁cactus	-3284
▁speak	-3285
▁station	-3286
▁turkey	-3287
▁rece	-3288
▁pipe	-3289
▁questions	-3290
dest	-3291
▁hours	-3292
bul	-3293
▁Ella	-3294
▁curt	-3295
▁chalk	-3296
▁wire	-3297
▁saus	-3298
acht	-3299
▁Rex	-3300
▁curtain	-3301
▁happiness	-3302
dom	-3303
▁practice	-3304
▁enth	-3305
▁bags	-3306
▁pirate	-3307
az	-3308
▁thu	-3309
▁enthus	-3310
▁return	-3311
▁drawings	-3312
▁dust	-3313
▁wheat	-3314
▁tears	-3315
▁gathered	-3316
▁pony	-3317
▁boats	-3318
▁yacht	-3319
▁bul	-3320
affe	-3321
umbled	-3322
▁behave	-3323
aky	-3324
▁moms	-3325
▁firework	-3326
▁oat	-3327
nam	-3328
▁surf	-3329
▁screen	-3330
▁Pet	-3331
▁gets	-3332
▁univer	-3333
▁'	-3334
▁unlock	-3335
▁diary	-3336
▁temp	-3337
▁uncle	-3338
▁vet	-3339
▁dreams	-3340
▁compl	-3341
▁lights	-3342
▁comfort	-3343
▁ext	-3344
▁envelope	-3345
▁meadow	-3346
▁helps	-3347
▁scooter	-3348
▁vine	-3349
ache	-3350
bulance	-3351
▁ambulance	-3352
▁shape	-3353
▁chirp	-3354
▁yaw	-3355
▁acce	-3356
▁spinning	-3357
▁nicely	-3358
▁modest	-3359
▁arg	-3360
▁perm	-3361
▁half	-3362
▁nurse	-3363
▁jellyfish	-3364
▁Bubbles	-3365
ines	-3366
▁phot	-3367
▁costume	-3368
▁giraffe	-3369
▁cows	-3370
▁stack	-3371
▁aeroplane	-3372
aser	-3373
nament	-3374
▁reward	-3375
▁Pete	-3376
▁slept	-3377
▁bounced	-3378
iew	-3379
▁knot	-3380
▁support	-3381
ision	-3382
▁extra	-3383
▁distant	-3384
▁rub	-3385
▁mistakes	-3386
▁bulb	-3387
▁inse	-3388
▁view	-3389
▁thread	-3390
▁motorcycle	-3391
otter	-3392
▁Jenny	-3393
▁helper	-3394
▁otter	-3395
ito	-3396
▁city	-3397
▁camp	-3398
▁encoura	-3399
▁showing	-3400
▁skip	-3401
▁calling	-3402
▁ornament	-3403
▁gor	-3404
▁impro	-3405
▁trash	-3406
ceed	-3407
lete	-3408
▁pebble	-3409
tern	-3410
▁thankful	-3411
ulif	-3412
▁message	-3413
▁swinging	-3414
▁hipp	-3415
▁eventually	-3416
▁oy	-3417
▁Nut	-3418
▁dishes	-3419
▁tro	-3420
quito	-3421
▁riding	-3422
▁listening	-3423
▁repair	-3424
▁falling	-3425
▁forward	-3426
▁caulif	-3427
par	-3428
▁shield	-3429
▁tells	-3430
▁mos	-3431
lu	-3432
stic	-3433
▁shut	-3434
ination	-3435
ube	-3436
▁carrying	-3437
▁complete	-3438
▁ing	-3439
▁Will	-3440
▁climbing	-3441
iastic	-3442
▁enthusiastic	-3443
▁succeed	-3444
redient	-3445
▁ingredient	-3446
▁point	-3447
▁separ	-3448
▁Snowy	-3449
▁putting	-3450
▁Peter	-3451
▁mosquito	-3452
▁hotel	-3453
▁ticket	-3454
▁cauliflower	-3455
▁needle	-3456
▁eaten	-3457
▁marry	-3458
eer	-3459
▁boys	-3460
ailable	-3461
▁True	-3462
▁bubble	-3463
Sorry	-3464
sses	-3465
Ben	-3466
▁spell	-3467
lier	-3468
▁pee	-3469
hip	-3470
aged	-3471
▁object	-3472
▁excitement	-3473
▁tools	-3474
▁triangle	-3475
▁hook	-3476
▁gorilla	-3477
stri	-3478
▁attic	-3479
▁screw	-3480
▁puddles	-3481
arian	-3482
▁available	-3483
▁unpack	-3484
▁pretending	-3485
▁sparkly	-3486
▁gust	-3487
▁four	-3488
▁split	-3489
▁steak	-3490
▁chasing	-3491
▁inclu	-3492
▁tube	-3493
gging	-3494
▁pole	-3495
▁hippo	-3496
▁organize	-3497
▁stones	-3498
azz	-3499
▁onion	-3500
▁earlier	-3501
aid	-3502
▁barrel	-3503
▁harder	-3504
▁shells	-3505
▁friendship	-3506
▁fort	-3507
▁insect	-3508
▁eraser	-3509
▁itch	-3510
▁peach	-3511
▁poem	-3512
▁boots	-3513
▁pilot	-3514
▁pit	-3515
▁spun	-3516
▁football	-3517
vator	-3518
▁wife	-3519
Well	-3520
▁thunder	-3521
appy	-3522
▁mop	-3523
▁tray	-3524
▁mild	-3525
▁sniff	-3526
▁elevator	-3527
▁rod	-3528
▁polish	-3529
▁leash	-3530
elery	-3531
▁club	-3532
▁drawer	-3533
▁gro	-3534
seum	-3535
▁flea	-3536
▁hedge	-3537
▁chain	-3538
▁Nutty	-3539
▁cushion	-3540
▁pattern	-3541
ric	-3542
▁deter	-3543
▁museum	-3544
inoc	-3545
▁dive	-3546
▁monkeys	-3547
▁growing	-3548
▁seas	-3549
▁cries	-3550
▁grapes	-3551
cakes	-3552
▁rag	-3553
▁folder	-3554
we	-3555
▁mint	-3556
irit	-3557
essert	-3558
▁ingredients	-3559
▁fallen	-3560
ffe	-3561
phy	-3562
indeer	-3563
▁celery	-3564
body	-3565
ffee	-3566
▁nature	-3567
▁dessert	-3568
▁patch	-3569
▁hanging	-3570
▁baseball	-3571
strich	-3572
▁mem	-3573
▁determ	-3574
▁growl	-3575
▁hears	-3576
▁journal	-3577
▁trophy	-3578
▁vest	-3579
▁rushed	-3580
▁Many	-3581
▁stairs	-3582
▁walls	-3583
▁glove	-3584
▁hats	-3585
▁ur	-3586
▁rubber	-3587
▁itself	-3588
▁surprises	-3589
▁size	-3590
▁either	-3591
▁lend	-3592
▁ins	-3593
▁coal	-3594
▁reindeer	-3595
▁kay	-3596
chair	-3597
▁yoga	-3598
▁chess	-3599
▁penguin	-3600
▁video	-3601
▁metal	-3602
▁factor	-3603
▁mule	-3604
▁shouldn	-3605
▁herb	-3606
▁baking	-3607
▁raced	-3608
▁biggest	-3609
▁salt	-3610
zzy	-3611
▁Today	-3612
▁factory	-3613
▁pun	-3614
▁louder	-3615
seek	-3616
▁strawberry	-3617
▁squirrels	-3618
ressed	-3619
urch	-3620
▁rh	-3621
▁armchair	-3622
iest	-3623
▁cupboard	-3624
▁shows	-3625
▁fu	-3626
▁actually	-3627
▁coffee	-3628
▁Jake	-3629
▁judge	-3630
inocer	-3631
▁skipped	-3632
▁task	-3633
▁golf	-3634
▁skirt	-3635
▁counting	-3636
▁oyster	-3637
▁fre	-3638
iron	-3639
play	-3640
▁tap	-3641
asher	-3642
randpa	-3643
▁blueberries	-3644
▁popped	-3645
▁cudd	-3646
▁grocer	-3647
▁soc	-3648
omes	-3649
▁frame	-3650
▁musician	-3651
inoceros	-3652
washer	-3653
▁bin	-3654
ugged	-3655
▁repe	-3656
▁cord	-3657
▁impressed	-3658
gl	-3659
ley	-3660
▁soccer	-3661
▁magaz	-3662
▁spirit	-3663
iggle	-3664
▁dishwasher	-3665
▁avocado	-3666
▁resist	-3667
▁drop	-3668
▁kissed	-3669
▁display	-3670
▁stumbled	-3671
▁church	-3672
ney	-3673
▁Miss	-3674
▁obser	-3675
▁makeup	-3676
▁lotion	-3677
▁fresh	-3678
▁decide	-3679
▁battery	-3680
kelet	-3681
▁math	-3682
▁glowing	-3683
▁microphone	-3684
▁maze	-3685
▁No	-3686
▁fireman	-3687
▁matt	-3688
▁sight	-3689
▁film	-3690
▁handle	-3691
▁airport	-3692
gen	-3693
keep	-3694
▁loop	-3695
▁hive	-3696
▁skull	-3697
▁sett	-3698
▁Little	-3699
▁discovered	-3700
▁ink	-3701
▁por	-3702
▁rot	-3703
glasses	-3704
▁rhinoceros	-3705
▁hurry	-3706
▁sunglasses	-3707
▁freez	-3708
ations	-3709
▁hung	-3710
▁checked	-3711
▁quit	-3712
▁wool	-3713
chan	-3714
web	-3715
▁imagine	-3716
▁cob	-3717
▁mattress	-3718
icer	-3719
▁sounded	-3720
▁Fo	-3721
▁sy	-3722
▁lime	-3723
▁radish	-3724
▁vend	-3725
▁ostrich	-3726
place	-3727
▁skelet	-3728
▁stuffed	-3729
▁Rob	-3730
ef	-3731
▁reco	-3732
head	-3733
▁poke	-3734
imney	-3735
gn	-3736
▁ig	-3737
▁igloo	-3738
▁kayak	-3739
▁chimney	-3740
astle	-3741
▁prun	-3742
ucet	-3743
▁faucet	-3744
arry	-3745
▁nods	-3746
▁fisher	-3747
▁grand	-3748
▁crawling	-3749
ured	-3750
▁cooler	-3751
▁cobweb	-3752
There	-3753
▁cable	-3754
Thanks	-3755
▁sandcastle	-3756
▁vendor	-3757
▁excitedly	-3758
nger	-3759
▁buttons	-3760
scope	-3761
chanic	-3762
▁towers	-3763
▁spotted	-3764
▁powder	-3765
▁medal	-3766
aroo	-3767
angaroo	-3768
iling	-3769
esday	-3770
▁tut	-3771
▁mixer	-3772
▁zipper	-3773
umbers	-3774
▁spear	-3775
▁prov	-3776
▁fireplace	-3777
▁pointing	-3778
▁bury	-3779
▁napkin	-3780
▁rever	-3781
▁fixing	-3782
lter	-3783
▁muffin	-3784
▁homes	-3785
▁lightning	-3786
▁newsp	-3787
▁telephone	-3788
edy	-3789
▁shelter	-3790
case	-3791
▁kangaroo	-3792
ye	-3793
▁skeleton	-3794
▁mechanic	-3795
▁against	-3796
▁reef	-3797
ext	-3798
▁fisherman	-3799
▁managed	-3800
▁sub	-3801
▁sailor	-3802
▁veil	-3803
▁goal	-3804
ckey	-3805
▁hockey	-3806
▁refused	-3807
▁laser	-3808
▁cardboard	-3809
▁microscope	-3810
▁recogn	-3811
▁airpl	-3812
ron	-3813
▁weather	-3814
▁aut	-3815
▁ax	-3816
▁breat	-3817
▁anch	-3818
▁switch	-3819
▁pand	-3820
▁pear	-3821
▁tear	-3822
▁missile	-3823
▁root	-3824
▁Spike	-3825
▁temple	-3826
▁weep	-3827
▁determined	-3828
▁swung	-3829
keeper	-3830
orted	-3831
▁rise	-3832
▁slides	-3833
▁hoping	-3834
Dad	-3835
▁pine	-3836
▁accidents	-3837
▁numbers	-3838
▁wishes	-3839
▁gear	-3840
htray	-3841
▁bears	-3842
▁porch	-3843
▁tornado	-3844
ped	-3845
▁sne	-3846
▁anchor	-3847
▁parent	-3848
▁keeping	-3849
▁ed	-3850
Ouch	-3851
▁axe	-3852
▁disag	-3853
Yay	-3854
▁wipe	-3855
▁admired	-3856
▁fog	-3857
▁bookshe	-3858
▁jokes	-3859
▁sunset	-3860
▁Sunny	-3861
▁passport	-3862
▁hall	-3863
▁resp	-3864
▁planned	-3865
▁burn	-3866
▁blouse	-3867
▁blackboard	-3868
uggling	-3869
▁circles	-3870
▁short	-3871
inking	-3872
▁staff	-3873
▁grill	-3874
▁bookcase	-3875
▁bookshelf	-3876
ilet	-3877
▁art	-3878
ym	-3879
▁Look	-3880
▁ashtray	-3881
▁opera	-3882
erc	-3883
▁gym	-3884
▁shrink	-3885
Sam	-3886
▁jewelry	-3887
▁pal	-3888
shed	-3889
lau	-3890
▁toilet	-3891
ense	-3892
▁iron	-3893
▁dancer	-3894
▁winter	-3895
ience	-3896
▁peeked	-3897
omob	-3898
istol	-3899
essie	-3900
▁freezer	-3901
▁automob	-3902
▁fastest	-3903
▁backpack	-3904
▁Poppy	-3905
▁cabinet	-3906
▁magazine	-3907
▁miner	-3908
ampoo	-3909
▁palace	-3910
▁improve	-3911
▁oil	-3912
▁rained	-3913
▁sneeze	-3914
▁soil	-3915
▁exerc	-3916
▁photo	-3917
aced	-3918
▁bill	-3919
▁newspaper	-3920
te	-3921
▁prevent	-3922
▁picks	-3923
▁pistol	-3924
▁rolling	-3925
▁complain	-3926
arm	-3927
▁cherries	-3928
▁tutor	-3929
▁silver	-3930
▁cast	-3931
▁separate	-3932
ival	-3933
▁creek	-3934
▁flame	-3935
▁shocked	-3936
house	-3937
▁Carl	-3938
▁cane	-3939
stairs	-3940
▁explain	-3941
▁shampoo	-3942
▁subway	-3943
▁painter	-3944
▁spoke	-3945
vision	-3946
▁ten	-3947
▁beef	-3948
▁Sh	-3949
▁ward	-3950
▁suff	-3951
▁theater	-3952
▁ceiling	-3953
▁wardrobe	-3954
▁sadly	-3955
▁disappear	-3956
See	-3957
ately	-3958
▁panda	-3959
▁television	-3960
▁imagined	-3961
angu	-3962
▁cards	-3963
▁fingers	-3964
▁langu	-3965
▁ribb	-3966
▁bathe	-3967
▁weigh	-3968
lend	-3969
▁stirred	-3970
▁Pip	-3971
▁delight	-3972
▁mustache	-3973
hic	-3974
▁taller	-3975
▁shower	-3976
▁vehic	-3977
▁Spark	-3978
▁Sus	-3979
▁meowed	-3980
▁swamp	-3981
▁Pandy	-3982
▁fro	-3983
▁serve	-3984
▁fest	-3985
▁neat	-3986
▁choice	-3987
▁perfume	-3988
▁delay	-3989
▁pastry	-3990
▁dear	-3991
▁men	-3992
▁Are	-3993
▁meeting	-3994
▁oak	-3995
Did	-3996
▁washing	-3997
▁birdc	-3998
asis	-3999
▁Floppy	-4000
▁novel	-4001
▁attach	-4002
▁Dan	-4003
▁happier	-4004
▁allowed	-4005
▁letting	-4006
▁bathrobe	-4007
▁birdcage	-4008
▁rake	-4009
▁snuggled	-4010
eterin	-4011
▁trail	-4012
▁saving	-4013
eterinarian	-4014
iction	-4015
▁drain	-4016
▁chance	-4017
▁knows	-4018
▁lawy	-4019
▁Pipp	-4020
render	-4021
▁veterinarian	-4022
▁shaking	-4023
▁starting	-4024
▁hanger	-4025
ictionary	-4026
asp	-4027
▁fuel	-4028
▁invite	-4029
▁automobile	-4030
mbol	-4031
▁oasis	-4032
rod	-4033
▁meas	-4034
apers	-4035
▁olive	-4036
▁reve	-4037
▁introd	-4038
▁symbol	-4039
▁trains	-4040
mend	-4041
▁prepare	-4042
▁lemonade	-4043
▁problems	-4044
▁raining	-4045
▁fishing	-4046
▁struggling	-4047
▁nobody	-4048
uckily	-4049
commend	-4050
▁lawn	-4051
▁edge	-4052
xy	-4053
▁reveal	-4054
▁Sque	-4055
▁calend	-4056
▁classroom	-4057
▁recommend	-4058
▁human	-4059
▁hut	-4060
▁discu	-4061
riger	-4062
▁regret	-4063
rigerator	-4064
▁Frog	-4065
▁socks	-4066
▁Eventually	-4067
▁content	-4068
▁refrigerator	-4069
▁cups	-4070
▁easily	-4071
▁chickens	-4072
▁strawberries	-4073
▁raz	-4074
▁father	-4075
▁airplane	-4076
▁insisted	-4077
▁lawyer	-4078
iform	-4079
▁uniform	-4080
▁calendar	-4081
▁five	-4082
▁waffle	-4083
▁sausage	-4084
ait	-4085
▁lumber	-4086
▁mitten	-4087
▁marched	-4088
▁festival	-4089
▁dictionary	-4090
▁Ba	-4091
▁tease	-4092
▁alarm	-4093
▁sandbox	-4094
▁visited	-4095
leased	-4096
▁yield	-4097
▁float	-4098
▁crib	-4099
▁Joey	-4100
▁belongs	-4101
nit	-4102
▁cliff	-4103
▁buried	-4104
▁sent	-4105
▁remove	-4106
▁creatures	-4107
niture	-4108
▁cell	-4109
▁trade	-4110
▁Sad	-4111
▁stickers	-4112
▁searching	-4113
▁furniture	-4114
▁trusted	-4115
▁replace	-4116
▁reverse	-4117
▁letters	-4118
ded	-4119
▁supply	-4120
Sp	-4121
▁tub	-4122
▁lions	-4123
▁stom	-4124
▁Before	-4125
Re	-4126
▁roared	-4127
▁file	-4128
nce	-4129
▁pinch	-4130
▁Dolly	-4131
▁windows	-4132
▁People	-4133
▁stared	-4134
▁dresses	-4135
▁pressed	-4136
▁during	-4137
▁waste	-4138
▁panic	-4139
▁razor	-4140
▁collection	-4141
▁billboard	-4142
mand	-4143
▁pair	-4144
▁holes	-4145
▁blowing	-4146
▁junk	-4147
▁bet	-4148
▁conf	-4149
▁Mummy	-4150
aspoon	-4151
▁patiently	-4152
aches	-4153
▁sneezed	-4154
▁ignore	-4155
▁handed	-4156
▁quiz	-4157
▁player	-4158
▁surrender	-4159
▁tuna	-4160
▁whip	-4161
▁OK	-4162
▁steps	-4163
▁teaspoon	-4164
▁knob	-4165
▁rail	-4166
▁Would	-4167
ium	-4168
▁country	-4169
▁perfectly	-4170
▁papers	-4171
▁fla	-4172
▁difference	-4173
▁ped	-4174
▁above	-4175
▁language	-4176
etch	-4177
quest	-4178
▁feelings	-4179
▁Ted	-4180
rec	-4181
Bye	-4182
▁lie	-4183
▁Bessie	-4184
▁applau	-4185
▁sprayed	-4186
▁cur	-4187
▁leaned	-4188
▁argue	-4189
▁stable	-4190
▁request	-4191
▁Ru	-4192
▁accept	-4193
▁mod	-4194
son	-4195
▁rules	-4196
▁stretched	-4197
▁bumped	-4198
▁lic	-4199
▁respons	-4200
Your	-4201
He	-4202
ays	-4203
▁chose	-4204
▁scratch	-4205
▁hate	-4206
▁baked	-4207
▁shoulder	-4208
▁seeing	-4209
▁page	-4210
▁peek	-4211
▁unite	-4212
▁inf	-4213
wards	-4214
ding	-4215
▁snap	-4216
ricane	-4217
Wait	-4218
▁Birdy	-4219
▁Alice	-4220
▁yucky	-4221
▁buckle	-4222
▁burned	-4223
reci	-4224
▁firef	-4225
▁happens	-4226
ison	-4227
▁son	-4228
▁destroyed	-4229
▁cared	-4230
▁apron	-4231
uack	-4232
▁appreci	-4233
▁jail	-4234
ucture	-4235
▁bikes	-4236
▁ended	-4237
▁license	-4238
▁structure	-4239
▁admire	-4240
▁weap	-4241
▁ga	-4242
cted	-4243
▁incre	-4244
▁poked	-4245
▁throwing	-4246
▁Co	-4247
inked	-4248
astic	-4249
hood	-4250
▁fought	-4251
eor	-4252
Sue	-4253
▁Sadly	-4254
adium	-4255
▁stadium	-4256
ulu	-4257
▁attention	-4258
▁suffer	-4259
▁demand	-4260
▁ahead	-4261
aring	-4262
▁proudly	-4263
▁hurricane	-4264
▁caring	-4265
▁vac	-4266
vest	-4267
▁laughs	-4268
▁berry	-4269
igi	-4270
▁digg	-4271
▁lands	-4272
▁valley	-4273
▁Harry	-4274
▁Luckily	-4275
▁falls	-4276
▁digging	-4277
▁restore	-4278
▁ranch	-4279
▁protec	-4280
ecause	-4281
▁shone	-4282
▁vehicle	-4283
▁sum	-4284
▁pancakes	-4285
▁news	-4286
▁worth	-4287
▁Here	-4288
▁wine	-4289
▁kneel	-4290
▁Lulu	-4291
▁shrugged	-4292
Is	-4293
▁thumb	-4294
▁mall	-4295
▁blinked	-4296
▁counter	-4297
anges	-4298
▁mystery	-4299
▁Susie	-4300
enny	-4301
▁sew	-4302
▁raise	-4303
▁older	-4304
▁winning	-4305
eorge	-4306
▁myself	-4307
▁spade	-4308
▁mineral	-4309
elcome	-4310
▁toe	-4311
▁guy	-4312
▁Squeaky	-4313
▁closely	-4314
▁fields	-4315
ipping	-4316
▁quietly	-4317
uggage	-4318
▁watered	-4319
rise	-4320
▁twirled	-4321
▁model	-4322
ips	-4323
▁mention	-4324
▁known	-4325
▁flood	-4326
▁capt	-4327
▁Mick	-4328
▁summer	-4329
▁skill	-4330
▁luggage	-4331
▁brothers	-4332
emember	-4333
▁provide	-4334
▁grape	-4335
▁Hoppy	-4336
▁sunrise	-4337
mm	-4338
Spot	-4339
▁fetch	-4340
They	-4341
▁poppy	-4342
▁Where	-4343
▁matches	-4344
▁exercise	-4345
▁Binky	-4346
▁oats	-4347
▁officer	-4348
noon	-4349
▁Tina	-4350
▁squeeze	-4351
▁cartoons	-4352
▁afternoon	-4353
▁cham	-4354
▁marbles	-4355
▁planes	-4356
▁peanuts	-4357
?".	-4358
▁Pippin	-4359
▁Next	-4360
▁hurting	-4361
▁plastic	-4362
▁warn	-4363
▁Charl	-4364
▁enter	-4365
▁breathe	-4366
zag	-4367
▁port	-4368
▁rabbits	-4369
▁splashing	-4370
▁claw	-4371
vet	-4372
cus	-4373
aked	-4374
thank	-4375
▁invest	-4376
▁expect	-4377
▁investig	-4378
▁imagination	-4379
▁Mickey	-4380
▁chamber	-4381
igzag	-4382
oby	-4383
▁evening	-4384
▁encouraged	-4385
quake	-4386
▁Buzzy	-4387
▁zoomed	-4388
▁harbor	-4389
▁vacation	-4390
lid	-4391
▁sniffed	-4392
▁investigate	-4393
▁kinds	-4394
▁discuss	-4395
▁prop	-4396
ari	-4397
sity	-4398
▁Betty	-4399
▁earthquake	-4400
uct	-4401
▁pages	-4402
lest	-4403
rmomet	-4404
▁holid	-4405
▁beauty	-4406
▁horses	-4407
▁squeezed	-4408
ooped	-4409
▁steam	-4410
▁slipper	-4411
▁fireworks	-4412
rmometer	-4413
▁shivering	-4414
▁menu	-4415
ement	-4416
▁slippery	-4417
ived	-4418
▁ribbon	-4419
▁repeat	-4420
▁sparkled	-4421
icorn	-4422
▁unicorn	-4423
▁placed	-4424
ups	-4425
▁captain	-4426
low	-4427
▁daisy	-4428
▁pad	-4429
▁chirped	-4430
▁leak	-4431
▁sailing	-4432
▁mass	-4433
▁believed	-4434
▁Johnson	-4435
▁thermometer	-4436
▁infant	-4437
▁examine	-4438
▁beans	-4439
▁names	-4440
▁sorts	-4441
▁weapon	-4442
▁tour	-4443
▁aw	-4444
▁Toby	-4445
ety	-4446
▁rooms	-4447
▁acorns	-4448
▁comf	-4449
▁sport	-4450
▁Kim	-4451
▁row	-4452
▁treasures	-4453
▁poison	-4454
▁shovel	-4455
▁ener	-4456
atched	-4457
▁Pinky	-4458
▁flavor	-4459
▁waving	-4460
▁spending	-4461
▁Cl	-4462
▁score	-4463
▁Hel	-4464
▁event	-4465
▁agree	-4466
mble	-4467
▁beep	-4468
▁frogs	-4469
▁paid	-4470
▁invit	-4471
▁colour	-4472
▁copper	-4473
▁universe	-4474
▁ok	-4475
▁talent	-4476
▁lid	-4477
uture	-4478
▁stud	-4479
▁upstairs	-4480
▁future	-4481
▁settle	-4482
▁oranges	-4483
▁flapped	-4484
▁tremble	-4485
▁brick	-4486
uggles	-4487
▁Mar	-4488
▁ow	-4489
▁freeze	-4490
▁realised	-4491
▁Boun	-4492
▁offer	-4493
▁following	-4494
▁selling	-4495
▁holiday	-4496
▁Charlie	-4497
▁x	-4498
▁opens	-4499
▁safety	-4500
▁equ	-4501
▁chairs	-4502
▁yawned	-4503
▁pup	-4504
▁rhy	-4505
▁sprink	-4506
▁Hoot	-4507
▁explored	-4508
▁wag	-4509
▁scold	-4510
▁prayed	-4511
▁planted	-4512
▁Y	-4513
▁tip	-4514
▁plates	-4515
▁given	-4516
▁received	-4517
ik	-4518
▁sticker	-4519
▁pushing	-4520
▁Finn	-4521
▁pigs	-4522
▁neighborhood	-4523
thm	-4524
▁stops	-4525
▁holds	-4526
boo	-4527
icing	-4528
▁tore	-4529
▁bricks	-4530
▁receive	-4531
▁apart	-4532
▁stomach	-4533
▁respectful	-4534
▁sticky	-4535
ah	-4536
▁observe	-4537
▁claws	-4538
▁cherry	-4539
▁gasped	-4540
uggle	-4541
▁vroom	-4542
▁gain	-4543
▁label	-4544
fa	-4545
▁Bluey	-4546
▁ordered	-4547
▁rang	-4548
ssible	-4549
▁somewhere	-4550
▁safari	-4551
▁university	-4552
▁crashed	-4553
▁twisted	-4554
▁Everywhere	-4555
▁Snuggles	-4556
▁navy	-4557
▁worse	-4558
▁ignored	-4559
▁rhythm	-4560
▁Mike	-4561
▁minute	-4562
ges	-4563
▁buzz	-4564
▁Ow	-4565
▁However	-4566
▁shot	-4567
▁alive	-4568
▁lives	-4569
▁thanks	-4570
▁brain	-4571
▁bother	-4572
▁vanished	-4573
▁doors	-4574
▁writing	-4575
ween	-4576
▁drinking	-4577
▁slip	-4578
Mmm	-4579
▁candles	-4580
▁urge	-4581
▁cakes	-4582
▁between	-4583
▁warning	-4584
▁scattered	-4585
▁shooting	-4586
▁jazz	-4587
▁streng	-4588
▁Sund	-4589
▁bouncing	-4590
▁grocery	-4591
▁palm	-4592
▁pur	-4593
▁strength	-4594
chie	-4595
oodbye	-4596
ffic	-4597
▁allow	-4598
▁catching	-4599
▁dare	-4600
▁bak	-4601
Ow	-4602
looking	-4603
▁inst	-4604
▁energy	-4605
▁mummy	-4606
▁smells	-4607
▁cutting	-4608
oph	-4609
▁wre	-4610
▁appear	-4611
▁Dave	-4612
▁weight	-4613
▁punish	-4614
▁dressed	-4615
▁traffic	-4616
men	-4617
▁soak	-4618
▁forgotten	-4619
▁brighter	-4620
▁crossed	-4621
sit	-4622
▁sofa	-4623
▁Lilly	-4624
▁spots	-4625
ince	-4626
med	-4627
▁Lucky	-4628
▁printer	-4629
mare	-4630
ship	-4631
▁include	-4632
▁jewels	-4633
▁kingdom	-4634
▁parts	-4635
▁responsible	-4636
▁steel	-4637
▁massage	-4638
▁waffles	-4639
▁skills	-4640
▁remain	-4641
ipment	-4642
▁clapping	-4643
▁permit	-4644
▁equipment	-4645
▁oper	-4646
▁nation	-4647
▁trapped	-4648
xygen	-4649
unately	-4650
▁lemons	-4651
▁teaching	-4652
▁tide	-4653
▁frowned	-4654
▁hers	-4655
▁appreciate	-4656
▁Mandy	-4657
▁hist	-4658
angers	-4659
▁During	-4660
sters	-4661
!".	-4662
▁jumps	-4663
▁strangers	-4664
▁history	-4665
▁wagging	-4666
▁presents	-4667
ising	-4668
▁giggle	-4669
▁chewed	-4670
walk	-4671
▁release	-4672
▁sty	-4673
▁married	-4674
▁brightly	-4675
▁nightmare	-4676
▁bouncy	-4677
▁chore	-4678
▁Days	-4679
▁collected	-4680
▁tonight	-4681
▁pirates	-4682
▁Help	-4683
▁dared	-4684
▁second	-4685
▁Froggy	-4686
▁pastel	-4687
▁exper	-4688
▁potatoes	-4689
▁wandered	-4690
▁leather	-4691
▁sidewalk	-4692
▁worms	-4693
Because	-4694
▁web	-4695
ero	-4696
▁burrow	-4697
▁castles	-4698
▁luck	-4699
▁bend	-4700
ib	-4701
▁Chick	-4702
ories	-4703
▁solved	-4704
ecture	-4705
These	-4706
▁entered	-4707
▁yawn	-4708
▁lecture	-4709
▁operation	-4710
▁marching	-4711
utter	-4712
▁breaks	-4713
▁chores	-4714
▁circus	-4715
▁deeper	-4716
▁snowball	-4717
▁Spe	-4718
▁mailman	-4719
Daddy	-4720
ishing	-4721
▁strip	-4722
▁folded	-4723
▁racing	-4724
▁jogging	-4725
▁rush	-4726
▁begged	-4727
▁softly	-4728
▁growled	-4729
▁Jazz	-4730
omed	-4731
▁tomatoes	-4732
▁jogged	-4733
▁pleased	-4734
▁petted	-4735
▁puzzles	-4736
▁blueberry	-4737
▁slice	-4738
agull	-4739
▁pitch	-4740
▁Ra	-4741
▁floating	-4742
▁underground	-4743
▁lip	-4744
fortunately	-4745
▁Soph	-4746
bug	-4747
▁sip	-4748
▁starts	-4749
allow	-4750
▁cheek	-4751
▁network	-4752
▁heat	-4753
Welcome	-4754
▁Pat	-4755
nies	-4756
▁tracks	-4757
▁welcom	-4758
iers	-4759
▁wisdom	-4760
▁Bill	-4761
▁measured	-4762
iki	-4763
▁budge	-4764
▁mice	-4765
umble	-4766
▁price	-4767
▁bent	-4768
▁seagull	-4769
▁ali	-4770
▁memory	-4771
▁spaceship	-4772
▁Big	-4773
▁increase	-4774
▁moves	-4775
race	-4776
sing	-4777
▁emer	-4778
▁encourage	-4779
▁Bow	-4780
▁invitation	-4781
▁scolded	-4782
oved	-4783
▁stole	-4784
▁elephants	-4785
▁memories	-4786
▁pulling	-4787
▁kitty	-4788
▁manage	-4789
▁spill	-4790
edn	-4791
▁glo	-4792
ednesday	-4793
▁spike	-4794
▁unh	-4795
▁Wednesday	-4796
▁vel	-4797
▁straight	-4798
vour	-4799
od	-4800
▁easier	-4801
▁oxygen	-4802
▁velvet	-4803
▁hadn	-4804
▁appro	-4805
▁soldiers	-4806
▁quack	-4807
use	-4808
▁introduce	-4809
▁raised	-4810
▁zigzag	-4811
hell	-4812
▁heads	-4813
▁petals	-4814
▁Coco	-4815
▁anytime	-4816
▁Lee	-4817
▁prune	-4818
▁finds	-4819
omeday	-4820
▁mentioned	-4821
▁blankets	-4822
▁ladybug	-4823
▁simp	-4824
ission	-4825
sterday	-4826
esterday	-4827
▁bones	-4828
▁gloves	-4829
▁pedal	-4830
▁prett	-4831
ola	-4832
▁flies	-4833
▁someday	-4834
▁weeks	-4835
▁permission	-4836
▁Sunday	-4837
▁muffins	-4838
▁dried	-4839
▁Kiki	-4840
▁unhappy	-4841
essed	-4842
▁favour	-4843
▁seashell	-4844
▁breaking	-4845
Yuck	-4846
▁unlocked	-4847
▁Speedy	-4848
▁wreck	-4849
ucked	-4850
▁recognize	-4851
▁disagreed	-4852
▁firefight	-4853
▁ourselves	-4854
▁isn	-4855
▁Olive	-4856
▁printed	-4857
▁shouting	-4858
uesday	-4859
▁below	-4860
▁shouts	-4861
▁Sparky	-4862
▁collecting	-4863
▁Pa	-4864
▁Tuesday	-4865
▁doctors	-4866
▁favourite	-4867
lex	-4868
▁rested	-4869
▁landscape	-4870
▁Cra	-4871
ab	-4872
ides	-4873
▁sir	-4874
▁died	-4875
▁greedy	-4876
▁succeeded	-4877
▁Owl	-4878
ury	-4879
▁hills	-4880
▁foods	-4881
▁furt	-4882
▁points	-4883
▁remained	-4884
Yum	-4885
▁strike	-4886
▁resting	-4887
▁possible	-4888
Not	-4889
ored	-4890
▁practicing	-4891
▁muscles	-4892
Ann	-4893
▁peaches	-4894
▁attached	-4895
▁Lola	-4896
▁escap	-4897
▁company	-4898
▁further	-4899
▁gazed	-4900
ddy	-4901
rage	-4902
▁whisper	-4903
▁drinks	-4904
▁press	-4905
▁snail	-4906
▁punished	-4907
▁style	-4908
▁teasing	-4909
▁Have	-4910
▁Paul	-4911
▁wigg	-4912
▁balan	-4913
▁boo	-4914
▁heel	-4915
▁welcomed	-4916
▁lick	-4917
▁pears	-4918
▁snapped	-4919
▁waist	-4920
▁struggled	-4921
eze	-4922
▁surround	-4923
▁cape	-4924
▁guys	-4925
▁floated	-4926
▁gran	-4927
▁groceries	-4928
▁sudden	-4929
▁courage	-4930
oe	-4931
ution	-4932
▁prunes	-4933
▁whistled	-4934
▁grant	-4935
▁seats	-4936
▁trave	-4937
▁crash	-4938
ncle	-4939
▁cub	-4940
▁mama	-4941
▁urged	-4942
▁	-4943
e	-4944
a	-4945
t	-4946
o	-4947
h	-4948
n	-4949
i	-4950
d	-4951
s	-4952
r	-4953
l	-4954
y	-4955
m	-4956
w	-4957
u	-4958
.	-4959
p	-4960
g	-4961
c	-4962
b	-4963
f	-4964
,	-4965
k	-4966
T	-4967
v	-4968
"	-4969
S	-4970
L	-4971
'	-4972
H	-4973
O	-4974
I	-4975
!	-4976
x	-4977
B	-4978
M	-4979
A	-4980
W	-4981
j	-4982
?	-4983
z	-4984
Y	-4985
F	-4986
J	-4987
D	-4988
q	-4989
C	-4990
N	-4991
E	-4992
P	-4993
R	-4994
K	-4995
